38
layer_seq.glp_0.linear1.weight 384  bb484f41 3e60421c beac0915 be99d40a be210329 3de03451 bc048674 3ea5bb74 bd14657f 3ddd3d97 bdfcad97 bda458cb bec7b0a0 be8a6eaa be2c540d 3c77c65b 3e2544b6 3e7ad658 be8db493 be360b2a 3e17d770 3ead91ff bdac1168 3e9c6a1b bd86c3a3 3d30f0d5 3ebd43f6 bec1e792 be839687 bdd3ab69 be22f454 3eb4989d be877c0b be4070c0 be920832 bec3c34e be7407d0 3eb3ad06 3e3a8a38 3e4a9d95 3cafe2ba be56534f 3d8d743d bec329ee be970877 be5783f0 3e83e171 3e751c02 be3966c5 bc715881 3e85aed8 3ecfcbfc 3e25ea45 3d61e677 3e8c25ac be762589 3d9bcd04 bea20e8a be90defc be57f4b1 3e3d2798 3e281f25 be77a179 3dfc96e9 3e657ee6 bd530f0d 3c7f62ed 3dc1ba01 3e81ac4d 3ec8b3e9 bea11402 be193389 3e244bdc 3ead2f9d 3eb5e4ba 3eb86ed7 3da66503 beb5c34d 3d19d417 be82c418 bec2cccb 3eb9b72a 3e9eeecb bed081a5 3d9c7e40 bd8cd921 bd89969e be3f5d12 3e20c324 be779c3b 3e19408c 3e5368cd 3e95a23b 3e1c4fe9 becee0a8 be8797b8 3e50bc9e 3daefecc bea30e3c be70b81d 3ec4a36c 3e8cd7f1 be364758 bdd26e88 bec71d73 bbf072dd be9d6820 bea13b3d bcb84603 3d7b1200 be2b33de 3e780f2d be7e65c3 3ebda94d 3e8f3e58 beb04401 bdd0171f 3c96e821 3d73f93f 3dc64cb5 3e240d9d 3cc8540d be4bfa0f 3e45d09d bec88155 be77c760 bdd14c86 be4ba2cc be123f1d beab51e4 bdb1d97c 3db2b85d be882be2 bcaba185 3e95a11f bd2be6ab 3c39e519 bd1041f0 3da935a5 3e84e7b8 3ec5ff12 3e84bdcb 3ec6730b bcf1ded1 bebbc51d be462fac 3e8e532f bb2d7045 be4fc9d3 bea02d48 bec39d5f beb06ad0 bda9971d 3e654253 3e620353 bec996ad 3e826287 bea39005 bdb0c231 be29819e bda10b50 bda42922 bebb9120 beb47a7e bd82d4d2 3bad0000 be3de86e 3e1d7a4a bebc220e bce1b3ca 3eb7d1aa be2a8489 3ebcbfa0 3e1765a4 bebca29d 3e843f96 bd40f5fe be3a9e64 3ea72563 bea8e91d 3d336f07 bdaf0d36 3e95441d 3de96402 3e48df9b 3e13a304 bdc90f21 bdafd5b7 beac4088 3e628413 3ea5f5b5 3e8f04d1 be9370bd 3c952896 be9358f8 be6620bb be73990d 3e0edd80 be791e89 bc11edfc 3c8cb0fe 3e86bdbb be9e0139 be8f7f37 be72be4f 3e924d62 be1645e3 3eb04f04 3e172b2f 3d53bdfc bb472a21 bda547b2 3d51cd8e bdbeead3 bb3bfdf1 3d555bf3 bea37fbc be5b1c76 3ea8c8e0 bea9a1cd bcf02580 3ecec616 3e170388 3c3d60ea beb5243b 3e4f1744 be94e216 bded5638 be0c42e8 bd77a127 3b9253a4 3eac6763 3d50c0ee 3ebb3874 3e7fb95f be8425b8 3e3b7ed6 be93c1f4 be312db3 3df5e9ee 3e0a091b 3e9cd0a5 be069363 3a2b52ef 3e573856 beca2507 3e971ea3 beacd88e 3bb86009 bd8e2656 be5c2c75 3d5d03b2 3eacd85b bdf467fb be78310d be1a9c18 becf2c45 3e3cb41c be48c5bf be8b7d54 be70d649 3e705bb5 3e5d62e4 3ea06e09 3e17a292 be0b9c51 bde9a4ff 3df701bc 3eabd303 3de353b8 be45cbf1 be44839c bec59ff9 3db4a2d9 be6a99aa beba5c27 3eb74997 be87bdf1 bd3e3af9 3def88fd 3c551791 be8ca5d9 bea8f53b 3ea69bd1 3d8825f2 3ead6925 be0c2566 3df6468d bdbf31c8 bc94ba5c be7e9bd1 3e0d6236 3e042c07 bc09faaa bdbc09fd be80d91c 3e908c82 be9b9a13 3e2b4256 be0c91cd be49b1a7 3d96332c be592835 3dc0a3c8 3da4314c be9b328e 3d8b354c 3e320ee0 3e2579c5 bd527e12 beab5ac6 bd80e316 3e1130d0 be188917 3e1eaeb6 3e8b339b be5a4895 3b83ed28 3e2cdc99 3d030ff0 3d0bae1d 3d50cc4f bea452b4 3d036a02 3e90be02 3ebc5a87 3e75b503 3d6013f0 3e433bc9 be4b5efa bead370d beb3be50 3ed08605 3e84af87 be907bdd 3e238eb9 3e9dd8f6 3ed0f150 3eb6c4cd 3ea1f104 bdbfae94 be12b5b9 3eab9e43 3e6a43bd be7b924b 3ebbea57 3e49fb8e 3e63e451 be8302c1 3defdff2 be128d24 3ea35254 bd96726d 3e22c02a 3d948220 3e31dd8a be0e104a 3e4bd3d0 be91ff20 3dbcd5ef be8d6c61 bece358c bea7db73 3ea5047b 3e622d8d 3ec41bda 3ea773ef bebaaaca be8ea4d6 bd871916 be87bf12 3e91251a be9e05eb be4bf723 bec9ef7a be6d580b 3eabeab4 3eab23c9 3e95a06c 3ea16478 3eb9dc4d bdd617a4 3e37f0f4 3eba399e
layer_seq.glp_0.linear1.bias 64  3e0a4c2c 3ed0f49a 3e58d33a 3e81f05a be12501b 3e489711 3d402520 bdc7ac63 be6ba824 be6a929c bea0d6dc 3e8c52d5 3e9499df bd3e50dd be71eae3 3ea18e1c 3e85ab01 3cf899ba be455fd9 3ec01a2d 3e2af4c4 be9eadcf 3ec80d6e 3e9eba08 be185fc1 3e6b01b1 be6d8780 bd830716 3eb17b57 3c8a2fbc be93d330 be0bb98e bde2f409 bda14e6b 3d200776 3ec14f8f 3cb30f0a be810f2a 3cab69cb 3e4872a5 3e4f5e26 bebf08c7 bd959cc9 be9b559b be325fd3 3e169e8b be946f03 3e1b6627 3eb16a0d 3cdb5a0b be8b4fb4 be15c799 3db69297 be9f5794 3e4fb090 bebdc408 bec8eebb becb197c bda99cce 3e8c8dd5 bec5d604 3eadbcc2 be273a62 3df4e0d3
layer_seq.glp_0.linear2.weight 4096  3bbaca20 bde6d710 3dd44ee8 3d89d76e 3dfe7680 3d815596 bda8fa48 3dd5a748 3bdc2320 3d72cc80 bdcd44ac bd1343c8 bdfb5c54 bd476b90 3cdce8a0 bdc9005c 3d233510 3d896c2c 3c8ea718 bdab490c bdc67b5a bd1df5e4 3d60bf20 3dfc847a 3d93351a bc669fb0 3d338400 bdfb26f0 bddaa662 3d6ee73c bd910096 3d76522c bdb4b7f8 bd7d9964 bdd2dd48 3d85975a bc50ae60 3dc50494 3d9e6e68 3d8da7dc 3b83b620 bd1e4c94 bcdea668 3c881718 3d7dcda4 bdb359dc 3dd6daea bc5eade0 bdd6839a bd8a82c4 3de2836a 3dea1e74 bded20aa 3db48e6e 3d804bf8 3d9787f8 3dd8b624 bd89f8a6 3d21ad5c 3d518704 bd174ae8 3d2b57a8 bd134f2c 3d9e4660 bd0e0e88 bd3edf14 3d00e540 3d359a68 bd7a2610 3c350a30 3d945c74 bc4bc4f0 3d1bd1a8 bcf6f9b8 3d3374b0 bdb971e6 bd96890e bd81f174 3deb444c bd09c564 b9b2f000 bd780fcc 3dff8ff0 3dfa070e bdc11260 bdcf8810 bdc20bd4 ba1e0800 bd0282c4 bda7904e bd37a3e0 3cc17718 bd85c1f4 3ce2e688 bcead1c8 bd7818b0 3c8caec8 3dd27f84 bdad1388 3bbe3200 bd3ccf20 3dfb36e4 bdf2e226 bdf56ad2 3dfc4230 bda1f7f8 3cc45320 bc30c140 bcd7b678 bce4b548 3da2ac3c 3bc3c6c0 bdf93ece bd9721d8 bd2e8a7c 3d80d2ca bda5aa8e 3df1632e bce41328 bcb7df18 3dc89742 3d80aae6 3dd91e6a 3d9414ee bd1b5134 bda9d954 bc1860a0 3dd3e00e bd2bd65c bded681e 3d51e224 3df9356c bd11c200 bdd3f95a bde83510 3d004e90 bc1b12f0 bd8146d8 3ccefba8 3d426fc0 3dcb9a06 3dc6c0fc bc9946b0 bde1bb7e bde753d8 3def0648 3d625510 3d5f2f40 bddd7f20 3ded0f5e 3df28514 3de721da bdd7f530 bd413088 bdb0114a 3df26c56 bd5bff04 bd69c184 3d861f28 bd6cd8e8 bd7c2bdc bc332440 bc44da50 bdc76b22 3dd56b46 bd61dab4 3d359d30 3ddeaa24 3d811ae2 3c90fa50 3dd9d1c4 3c89a708 bd6ce154 3df22d06 3cf25c60 bdf9c638 bd11c318 bdae60fe 3de072e2 bca91c00 bde959b2 bc00be80 3da0c574 3d050490 3d21e58c 3c3e3450 3d3ee218 bcf97fe8 bd4bac78 bdef490e bdc0dab0 3d5de6f0 bd9794be 3c92e8e0 3d236d10 3c1101a0 bda5fa40 3df4d1f0 bd94dd26 3dd28f66 bdcba66e bcf65258 3d8b418a bd51317c 3dd70d0e bdb02b06 bdd6fb44 bd66dee0 3ca587b0 3debb6a8 bd746de4 3d371b0c bd005cac bcde1128 3dbc3cd8 bdc6657a 3c598660 3df0bea8 bc8cb5c8 3dc6c4a6 bd1dac84 3dce1200 bdf7a2f6 bc939528 bcb3dca8 3d25ee78 3d48df24 3dc48fa6 bc988fc8 bba26d60 3daf4fca bd0a8890 3de06b10 bdaa72aa bc5d9d20 bbdc0000 3d6475a0 3daf0566 bca24ed0 bdd4174e 3d7db128 3d1927cc 3d4dab88 bd9deb0a 3da4c2ae 3df278c0 3c31b530 bdef1dcc 3db3b59c bdbdcfc0 3ceb6398 3c94ce30 bd6fa27c 3d3246b0 bde4f98a 3ce939c8 bda24a9c bc5d7530 3c83b748 3dda1908 bd74491c 3da400ba bc821528 bd7329bc bddeecba bdeae27c 3dfa0328 bcff6298 3bcc9720 3d0acf3c 3dae02ee 3dda7d48 3dcf9ed2 bdbdaa84 bca40fe0 bd977c1e bd92441c 3cf2e668 3df04b3c bdcd1526 3d9aeeae bd84ba3c bcc772e8 3dcb3492 bce79930 3c3a7b70 bdb2f3cc 3dd9eaec bc845f50 bdbb3c68 3d15eb3c bdb6053c bdcb234c 3bf98660 3dcaf7cc bd10e348 3d70fb40 3ddbfc7a 3da9cb78 bd8649a2 bc608060 bd211e60 bdcddb00 3858a000 3dc09f96 3dd7af1a 3c3f1470 3ce892f0 bd5da7e8 3dc13d5a bd550c2c bdb1d4c4 3c9db078 3d997152 bde6ceb4 3de76a6a 3d382eac bdb35b5c bcdc93c8 3dde19b8 bdc4697e bd15a55c 3d27ed08 bde0471c 3d8c56b8 3d85429c 3d9ec5ca bda3364a 3dfef9ec bd97bf38 3dff933e bdf5ae46 bde4169c 3d9d3bf8 3c560ae0 3bec4ba0 bd8dc31c bd56c57c bd15b3d0 bdf96240 3bd4dd20 3cb51a80 b8ddf000 3d255720 3df2e7e6 3d0821f4 bd3b6dd8 bd52b640 bda3ca4c bdb176ca bca4ea40 bcb51c40 3d63c504 bd5ad900 3dcc158a bdb3a150 39ba4400 3de61f9e 3dfe9006 bd944a88 3cb66770 3c71ea50 bd700d54 bd30e4b4 3d0aad60 bdb20374 3ca8f4a0 3d5d8e18 bd49c390 3dd4a4e6 bc06c7a0 3d684d08 3dfd84b8 bd1c8090 3d8b1ccc bd12726c bc959428 bcad89d8 ba4b9300 bd416adc 3cf00320 3b9a56c0 3da2469a bccf4358 3c4d5fb0 bd3e7584 bdd6635e 3d4f308c 3c830768 bd4d0c34 bd2d1c18 3d05e620 bcb92810 3da74a32 3be802a0 3d4166b4 3d5f1394 bcfb4150 3d5d8640 3dbce932 3bbc7dc0 3cc863b8 3b94d4a0 3db13efe bd5829fc bd8814f6 3d5f1b18 bddecce8 3b035680 bd6b76d8 3da8f7f6 bdee5894 3d9b389c 3dfd467c 3ccf3240 bc087390 3dfbfe5a bd5acdec bc241d10 bd603514 bc8d5ab0 3cde8e18 3c88c450 bcc16870 bdfff58e 3bd1bb60 bb72a9c0 3c9a0c18 3dc428fa 3df8d59c bd97e15c bbff6760 bd4d2518 bdebf0f8 bdba47de 3df0458a 3d95437e 3d8982bc 3d8e4530 bdcb62fa 3c571450 3dee4350 bd8edeb8 3de3bc74 3d0692c4 3db41b6e bd5b55a0 3d6c0a84 bde2f0dc bc0209f0 3d2ac738 3d198bc4 3dd6390e 3dfb8f6a 3de8e5d6 3dabe05c 3db3fbe0 bc842060 bdc6ab02 bd3e117c bc65eaf0 bd8a56c6 3d82dc18 3d33b9d8 3ca53970 3cf75bb0 3de0e240 3d3a7c88 bde07f1a bdb9d352 3d61a9f0 3c8b8cc8 3d79b2b8 bdffac1c bdec412a 3d9cfc68 3da3bfd2 bde79b24 3d425900 bdc7e568 3dc1deec 3d20a924 3dfd2124 bdfc69f8 bdf671f2 3dad1506 3de34860 3d9cd898 3daa324a bdd79f18 3db94bda bdf1b3a0 3ce4c368 bda7b05c bd4b5d34 3cb55188 bd494ee4 bca20530 bdf2a49e bdf16024 3d465474 bd58b7f4 bd9bbf6c bd4a06b0 bdd14c2c bdcca57e 3d992eee 3d821c28 3c886680 bd8bd7ac 3d2a57c8 3bb80380 bdb6f4cc 3cdc5ab8 3de91968 bdfbcda0 bdfe907c 3c833330 3dc0c612 bd9bc5fc 3ce16ba0 3db3f6d8 3d1ddba4 3cdd9ac8 3dff6af8 3da6c6ea bd8ffb38 3c3105a0 3d82c888 3de1c4d2 bdfeb3ec 3d8aa018 bd14a660 bdfaae3e 3ce34d28 bd8b5eb2 3c911d00 bda6350c bdc0a5be bc2dc660 bd2bfe74 3d95b9b2 3c309320 3dc7d2b0 3cbfe690 bd24a3b0 3dad65bc 3bdfd380 3cc03240 bd24abb8 39eb3200 bcc4e340 bc2e1d90 bdc7a62c ba498500 bdd47dc8 bcdc4b40 3d945d24 bdb2027a bdac8ea8 bcfa0968 bd0c5b4c 3cad59b0 3caa0000 3d81d114 bdb05a7a bc1087a0 3d8f2db6 3ddd6ec6 bc156470 bd942074 3d132e4c 3d91c944 bd9fef9c bd948e1c 3d624d98 bc0f7ec0 bdf1caaa bd939b14 3d4fa200 bd2da870 3db0b2da 3dca60d2 3c94f610 bc21f1f0 bd2285d0 bbcf1e20 3cba63b0 bdc38bbe bcf4bb48 bdd4f0e8 3d9d1f0a bda307b4 3de9de02 bd03fbd8 bd92a7f4 3d75fdf4 3c98a830 3db144cc 3d55be98 bdf69d6a 3da1eae4 bcc0d558 bd624a08 3da292e4 3dbab564 bde1019a bc392fe0 3dd23a98 3d464a74 3dd7ac12 bd2f7634 bd8d3870 3ddc230a 3d5569d0 3df5c16a bd55dc54 bda45e7e bc700d50 bdf10b62 3d48b0f8 3dbcd298 3cf5d178 bc4a5b40 3d7dda54 bda27f10 3dfa6e24 bdfe8d4e bdf53be6 bcf1f910 3dd11cb8 3c4d0ec0 3d44a1a4 bdbba656 3d3ab818 bc64d9c0 3d4d38c0 3db4cc50 3d5e8e68 bc2e3620 bbfc4f60 bda08ee2 bd393104 3da65bca bd4d4f6c 3d9efc76 bd4b063c bcee7d08 3b2e5800 bdeaec20 baa39800 bc4e6e00 bc37fc20 bcccb3b0 3dc9d318 3dbcecba bdad8180 3d6dd674 bdc8cd4c bdd9f032 3d1c8258 3af0c980 bd6ed9ec bdf6e9b8 bd4636b4 3d2b01fc bdecf438 bdf8b1f6 3c81eae0 bdb86c68 bde046cc bd45443c bca4dd68 bde8a0e8 bdaaf034 3c064870 bdf16698 bc8fed80 bda54cc6 bdb17800 3d493b5c bdc50a62 bdc2016c 3d91fdf8 3cbf7418 3de9247a bd08daf4 bd774dc0 bc3d8900 3a25c900 3dc33ca8 bdfeff18 bc11d1b0 3d627bfc bd8cf990 bd821584 3d776ee0 bdf54ba0 3cf2a488 bdc63116 3d7e7ee4 bddae3ee 3d9d63d8 bdf25684 bdd72f62 3af17300 3dc9b99c bddb3cbe bd6461f0 3de0d720 bcabb8e0 3d541d1c bdf64584 bd2103a4 bd82014a 3dd7d2dc 3d54801c bdbacc06 3ca518b0 babc4f00 bd525d88 bd923214 bd29e6c0 3dc9c936 bdb783a2 bdb65c22 bd1df638 3b0e82c0 3d0b5f5c 3b75d380 bcf680c8 bd9b39c4 bcb7bd30 bd4e1b78 3dced46c bdf9315e bda34aba bdd04772 bcbb2498 3dc77e76 3de064e0 bddedcb6 bbb17780 3d96436a 3d61b034 3dd1b0ca bb633b40 bdac012a 3da95a10 bd2f9280 3d848da2 bcfc59d8 3d59a5f0 3de640c8 3dee0b02 bde8fa06 bda956c6 bd53b1ec bda34060 3df5a1cc bc34e080 bda9d0b0 bd63d5a8 bd8d67c4 3d50e3fc bddf4bda bdeeb1f8 bdfc5ad8 3d5c6da8 3d7d2928 bd9eff0a 3cfdee18 3dbcf9ac 3c94c9e0 bcd8a8d8 3c174fa0 bc5b9a30 3d80e552 bdadd3b0 3d81d178 3d9049a2 bd9b1a9a 3dd10a50 3dfb7076 bd49d858 bd0f6888 3d7f2874 bdc88e3e 3d4a7978 3ceee770 3da15d4a bdde5d04 bdd4ae50 3d65f440 3d386d8c bdee46b2 bd8ec2c6 bdea3c08 bdb7677e bd6703a4 3dd3d990 bccbd400 3d9308ae 3df31e4a 3d6955bc bde52c82 3d80d334 3d434b64 3dc66ab2 bdfc86f4 3d9d71b0 3dd18bee bdee2c62 3c564650 3dda8a52 bdba30de 3d27ff40 3d623dc0 3d0630ac 3dfe88dc 3dd19b8a 3ddba2ec bc7f46d0 3dd6b5de bdee91d4 bd8a2526 bcdb03a8 bd1817d4 3dec7742 3d717e1c 3da4d0ee 3dae2234 bdbf3ba0 bc6d3390 3c958778 3d052ad8 3d83a4c0 bd4bba70 bd1a62b8 3dd634ae bd0969ac bdb1d404 3dad9404 3dad5a10 bd208bd8 bcccb7d8 bdbce5b4 bdd5c8b4 3d408990 bd5ab8fc 3dcbccea bdccfb8a bc8d8ae0 3b30e140 3d83920a 3dcf304c 3dad5d46 3d616160 bd6b013c bdb6d262 bde50558 3bcb2e40 3df84a12 bcc28048 bbac6f80 bdba089e 3d1d3060 3da24cbc bdfc64fc bdb4415a 3dbd9f06 3cf27268 bbff5ea0 3cb70c68 bc9bb0e0 bdb2ef5e bdef36cc 3da85f8c bc739510 bd3e2678 bd0427ac bd8ba0d8 bd17a558 bddbc10c 3dbf9372 3d511244 bd811b36 bd2ec09c 3d65b3d0 bd3d98ac 3d0702dc 3d0cf990 bda12678 3d0041bc 3bfa9c40 3ddf9616 bd394078 bd039e7c 3ddc91dc bdd10cda 3c13f700 3df6a816 bd65907c 3df56c32 3de328c2 3dee2abe bc436d30 3de7960c bd5f169c bd2f42a0 3d41a7b4 3cd85130 3d8d2066 3df34820 bda040d2 3d87ddb4 3d2b4c0c 3d870eb4 3d72c6b8 bd3f8618 bdca54c6 3dcce604 bd91faf6 3da3aaf2 bdf3e072 bcb12788 3aada700 3cb12d18 3c258b40 3d21559c bc6408a0 3cfac838 3dfd5566 bda5a534 bbdfa0e0 bd437134 3de09f3a 3ddb256e bb5f63c0 bd3179d4 bd9e2c7a 3db72d9a bc0d0860 3df11a6e 3d91fcb0 3de013f6 3dca79f8 bda65c10 3d15dd10 bd544e2c 3d8072e6 bc3822a0 3c314b90 bdb10d46 bde4cb34 3d40ce2c 3cedf670 3c31e520 3daddfb2 bd55cc50 3d35c00c bd8cfeb6 3cd42c38 bce9c718 3db3489c 3ddfde16 3dde5792 3bb84160 3d96f620 bdffc788 bd962b0a 3cb70338 3a36bf00 bdc8fa8a bd629dfc bd6f21b8 bdfda296 3c4351c0 3dae8380 3d4fcd54 bd7344a0 bdeb136e bdce88f0 3b17f480 3db01b16 bd4f5890 bd8b4d16 bd88909a bc314af0 bdf31c92 bde1e7e2 3dfc0106 bd742e58 bcb8b140 bd08fcac bde0e5c8 bcb48630 3d1cbb54 bd4fe6c8 bbae9220 ba1cbf00 bdfed968 3dba0a16 3dceca32 3dae8ace bd2823d4 3d85c6b4 bdefda26 bcfd52f0 bcd043f8 bd34d008 3d570a40 bd694bfc bc6d5f00 bd13d77c bdf067be bca91aa0 bdd8f434 3d954650 3d88d290 3defd19a bd2bee58 3bd04a60 3cc89790 3dff8b40 3deaa72e bd847d78 bdd9d4c2 bde6bad4 bd768f00 3dd73dca 3d2bf47c 3df7009e 3dbdc0a6 3aed8780 bd9ea99a 3df9fbf2 3dcd5b18 3d5daab4 bd8bd7ec 3dc9abe8 3c3a6690 3da946a0 3d55b118 3d87f02a bde0a244 bd8df27a 3d998aa0 bcd55600 bddeb6fe 3de8ce64 bb312800 3dce82d6 bdc8180a 3d304748 bd40dab8 bd57751c bcd59350 bd3d83c4 3d8c471e bcc28f20 3dc21a8e 3ce9a8d8 bc9e3940 bd93dd8e bdea698c bd155ca0 bded1068 bcbdb798 3b05e480 bc03fb20 bd7b80c8 3db1ae28 3d902c8e bcfc4a48 bd4a4b50 3da0f1d6 3ddeb9ea bdea674a bcdd3ea0 bc3e0f10 bd39600c 3dda8cae bc9741a8 3dd90c9a 3a21fe00 bc5e2630 bd955342 bd2a3e48 3d24fb48 3d627a10 bb91bc80 3df3ed82 bdb12f9e 3d444ec4 3de692ae bcb20e38 3dcb3da0 3b070a40 bdbfb44c bd8c7220 3d3e9308 bd5d9144 3cf64888 3dfbf828 3d2dea98 bc3fac00 3cfff430 bd937e28 bdd71ad4 bdc06f62 bdd6cf6c 3cd22510 3cc77540 bd599568 bdfa6814 3d8aad2a bd9141bc bcaaf458 bdd6a6c0 bd906cac 3d5595fc bdee85a8 bd91fb3a 3dbfee52 bd834a0e bd551264 bd0fc194 3d5adbec bda7eda0 3c4d57f0 3d511a28 bc14abc0 3cb92888 bdc349fa 3d677994 3d3f5978 bc807148 bdd3adc6 3d4cc998 3da70cf6 bcb31b10 3d71532c 3d3dc708 bd4cc88c bc0e2c40 3dfed50e 3a1ab300 bdcbce18 bc155b70 3d7eb75c bd272100 bd861020 3dd2e322 3d876d50 bcadf868 3bd142a0 bc589a20 3cedbcd0 3b9191e0 bd9aea20 3cbdb888 3b564280 3c046910 bd431df4 3d032f9c bdcf036e 3d190c74 3d8ab986 bc616390 bdc6dc60 b9ee3c00 393a1000 bddd3c86 bdb5114c 3decc8c8 3dbf710c 3d8de040 3db158a2 3d4519dc 3d9012ec 3da98dea bcef36d8 bc822c48 3db68a36 b83cd000 bda69364 bdc6808a 3d8f2cac 3dd40cbe 3dc6d010 3caa69c0 3db0b63a bdeb0ac8 bdb87042 bdf654bc 3dce4174 ba944080 bd6bc208 3d2d3f44 bd3fa890 bda42f22 3d457a40 3cbb7e40 bdb7538a bda89e12 3d700fb0 3dc2a80e 3c26b8c0 bd8095c0 3d773b50 3cb29758 bde01f6a bda5e646 3ce02140 3d9e6800 bd247cb0 3d7791b4 bd9e8b48 3df4f99a 3db6694a 3cbfcd78 3d63c8f4 3d32419c bd97109c ba8ede00 3d0887b8 bce721a0 3df57d72 bd457224 bde4a036 bd73c040 bded96f8 3dd2f4d2 bd65d770 bdb41d60 bc5d62e0 bdac7eb6 bd85ba44 3d8282ea bdc03424 3d71748c 3dbaaf60 b9930000 3d6358c4 bd8f668e 3dc7a212 3df8b064 3cf35708 3de94960 bdfe401e bc60df40 3ccb7630 bdde8308 3d7927cc bd432170 bd392e74 bdcb1d34 3d515090 bdba45c4 bcd94c70 3d63724c 3dc0db4c 3ce78d60 bd3eff74 bd5eb3c8 3d8fb03a 3cbdfd98 3dd78078 3d40cfe0 3dce3aa2 bdce497a 3dcdce3a bd6b3d94 bd090df4 3a442100 bcc00858 3cca8d98 3de41eec bd98f4ca 3d1e3390 bdcdbf90 3ca0c8a8 3dd2e54e 3dac9dd4 3ddb3a94 3d8a943a bc2970f0 3d05ae74 bd55f10c 3dd94c74 3d802e30 bdbb5f1c 3ddd5a20 baf32000 bbb61380 bd0c2078 bd071614 3bcd01a0 bd79f3fc bdee220a bd83ddfc bccbc5f0 3dc15126 3dbc53e8 bd99620c bb9d4680 bd13c588 bd88f3b2 bcb41158 bd31a6cc 3d8f1762 bd7deb98 3c9d8b98 bd9076e8 bd1fcc3c 3dc98780 bd7b5bfc bbf64b80 3df47e14 3d2f3da8 bd824dc0 bd99b404 bd338b90 bd205518 3d5eeb08 bce3a920 3dd7e882 bd8c7666 bd201ab4 3d3a68bc 3dcc74a2 3df4e348 3ca3e638 3baca6a0 bd6564e8 3d90a512 bd9463e2 bd0693b8 bdd5f6c6 bdf61a96 3d8f1778 3c0b22a0 3dcc13a4 3dcbb504 3d86563a 3d4ce644 bd04df74 3d87f6f0 3d76344c 3d313e40 bb6c7a40 3c98f460 3a116300 bdb9c926 3cedb5c0 bdbc327c 3d786c50 bd9886fa bd273ebc bd72d150 3dca104c bdb447ac 3d82b794 3d80644a 3db502d4 3d0048a0 3d8b8ede 3dca5e36 3cc9b420 3d2e16cc bdc82cd4 bd09556c 3c39b230 3c7821e0 bd34e3e4 bdfdc850 bd0526a0 3d4403bc 3ddc6f1e bde72cec 3d74724c bdf2e966 bdf4d032 bda05190 bc8740d8 3d0eff9c bdc2b0dc 3dc53b8e 3de78078 3bfc0300 3dd06140 bd67ca50 bd4a8b64 bc842460 3c5fc680 bdb29504 bdccfd22 3d4a41d0 3d139f90 3dfa6fd4 bd50bfc0 3d34ced0 bd4e9c98 3d7cbfa0 bbe2e600 3dbdc65c 3d8e39c0 3dd514bc 3d838ea8 3b99e2e0 3ddc9d1e bd965ea8 3df174a6 3dfa28ee 3df48c6e bd6f2a78 bd87a4ca 3c0192d0 3d1f6f88 3d806aa2 3d503b5c 3dd9fb36 bd0046cc bd27f940 3d2b9f5c 3d0ead78 bd9554f6 3c461790 bdc25e32 bd16347c bd48f23c 3de067c4 bde671c8 bd972618 bdfa877e 3d012110 bdc50a56 3d25a720 bdb1d208 bda3fd1c bd82c8be 3c99abb0 3deb3bc6 3defcc60 bc1ab9d0 bdfac04e bd2926ec bd4320fc bcd9cce8 3d43a11c 3d80d402 3d630204 3d12431c bd4f459c baadce00 3c825268 bd82c328 bc3734e0 bc7fa650 bdf1df40 3dad8c56 bc4f0ed0 bddd4d3c 3dca8a5a bd89bf38 3d354540 3dfde0e0 3bbd9d40 3d134de4 3d4b6eac 3dc17b86 bd1d17e0 bd900e5a bc204520 3dc83480 3c301740 3db1df28 ba73a000 3d1d1788 3b8e6d60 3b5e6140 bdf39d56 bddfcdd0 3c2a4020 3d7d67f4 3dabf7fa 3bb1b8e0 3d57d1b0 3d56232c bddcfe1a bde101c8 bdc67d14 3b0cd7c0 bda1df7e bd23d8c0 bc993470 3d47c348 3ced6c70 3ded7c2a 3de6e8de bda35122 b9ce7600 3ca91908 3ddf7cd4 bd1eadf8 bd493794 bda22a30 3dbca2ee bd110db4 bd3fc1c4 3dad268e 3deb8fd8 bbac9c60 bdb474ba 3dd095c2 bd2f1b40 bd6bf13c bdb3f960 bd763d20 bdc87d82 bd93c450 bde9348c bcce63d8 3d4ddccc bdc2560c b9370c00 bd3cce58 3d77a74c 3dddba22 bc87be98 bd80d840 bdc4b384 bd9667d4 3d13d384 3ceaf330 3d89dd12 bc9827d8 3d838a98 bde41386 3d09a2a8 3df885ee bdfd5ce0 bd84e58a 3da3e222 bca019e0 bd887588 3d9c2d32 3c0948e0 3ba06da0 bd1b830c 3dc0e16a 3d8e00a2 3cb770e8 3c9c4630 3d846038 3d9f7d94 bd5205ec bc6061c0 3d60c790 bd781ab0 3def5f6e bdaf5c1c 3d6c42c8 bdb7e354 3d2462d4 3db2ce14 3c76e2b0 bc4d4450 3da2cb3c bdb7d18a bdacb6e4 bdda301a bd9d94a0 3b549e00 bd682a0c 3ce421c0 3b8a3820 3dd50ed0 bd5e01e4 bd0c10ec 3da9511e bd017624 3df517d2 bd4b5b30 bab37000 bcf29d48 3d6edf38 3d442e88 bd8853c6 3da8b066 bc022270 bd01792c bb253f00 3db22980 3dfb1ef6 3d792268 3cb32ea0 3da7130a bd561a18 bd85c950 bd13dbbc bda5b078 3d5c24e0 3c428a00 bd2f2c3c bc4feaf0 bb226e00 3ddb8092 3de485c8 bdc514c2 3d3ba578 3d45b524 3d43c5b0 bc8b9a80 3d000b8c 3d00d680 3df92a1c bdf55b86 bd424aa4 bdac3cc0 bd785b20 3cc90ce0 3d9c2156 bdc1973e 3da68164 3dd5d65c bd7c5e50 3cb2ba40 bd836cb6 3cdb53c0 bd6d5ff8 bd4773bc bdab5ee2 bdd57a7a 3dcc4aaa bc815080 bb634380 bd7ece8c 3db26eca bd928710 bd4f15a8 bdc7d65c bdd743f2 3de3466e bdc5ae9e bc8d5f30 bd143420 3d3b8a10 3d08f1b4 bdc43f4e 3de5e834 bdff0288 3c4a8f30 bc2b1910 bced4d68 3dae749c 3dd82524 3c8563c8 bd34d680 3dbe52b6 3da0d648 3cb7eb30 bd0c09b0 3bacafe0 3de42bd8 3c5e1830 bcc9cb70 bdd8be66 bd892f9a 3db8e462 bb903c20 bc0861f0 3d475a48 bda86de8 bc0a5910 bd100094 3d85f1ce 3dd056c4 3da0be8e 3dbedcbc bde4c9a6 bd35c4c0 3c728410 bdd96f50 3d0ae440 bda7cda6 3d5b65fc 3dcf31b6 bddafeb6 3dd68364 3d6ee660 bda8f0a0 3df50998 bdddb7f8 bdac5820 bd7eb134 bbcf6a40 3cb7e140 bd1641c8 bdf2a61e bc6c6760 3dc23b36 3dc51a9c 3d8026cc 3c94ac68 3cfe7020 bdc55a54 3d4f543c bdfec7c6 bd5370c8 bd068d58 3dbbfd32 bb6ecd40 bd693884 3cb2e6d8 bdd46bd4 bd078e48 3d0dccac bc07a2c0 bc571490 3d9c75fa bdc276fc bd8142ce 3df7ccfa 3ccbc3c0 bca5cc00 3d849abe 3d9a0170 bcab1c90 bd5544e8 bca76170 3d39e958 bc82ba10 3d94fdfe bdd0c3a4 bd7b3414 3dc328b2 3c865668 3cce3460 3d2864f8 bcf1f6d8 bd4cc0b4 3d12e27c bd07b224 bd538190 3c8749d8 3cf7afc0 bc38ead0 bdad21b0 bc9ad4c0 bd91150e 3d86bcb2 bda9a022 3dcc1e3a 3d4bec70 bddb3798 3dbdfa54 bdfd2aec bbee2580 bd9fd5de bddc3b00 3c4aea70 bd783f68 3db90bc4 bdc93e7e 3dd47c60 3d9a71ac 3de0385a bd15ee18 bd9cea9e bdaa13d4 3dd4e1ce bd7ea808 bc7c2a40 bc9dd5f8 3cb02aa8 bdd2117c 3dce6c40 bdbd6c9c 3dfbca8c bd485668 bd649174 bc8cc058 3d178790 bcbdbb48 bdff801a 3db410f4 3dfd90a4 3d8128cc 3dfa80b2 3d0b8bb8 bc207b10 bdcbe71e bddfbeca bdb04156 bd01e7fc 3d951212 bd533e34 bb9f15e0 bae73a80 bda75780 bb5dc240 3df72e86 3dcc9bf2 3dc2f97a bc49fca0 3b114900 3d8bf3a8 bd2a4e08 bd4f7fb4 3ddb07de 3be9d8a0 bdacda58 3dd7b4fa 3ca9f5f0 3d88f988 bdde56ae 3cbe0680 3d9c9520 bc93ba38 bd9182f6 3dccd0c0 3d6e2458 3d11d20c 3cf22c40 3b34cf80 3d92ceb8 bcdfdab8 bd96b16c 3d438198 3d089970 3d42f17c bc637940 bc87e3a8 bc22c5e0 3d07016c bdc4719e bdee9b72 3d3f969c bd8c2934 bc2c4890 3d0df0e8 3c8fa028 3da50892 3c863ac0 3cfd8460 bc375180 3c972708 3d3bbcec 3daea59c bdf29026 bd5547c4 bde5b7f8 bd4c21a8 3d9c0d68 bdf28f7c bde56172 3d943ada bd972d70 3dbb1a0a 3d1f889c 3d00853c 3dcb5e9e bded21ae 3dbb77b2 3d260a58 bdab8c4e 3cf926c8 bd0eb1b4 bd4d8308 bc5dce30 bd7163dc 3ddfdb16 3ddc56fa bc5a79d0 bde303cc bbfa9320 3c074ff0 3dab1da4 3b83c900 3d1503fc 3d07da04 bd91413a bd9ecb1c bde4ce1e ba80a900 3d1e94dc bc119f60 3df87d94 bcc35740 bda70c02 3caaaaf8 bd102f54 bc8c6128 3df80d1a bb6b0c80 3ddfa06e 3c88c028 bd3e79a4 3dbbb054 bd91d332 3b878620 3ce62b28 3d65cd98 bdec336a 3bc8eea0 bd049120 3da5fb56 3d2c4260 3d4d3544 3d99ec2a bce54110 bc0336e0 3dcd607e bdce554e bdb0f3c6 3c15d250 bd4ad13c 3bea9500 3de223e2 bc6d6960 bdda4642 bd68be64 3deb1a16 bce0f640 bd60802c 3d6676fc 3c7d88e0 bde1b5c0 3dd53182 3d9028f2 3dde82ea 3d600d04 bd2c9f70 bd272418 3d782064 bcc681a0 3cc8c240 bdf80f9c bd7d17d0 3d3e2e60 bbc9eda0 bd7624f4 bddf4cec 3da2b40e bccde260 bdfb8748 3df6fc1c 3d792720 bd991fa4 bdbad63a 3df76046 3a08d100 bd99f6d2 3d93507a bcd54c58 3c0c4b50 bd855be8 bdd8d4a6 bdaa03f2 bc60e060 bdb954a2 3dfc50dc 3ab15380 bd440288 3d4a5a4c bde2f62c bd82f126 3d404ec8 bdd9837e 3d7f2eac 3c2c2520 bdd57464 bdfe100a 3d21d164 3d720194 bcccb440 bde25e90 bd938b70 3c59ab20 3b950440 3d030f68 3cb51058 bbd6b280 3d871916 3df852d0 3dd53348 3de89efc bd2ccd3c bd2ec0d0 bc6282f0 3d17537c 3d4f3f28 bc368d00 bda55b6c bdc126ea 3df674ba bd09a778 bc8a69b0 bd9ce468 bd7dd43c 3ce0e938 3d57a5c0 bd4a67d8 bd3c73f8 3dcacaf2 bd83d822 bdbeff6a bc9fc290 3df39866 3cdecfa0 3c8d7d48 bc7f0060 3d9ff8b6 bd7dc5f4 3dad9220 3cf1e9f8 3c63b400 3c8cf868 bd9de1b4 3dbe2208 3d867406 bdc838da bdee5b5e bd03cdc0 3daa12fc bd7c12e4 3ded4530 bd80b5ea bde73ed4 3d6138f0 bd9ab64a bca16bf0 bd1fb1e0 bc22bb80 bddf124e bdeacdb4 3d5c18d0 bc6811f0 bd9a6d50 bb50b040 bde9a8d6 3d07e810 3d73267c 3df845e6 bdd08e6a bc7855b0 3d8aee0e 3dea9d2c bdb62308 3d5994a8 3d5362ec 3d9a55be bdb07d94 3db6af92 bd5f0234 bd9d949a 3ccb5290 3dd8de2e bda9875a 3d88ae32 bc6a8c70 3d237314 3dc7b2b2 3d0b04b4 bdd48522 bd1a26a0 3ccb3d98 bdd7f58a 3caa3d60 bd8976cc bccb8c40 3d3729d4 bdce08aa bda45b0e 3d698680 bdfd31c4 3db02d1c bdc56572 bb03e800 3cd235e8 3d4a0804 bd9ee414 3c89cd78 3d5c75f0 3ddb92da bdc0a714 bd7e8d54 3d152768 bb837e20 bdacc178 bdd7766c bde34f56 bdb322b2 bd59fe58 bdb1c42a bde09344 3c1fdd60 3d962200 bd7166bc 3c4ccba0 bac9fa00 3d6f536c bdb189aa 3bc276c0 3deef2fa 3db6c35e bdfdb9d4 bc9a2708 3a98ba00 bd290f78 bda8303c bdb221ac 3daa1a88 bd25c218 bc03cc20 3d163c90 bd9d215a 3c368ac0 3d9845a2 bd95ae20 3d14f5bc bb8be740 3d8cc20c 3daa1b60 3d07d624 3b778700 bddc5f66 3d4bdae0 3d9c1312 bd39f8ac bdfe317c 3dcf7412 bcf05c90 3cccdfc0 bd0fed70 3da34238 3df9abe8 3da07880 bd22f0d8 3db366f8 3d79d234 3c47ceb0 bdce33fc bd5bd96c bdfd4872 3dab38ae 3dfd0dbc 3d951fa2 3d23980c 3cf20378 3df66fc4 bd81c960 bd2be434 bde5db5c bc4acce0 3c0c7bd0 3d0c27a8 bdb2185c bc6cfe40 bdd2f1ba bdd03d96 3c8578d0 bdf9e51e 3d08559c bdebd3ac bdb221a4 bcd479d8 bdf44bc8 3dcec0fe 3dd1c156 bd85b75a 3cd681f0 3d82f694 3d22b328 bc892bb8 bdf1764a 3dba25c6 bde0896a bcbda500 3bfe14c0 bd289f84 bd3b4434 bddd40d4 3be1afc0 bc688a50 3ddf2e72 bd288fac 3dc5ddc2 3bc1e7a0 bd660850 bcf386b8 bc6868d0 3aa9b580 bca8b4e8 3d17f2a4 3dd2d1f4 3ca0f4b8 3d3973f4 3d9e15d0 3cdcb9a0 3d6c045c 3d8648f4 3def9e90 bde9a3ae 3d2f33b4 bbb99880 bcb7e688 bd4565c4 3d99e848 3dea2f82 bdd0eb44 3d8a4fca 3db08654 3cb2f7f0 3ac10000 3dc4ffa6 3b72e180 bcff6918 bc173bd0 3d24447c 3d002c74 bbdcfe00 3d219f0c 3d09e468 bdcf6006 3cff2830 3d9ca1d2 3c6ade50 bc3aef50 3dc41aa2 bddfa992 bd69b20c bd676b54 3ddd3286 bdf79bd8 3c4b1db0 bdf7fc02 bb86b120 3d3ed770 bcef7790 3df8821c 39d0a000 bd82843a 3d0406fc 3d8522ea b9823400 3ddb0056 bda206ca 3d5a7598 3d915dae 3d7e4e50 b8405000 3d12285c bdc8d5bc bdc8e5c0 bbfe97e0 bc805750 3dbe162a 3db9e372 3dad9488 bd6a834c bdc8f830 bdf020b2 3d394c60 bde6ad54 bdff8dde bd816098 bdd8244c bd49c5e0 bda129f6 bd83563e 3df362ac bcc0f830 3dd45ca4 3b35c280 bc83ae10 bd15e78c bdb6feea bdcdaec4 3db1428e bd1dc718 bdf99844 3deaf054 3b17f540 bdab4d72 bdc93ace bdd6fc28 bde07994 3de7a8ec 3db082a6 3c278190 bdda2ea6 bd05ea1c bdf07c2c 3d30720c bd07f230 bcdb2160 bd1fc03c 3d700d4c 3d8a91f2 3ce05128 bc803af8 bc4a6440 bb0f2500 bdbea24e 3df9cc0e bd5cd110 3d94f14a bd8f8358 3a5bfa00 3d2f4588 bdeb0de0 3d6adab4 bdc3f430 3c8ee538 bccb0ef8 3d92bec2 3df8ce82 3ce6c648 bb69ea40 bd7daaf0 3d3ee460 bd766fe8 3d537d84 bd5dea38 3dada5fe 3dc45c78 3d9cf9b0 3aa41e80 3d6d6fd0 bde9468a 3dcf9bee bd05061c 3d3aa728 bcad6718 bd2bec44 bd707020 3da52038 bd8b46d0 bcb493e8 3d8123a4 3c4e6950 bdd765f4 bdfe8f58 bd78ebac 3dec1cee bdb605ca 3d8d1734 3db73fb2 bd543900 bd621a48 bdb82cfa 3c9fb9a8 bc8f26d8 3bc700e0 3d5e15e0 3d56f540 bd2188d4 3c0ca8b0 3cf33f60 3b2e6080 3ccce9b0 bd4f67ec 3dd1d622 bc521060 bc830418 bde5c364 bdb990f6 3b7ed380 bc9e5d78 bd80b62e 3d8600dc bc375940 3d341078 3dd79ec4 bd6b63f4 bd7bfe00 bccdc518 bc2d6d40 bd800aa8 bcf5d8a0 bb6c2040 3d65a9cc 3decd77a 3dbd91fc 3c58c000 bc010ef0 3d032674 bba734a0 bc8662f0 3d300fc8 bdd0481a bdd9b638 3a04bb00 bd1b2fac bd7d3f04 bdee5244 3dab7bf0 bba33360 bd898ade bd508f68 3d069b3c bdb9a8fe 3c0388f0 baca0b80 3d2e6b58 3d4b1bb4 bda743de 3d5d13b0 3dc14f6a 3c03d960 3d826b9a bd41d638 3ccb6578 3d159b08 bd6c7bd4 3d9e0f12 bdf20c1c bd405360 bd96a094 bd97f89a bd9b1fa2 bdf139f8 3cafbc50 bcca9078 bdd78e04 b857a000 bcaa9450 3d5336b0 bdc88570 bd1009e0 3cd2c640 3d5907b0 3c1aee50 3d0ac048 3dffe804 bd315cec 3dae79ba 3ddc83f2 bde27636 3cf7b320 3d9102d4 bc9fbb18 3d8d4936 3b8b5220 3dc2e374 3b3062c0 bda3e59e 3dc26a90 3d184560 3dd9cc06 3cfe3380 3d87f016 3d9f9e72 3cac6d90 bcee0b88 3cd37dc8 bdb27efa 3b8beec0 bd249070 3c017bc0 bdcab0b2 3d9c6bfc bdec3056 3d5b4274 3da8976a bdea9f7a 3de74c70 bdbe4e6a bcc91448 3d84a89e bd225b4c 3de424b4 bd61dec4 bc8918f8 bda757ea bd6d8824 3df9d10a 3dc0873c 3c16cba0 3c286440 bdd93d8a 3dc14440 bc9986d8 bd558d54 bdcbbb06 3dd27a78 3d72c8b4 3d9a323a 3c540fa0 bdadb6ca 3d51bb9c 3c6c31b0 3d2bd074 bcfefc10 bd719ee0 3dd22896 3d2ba184 bd4fccc8 3c36e260 bcde97a8 bc2f2360 3d8f8dec bdcbc14e 3de7b040 3dac4d64 38e14000 bd516ce8 3cd0c8f0 bda972d4 3da648f6 bd87636a 3cc3a918 bdfbdc58 3d752f10 3dad4c7e 3dc02608 3c272b10 3d9726e8 3d2e9274 3dabad7e 3d90767a bddffb4a 3c57e6f0 bd2e8cb4 bd747a60 3db330b4 bc928f30 3c9f1248 3da12f64 3dac51be 3d889ebc bcb2c778 bde43272 bdf5c190 3d20efcc bac26e80 bda1be6e 3d5f9b70 3de85e5e 3d941060 bc907448 3c8a5e38 bda34b16 3d71a90c bdc6630a 3db0bd8e bd69db08 bd4b10e0 bdd66db6 bcf79fd8 bc4619f0 bd6bff24 3db63bb8 3d92eb5c bde1efb4 bc4cdcf0 3d2c2420 3df6fcf4 bcf4d9f8 3d9d2a84 bbe57840 bd445fc0 3d9ca97a bde41e7c 3dd67a16 3dffb33e bd0bc9d8 3d4a4050 3dff48c8 3d1a5c38 3d4839e0 3d3c00d0 bd5178e4 3cf9f4e8 bd8870f6 3dda9a1c bd5b6638 3cea1770 bd1450c4 3d800666 3b070800 3d8cc32e bd0aa41c bd96394a 3d444c18 bd90126e bdd22f10 3d45d104 bd99f76a bd4072a4 bcffb020 3c116c60 bd315360 bd384510 bd00af70 3db36718 3d194e8c bd767f08 bdb0f476 3b3dcf80 3d2406e8 bb2b6d00 3d95dc24 3dd75300 3d161004 3d28db50 3d94859a bd2f6698 3cb5a380 3dcef8d6 bd752dac 3c1f64e0 bd482bcc bdc4d830 3d879886 3dcc8ed2 bd8a4cde 3d3fe414 3d1d0068 3d47eafc 3d8ceb36 3deeffd6 3dc24dda bde000ae bd48b7cc 3d87f65a bd9224a0 3cc911c0 bd5b7f18 3ccb6088 3d79d358 3d20ed7c 3db9f7b2 bc767240 3d8af99a 3d25861c bd215b98 bdb4cdde 3dea3588 bd18a754 3dc0d35e 3da15dbc bba4f060 bdd37548 3c24df90 bd7782e0 3d053ae8 bd4b8394 3dc5500c bde6f8f2 bd09d52c 3ca17bb8 3c435f80 3dd25034 bd21c614 bdcc5a6a 3da97e4a 3d0f1174 3da8a362 bd9783d8 bd965c46 bd4ed224 3c119b80 3d2d7ef4 bd931c92 bc40d240 bcb0fb48 3de99572 bd38a5dc 3df81500 bd9d0334 bd52f9b4 bdc08c72 3dbc9864 bdb00bb4 3d53ef0c bd3c2410 3dff1b3c 3c907128 bdde5090 3cb03bf0 3c78fe90 bdf79af6 3ccd81d8 3df43fa0 3d135768 ba2e4300 bcd44708 3d080f18 bd641a9c 3dfc1996 3ddd4d22 3d6f307c bd3eb584 bdf05f58 bd935f4c 3df8e84e bdeafa16 bdf46e9c bc139b60 3d22e498 bdfecb78 bdedad0a 3a322700 bd2bbe04 3db2599e 3d130034 bdde36ba bde6bc34 3dafcef6 bcb593a8 bd5ffa64 3d21452c bcc94080 3d74dcd8 3d01d690 bd5daeb8 bdcd2e6a 3d8a9566 bd99cebc bc628460 3c8c0280 bd94fbc8 3d8b7312 bdb41136 3cfb8040 3c5b0910 3d3bdbc0 bdfb3e28 3bec9b80 3d799a64 bda3e544 3cfd63d8 3a006500 3dd92d76 bcd8d428 3a5fde00 bd5eb01c bcfc5e28 3d1292e8 bdf6e5dc 3dc23418 3db81702 3d58d46c 3dbfa414 bd1f60f4 3ce93de8 3bd06200 bdb105ca bd44d610 bd35c3e8 bcfd3000 bde34ff2 bdb40ace bc427bd0 bc9bc628 bde86210 3cdacba0 3d8b63fe 3dd53348 3dd77358 bdb2e256 bd24163c bd72e428 3cbbcff8 3d093320 3ce3d378 3d95994c 3d870f54 bd89683e 3dafbd48 3dacb088 3c8782d8 bddeb9e6 bd9d02e6 3d0eaea4 3d310520 3deeb50c 3d824abc 3d399230 bb8bb3c0 3dae8f06 bd3a5c60 3d507840 bd73dbec ba98ec00 3d974b6e 3d6aee74 bce5ca58 bacf7500 bd8e1d36 3d6d285c 3dac41f6 3d303de8 bdf7b8b8 bdb7422a 3dab6176 bc929ef0 3d9d378c 3dbcb30c bd15faa0 bd963368 bdf0d7de 3d43d97c 3d834c60 bcb186d8 bdf88800 bda4e46c bbdcb1e0 3d69adb0 bd2b8ff0 bda54342 bdb23888 3de50cfe 3d396828 bdcfd9c6 bd9e193e bdd9512e 3c942780 bd4fe7cc b9ddda00 bca1feb8 bde01668 bde4c4a8 bdc68f9a bd566e54 3c9f4480 bd70c820 bb920040 bc7550e0 3dea1f4a bd6967c8 3df08548 bdc4871c bdd596f8 3d267fc8 bd94fda2 3d834f00 bd8da19e 3dc9974a 3df7e1fc 3c031cb0 3cdad960 3deeac8a 3d97c2d0 bddf7c24 bb831e00 bde715e0 3dc38e14 bcbb8fd8 ba646900 bd9d48a2 bd8b337a 3c84e530 3dd337e0 bd80addc 3c4185e0 3de7bba0 3de56e3e bcc832b0 3deff05e 3d3a7454 3de927c2 3b730dc0 bdd8f56c bd0b5e50 3d19907c 3d8884a6 bdff077c 3dc72126 bde5a6c2 3d95fee4 3dfc9626 3cfc5938 bcc142c8 3d8cf47a bd17f67c bdbda0a8 bdb5ae18 3d70bbb0 3dc3836c 3ba5dbc0 bdf8370c bdfb8c32 bce73a10 3d8a3198 bdaa98e0 3d0a0140 bd8bec04 3dd0490c bd0628f0 bcd56698 bde08858 bde54c0c 3c0a69e0 3ca59260 3d8a4ef6 bddfda96 3cb36d08 bc93ed30 3d962b24 bd68cde8 3d1889e0 3d4e5208 3d809934 bd2f9c48 3d24c464 bcc8af98 3d09defc bd9d6a4a bdcb6b84 bdd1678e bda0edb6 bd58b14c 3c986ca8 bcdffca8 bd91bc10 3a89a280 bd21b01c 3d9dce62 bdd2d7ce bd3cfbd0 bda48398 3c7cb460 3bdf75e0 bbeba060 3dfe0092 bd4351d8 bc932dc0 3d044768 3dd5a920 3dc20abe 3c69f5e0 bd41b408 3d283394 3da1124c bb2ed400 3d8c8d78 3dd1840c bd892820 bce261d0 bde67b12 3ceb1008 3db672de bcc6da08 3ca36608 3d2399f4 bb2ebac0 3dc7065c 3c953800 bdfba254 bdd366b8 bdfda2cc 3ba8d280 3d8a62a8 bc8718c8 3de62c44 bcb83878 3cd15b70 3de6d87a 3d818f3c bb82aca0 3df695c8 bd98f36e 3d3eb520 3da1ac68 bd9e8358 bdf078d2 3d23c4f8 bd423f40 bd813032 3ccbadd8 bdb9b5aa 3de63f54 bc37d730 bd23f820 3dd602de 3d0e8fe4 3cc31848 bd74cd94 3df3fcb4 bd1bf06c 3dd4ec44 bc168ba0 3d806b52 3db3ffda bdbe97b6 bdaa9ff4 bdfd258c 3db8a4aa 3ddc2806 bd3b1ed4 bd7ac458 3cab6858 3d89d33a 3cfcc270 bcd56968 bda2d5cc 3ddaf2d6 bda5ca02 bdf75f60 bd4c6d74 3ccc31a0 3d3e4e44 3d45f940 bd944cec bd44801c bd63ad10 bd77f0dc bdd79f3a 3cd19cc8 bd14e604 bdf666cc bd957b9a bd99bd62 bd5cdb94 bd9e2ef8 bcb194d0 3d377b54 bdcf2f32 bc2f70f0 bd13592c bd82e1d2 bce360a0 bd590068 3b83ad60 bdb8cb2a 3cc230b0 3deb0ab8 3dd41fdc bd658f54 3d1dd018 bdf1f8e6 3dd7899a bdff1ede bde4c4b0 bde5cb06 bdedbc44 3c8aae20 bd0763b8 3cf51780 bbfd6fc0 bb2ff940 bd38f9e0 bd97e22a bdd65662 3d812c66 bd83fe52 bcd04288 3d78acfc bcfd9b10 bd0117cc bdaaa948 bddb08a4 3d75be38 bce70870 3da0f95c 3c06cad0 b9267c00 bde71df8 3b34dd00 bce76bb0 bd921518 bcecfe08 3bd62240 bdc0e438 3caa4640 3db220ee 3cca49d0 3df45d92 3d6eebb8 bdc9e4e6 bd4987d0 bcf66b18 3d192938 bb69a600 3dce009a 3c6de890 bda220a4 bd3bb510 bdd4fb68 bd0d2c6c 3d7bba74 3a9e3680 bdf41f6a bddd8428 3d399fa4 bde0b11e bdcc30d0 bd98a18a 3df3ff90 bd1195c4 bd531928 bdacdac0 3da3c3d8 bca55810 3cc57680 3cf49f90 3d1065cc 3da3dcd8 3bd48e40 3c53d710 bc04ff50 bdc6ede2 bcea5738 3df3a62a bdb56ed4 bda1905e bdfe0848 3bf85f40 bdef714a bd831f28 3debe390 3d540d6c 3d8863b8 3caf5738 bdd98b2a bd6e3e64 bdcf3f3a bd9e4cc4 3d2e5bd0 bd0e015c 3dfa2dec bdba9cee bdda7914 3dfcc668 bddd25aa 3dd9d6a2 3d09dec8 bde954e0 3ddef880 bd0b6398 bd531de4 bdc7b494 bdd8895c 3ce3fdd0 bdfb756a 3d5264e4 bcfd0a30 3d33af30 bcfab798 3d310f20 bb5fc600 3d167c48 bd504dbc bdb016ac 3c826960 bda3663c bd9eb26a bdf62952 bd2332e8 bdab0e64 3dc75c5c 3db87c6c 3cf2f590 3dd00056 3d768904 bdf12864 bc4ce9b0 bca637d0 bd9b6f0e 3d11d2bc bd1fcd50 bd74d3dc babefe80 bdaa34ee 3dd3e0f6 3da1fde8 3df253f6 bcb55ef0 3d273778 bba4bfe0 bdd3d5b4 3d67a338 bdb2d060 bd38d288 bd654938 bdf9bee6 3b92eac0 3ca7c170 bc1841d0 3dbc46ae 3bc464a0 bcba8518 bd8ba226 bd980a2c bc919530 bd963f5c bda8e054 bc876fd0 bcb4cdb0 bd9c44aa 3d959402 3dd91b92 bdae8c4c 3d6042c0 bd6d92c4 bc54a6f0 3deefa26 3c8307f0 bdf416da 3deb5682 bbad4ca0 bd80301a bd873238 3ddb8746 3b0a4240 3d8d65d2 3da8401a bd46b92c 3c2dd460 bda59850 3dd5c614 bd875f0e 3daa0a56 3d01b994 3d9deb0a bdb45eb0 bb7ec300 3d84a61e bba37e40 baeb1580 3d798000 bdbf55ba bccd4cf8 3d693638 3d7b1c18 3dedc4b0 bcca9050 3cf2a018 bd7beaf0 bcabdcd8 bd808430 3dbdb6be 3a479b00 3d5049c8 3d8ccfd2 3cbed218 3c59f220 bc15e570 bdd8d9e6 3ca4fbf8 bce2dc78 bdd72cde 3dee82d4 bc5a5580 bd7f884c bdf9386c bdebc9b4 3d42f8a8 bd69baf4 bd5d2b94 bd942088 3dcea51e bcf62870 3da5ef44 3dcb3bc8 bdc67a2c 3dbefcce bcc38a70 3df53058 3d82c2a8 bdf7fb98 3cbe3cc8 3d33fb2c bd39bd50 3dc220a2 bdd40002 bd2275ec 3df3eca6 3dfa058e 3d7fc3fc bd98d178 bddc4342 bdd02546 bcfffcb0 3d9105e4 3d22196c bc78b600 3de63bd6 3dc90752 bd6f4cb8 bd5db98c bac03980 3cd47f90 ba6a9400 3d45aa24 3db0a06c bcb8a3c0 3d7b7064 3c8b4508 3d448844 3d52c7c4 bd08d944 bd6447c0 3d5ad8c4 bda3e784 3d86668e bda44144 3daf9ffc 3d4d6f40 bcfadd50 3d9253f6 bd289d6c 3cda2848 3d16beb8 3c5128c0 3ccda2c0 bb22a0c0 bd13ea2c 3d8ed32c 3d49f2e0 3d3ef938 3dacd45a bd85f1be bcedea10 bb697f00 3dce968a bdcbdb06 bd92d768 bcf3eab8 bddaace8 bdca4200 3daf5d8a 3bbf12c0 bdcdf22e bca914f8 bb86a9e0 bd360634 bdd6217e 3d8b5314 bc7cf3a0 3df9f0f4 bdc40fe0 bd8c8a72 bbd4cca0 bdb245b4 3dba90d6 3dc5f8a8 3de7eb52 bda19a5c 3db624e6 3db1bfd4 bd4bb8e8 3c60ba60 3d73fa88 3db730e2 bdef1a6c 3dfeddfe bd00ba64 3d509ca0 bd9effb0 bdc500ca bdad5f44 3d96dff6 bd7c8d70 3d94d0c4 3d1ac8ec 3d4ba964 bce3c328 bd21f520 bd6f8e04 bd8f188c 3dec0a3e bbde9a00 bd5b9054 bdee2f04 3bb23060 bdfe1d80 bac0ed80 3da1a3ee bd9372b2 3d8ca818 bd2352b0 bdc4e46a bdfd8d68 3d7e59e0 bdc3dd1c 3d79ff6c 3c929d78 3d8b2272 bdc06ed6 3ddfded8 bdfefbe8 bdc25022 3d998522 3b8b34e0 bd8fc0c2 bcd6cc88 bde3d2c6 bddecc92 bcdbb1f8 3dc34a4a 3d18e800 3cc118b8 bd07b1cc 3de90110 3a9cea00 3d2ce0d4 3b023480 3c9fca80 3d2abc34 3dc47310 3d935b0c 3c830cd8 3d4cb294 bd19f974 3daefc50 3d0fba68 3dc132bc bc9fe1a0 bdd1048e 3cca4968 3d503d40 3dceda74 3d46725c 3d3d2bf8 3dcbb9e4 bd2ff458 3de20790 3d833fee 3daaf7ec 3db693a0 bdd12616 3d8556fa 3dee6c24 bdb3d86c bc2f8710 bd9c3c34 bcf74418 3c989ac0 3d88efc8 bd14a444 bdf26980 3d8a3b06 3d8f9fb4 bcb9a360 3ddb27de 3dc5595e bce1b210 3b9e2c20 3cb460c0 bcc8a970 bcfc46c0 bd671ddc bd919570 3d7fb31c bd180890 bd75a044 3de18252 3ca3b898 3db8b5ac 3de94a86 bc904048 3c98be70 3ded58fe bdb02312 bd1982f8 3c91b6b8 bc0af150 3d085060 3d869ca8 bd52a574 3c1f77a0 3de79b5c bd90dbc0 bdad99bc bdc453ac 3d9906b8 bdeacfb6 bd78fc70 3dace6a4 bd997792 3dd02ed4 bd6f5774 3ca1ff38 3c860b18 bb48efc0 3d9f72ba 3dd96d28 bd9fd636 3d8f92c6 3d08ccb8 bb18a780 bdb2ff4a 3d17e0f8 3db9d07c bddbbc1e bdec6e0a bdfbab64 3cec9b50 bd131d88 bd1f0a94 3dee6066 bd0297f0 bda29278 3c383860 bd8c822e bd16035c 3d873a06 3cec5538 bdafac28 3df3b8c8 3dad3336 bdae82e6 3d5f04b0 3d526400 bdb7b16c bdb3ea46 bdd3f964 3d641200 3cb26800 3d586180 bd60e230 3dc07e16 3c82c0e8 bdcc44f6 bd00deec 3d82a572 3ce128f0 bc9ca770 bdb2db2c bd9f3fe0 3ddcceee bd92a55e 3db56996 bd2b5fdc 3aa3c480 bdf94a4c bd266ed0 3dd7cd80 bde5d632 3d80cf38 bdd77214 3c955a68 bde81952 bdcaa88c bdceab0e bd318940 3c8b6cd8 bdbbb12a 3d01c264 3d9a2fa8 3dd0b0de 3de2ac98 3da88c30 bd16c3ec bc3cbde0 3de28098 3d7eb2ec bd07c754 3dc1479e bddfb98a 3ddb1a2a 3d8f3bc8 bdbbc41e bdd0cc04 3dc832d8 3dfc8c18 3c32b700 bd480e78 3d91c50a 3d66fc50 bc7f9840 3dccf53e 3da5eec4 3cff48b8 3d84ec26 bdefcb56 bd6fd344 3c607fa0 3d0b3c18 bc8bfde0 3d415324 3d1bf860 bdec98a2 3d217e80 bc268360 bdb02a4c 3b8a3b60 bcfbd780 bd87f23c bde946d4 3dd628fa bd9b77c8 3c8988e0 3dcd14e2 bc810190 bda7c936 bdf7ab4e 3caa2428 bd80737c 3c155a30 3d238b2c bd111134 3dad949a bc8540e8 bd4c5520 bda94442 3d1b5778 bd9e45f6 3cd740e8 bc813d28 3dafeff2 bd7b012c bd7c38fc bc845618 bd9c5c30 3d433268 bd3b8b90 3d520f9c 3d94934e 3d957cc2 bcbbfcb8 3d8bb55e bd878f26 bdff10c0 bc42e870 bdb99df8 bdc65494 3d022600 3ddac216 bd497d34 bbe7b3a0 bdb97878 3cb2f8d0 3d11f83c bc9d3078 3dc2c5b8 bdce092c bc896380 bd8e1918 3de0c88c 3dd8d5f0 3dfbd0be 3deb8804 3d4ac7f0 bdc405de bdada61c 3cf57a08 bde48ec0 3da211c2 3d5e9698 3cf45220 bddf7144 3dba3a08 bc58c050 bd56dac4 3d85a8fe 3c2d1150 bd63c21c 3cefab98 bdaab734 3dedee14 3de06220 3d6c2008 3d876e5c bdfe7a86 bd8e4ea4 bdf65724 bd856dc0 bdd43e32 3dbc6f2e 3d8a1d7a 3d96c302 bd634b70 3dc31eb2 bc93f7c0 bd04a744 3d89d6b6 3da98800 bdb7feba 3df3b834 bc4eb420 3d085dbc bdfee898 3c63fea0 bd7d65a8 bda04ac2 bd55c5fc ba18a300 bd11dbf4 bda3fdfa 3db74ac4 3d1851d0 bdee3eb8 3cd6cd50 3cfb8b70 3b968280 3cf8a748 bc2b77b0 3d5feb60 bdb43802 bd5a4eb4 3dbfc56c bd9e9a36 3d7b340c 3decdea6 bdea16d2 bd604f40 3dda76bc bbf7ac40 3cca26c8 3c91bc38 3d52fea8 bd52f5d0 3c84f020 3dae61e0 bc2cc650 bdeade68 3d30f9bc bd02b4d8 bcd80820 3d858356 3cb375a8 bd9ade24 bd6c45d8 bc9ba868 bcfcfea8 bcd8c7d0 bdaefa72 3db97400 3d84c466 3cca1510 3ce7db00 3c6fc170 3dbf6b80 3ce7b638 3c9bfcf0 bd8cb9dc 3d2acc80 bdef7ffc 3d217a98 bddde5e8 bd53e700 3d8726fc bd987a08 3dcbd890 bd8d71fa 3df27b1a 3d1dcdf8 bd5de098 3d9c2106 bde2b634 bda22c74 bda062f4 3c86cca0 3c4933a0 bddc2ffc 3df707aa b8fa8800 bd88b402 3b43ad00 bd5bc718 3d0d41b8 3d395948 bd113c08 3beeca00 3d985272 bda682aa bce456f8 bc9710b0 bda95f76 3c26cdd0 3b9689e0 bdcec74e 3cd20f68 3df457ea 3d882a30 bd8add38 3dea5578 bdaff90e bd822980 3d61d6f4 3dcba89a 3df44c18 3ddc658c bd8cf71e 3cea5188 bda0befa 3b34e800 3dd418e6 3d7c1ac4 bdec623a bd5c59cc bdd7ff6a 3d713044 bc81fde0 bdbb2452 bd239b44 3d280528 3c3d9a60 3df034e8 bad98580 3d210d98 bd1b1940 3c746240 3b92bba0 3ddbe632 3d56888c bd91e472 bde37880 bdf39180 bd39efe0 3c845e18 3df0d60c bc4939b0 3d482ff0 3d821b0e bdc4189a bdd3c466 3d420148 3d6ea5e0 bd6e67bc 3ca07818 bdfaa704 3ace8400 3cfb0178 3a9b1580 bca28a18 3d551c0c bd0cbb50 3dbe9096 bddc8016 bd924d9e bdd5b79c bde786ec 3dbdc956 bcfd6988 bdc9184a 3cd46330 bdc1db84 3bd3bc60 3d736548 bcd88818 3d839a7c 3cd22ba8 bdcd6cba 3cc98aa8 3da50738 bced6228 3c418e10 3c82a2c8 3c301ca0 3d051804 bdf51c0c 3dc23b2a 3d5f4e64 3c7ce8a0 3cba53c0 bdce74ae bd122fcc bbb229a0 3cf36a10 bd8c6e5c 3c594d40 bd1ee5e4 3dba5650 bddbbd90 3c561550 3dad704a bdc6d4a4 bb6acb40 3d6c9768 3d4e9adc 3c70d860 3d4ef800 bdb274f0 3dd537f8 3b36b540 3da57af6 3ce28778 bc63d5b0 3d5b4f0c 3df3055c 3dfc85d0 bdd77cae 3bf86b80 bdb7e782 3d952872 3db7c7ee bdb3c338 bbecbb20 3db12582 3da94b66 bdc07a86 3dabe2da bcb549d8 bdd9b88c 3ccbfad8 3d6e857c 3d998750 bdae0f6e bdb96a96 bdac0110 3d91140e bddfbd3a ba8a2880 bd1674ec 3d5f8aa4 3cc918e0 bd814614 3cb2dbd0 3deb96aa 3ca89858 bd7db7f4 3b892240 bdead0ba bda43fa4 bcbe34b8 bd9f86de 3dd8c8de 3cc6c4d8 3dc6486c bce92c88 bc8e69b8 3d01264c bd183ce4 bd2e86e4 bdfb2136 3dc0db56 3de7affc bdfd78a8 bd296648 bdc1a2a4 bd4fd578 3dc2e542 3d88f094 bc1ee890 3d5aad14 3d18e770 3d8bce5c bdcdb8c0 3d1e434c bdf274b2 bda85cc4 bd3ecc84 bc478910 bdf196a2 3b4be040 3ca37d00 bd4b3208 3d2611a0 3ddfb2e2 bcaeea08 bd885712 bde2c5a6 bdbaee92 bd8d9724 bdbd4114 bd494b00 3d8d06ca 3d203754 3de6bd2c 3dfe2b36 bd385fec bd48824c 3c8c2118 bdcbd926 3d8b3e46 bcb84c20 bdd65b30 bdc1467a bdb066c8 3d0cb96c 3dc43df6 3dcad112 bd0cfb54 bd94b2fa bd633e54 bdaee0ea bd040134 bde73454 3d88d4d4 bdf0f22c bd9f3ef8 3dabcd3a bdbf7d88 3cf4cd60 3dbfc004 3dfc57bc 3d81888a bd096744 3d924998 bb872de0 bd1ddec4 39d57000 3ce5b148 3daba730 3d56eb54 3d7479a0 3c993018 bbce2880 3d56fcb8 3cf64b80 bdf4f6c2 3ca58e30 bd636004 bd87c19a 3d460184 3cd16578 3cad6858 bd72e264 3d6c94f8 3df03d10 3c7a8be0 3d52720c bde09892 3d9830d6 3d31dcd8 3d66ab9c 3d5582a4 bd06ab28 bbf5dce0 3df79eda 3dbb530c bdb77f72 3dcb1dd0 3dfec77e 3c86aae8 bdc7ba04 3cc67e28 bcceced0 3db80f86 bdf5f5f2 3d0305c8 bac02a80 3c213970 3db019b0 3b13fc80 bdce19c6 bd95559a bd4d01bc 3c5a6b80 3d4594ac bcbf22f8 bd4a1340 3d60ab38 bdf8e92c 3db2e354 bc6e1300 3db221de 3dc16fea 3c5ac810 3d21f5a8 bd90cb96 3db76b80 3d95d5e6 bca0d408 3d4790e0 bbe56e20 3dc802a0 3d52c320 3dbaa2d2 bde8b2d8 3df96d7a 3d3ec2fc 3d78ecd8 3ce42d58 3da82332 3df10100 bc2e7850 bdd20d9e 3deb134e bcd7f3f0 bd76ece8 3d9d9706 3d8ede3c 3c891868 bc008ec0 bcc3e460 3deaba96 3d9bfa16 3d98750a 3da33ee0 bd85fae0 3cd5ce68 bddd7684 3d94bb10 bdfdbfca bdffd8f4 bdfd0d28 3d9dddec 3c5522a0 39950800 3ca2df40 bd41c45c bd1b79c4 bdac7088 bcfa1400 bd9d86b2 3b578940 3dc9240c
layer_seq.glp_0.linear2.bias 64  bdd3a21a 3d7bc974 bdbe698c bd542244 3cc83cc8 3cb03260 3dd1f080 b8442000 bd430130 bd53bf38 3b702c40 bdbff4c8 bdc8b80c bd5b10e4 3b527040 bdace328 bd922220 3db6c864 3dec930e bd206060 bddba1cc bd440560 3d4ea4f4 3d262ac0 bd1eb848 bde176d4 bd19f3c8 bce4f608 3d936bbe bd7de2ac 3d99a468 3c8e0c38 bcab9ee0 bde42460 3dfcbd8c bcb698b0 3da11328 bd846bb4 bdf94cf8 bdcc0ee0 bd83323c bd230e44 bc909a40 3dd581f6 bdec1922 3d7f8c38 3dd767de 3a52e700 bd9fa702 3b8301e0 3cf2eec0 3d628a38 bd1ba1d8 bd2fb428 bd718bf0 bdf79b58 3d33d1a4 bdc18a30 bd75f730 baa89a80 3dc559f8 3de39e6a bdba3446 3dde0686
layer_seq.glp_0.norm1.weight 64  3f800000 3f800000 3f800000 3f800000 3f800000 3f800000 3f800000 3f800000 3f800000 3f800000 3f800000 3f800000 3f800000 3f800000 3f800000 3f800000 3f800000 3f800000 3f800000 3f800000 3f800000 3f800000 3f800000 3f800000 3f800000 3f800000 3f800000 3f800000 3f800000 3f800000 3f800000 3f800000 3f800000 3f800000 3f800000 3f800000 3f800000 3f800000 3f800000 3f800000 3f800000 3f800000 3f800000 3f800000 3f800000 3f800000 3f800000 3f800000 3f800000 3f800000 3f800000 3f800000 3f800000 3f800000 3f800000 3f800000 3f800000 3f800000 3f800000 3f800000 3f800000 3f800000 3f800000 3f800000
layer_seq.glp_0.norm1.bias 64  00000000 00000000 00000000 00000000 00000000 00000000 00000000 00000000 00000000 00000000 00000000 00000000 00000000 00000000 00000000 00000000 00000000 00000000 00000000 00000000 00000000 00000000 00000000 00000000 00000000 00000000 00000000 00000000 00000000 00000000 00000000 00000000 00000000 00000000 00000000 00000000 00000000 00000000 00000000 00000000 00000000 00000000 00000000 00000000 00000000 00000000 00000000 00000000 00000000 00000000 00000000 00000000 00000000 00000000 00000000 00000000 00000000 00000000 00000000 00000000 00000000 00000000 00000000 00000000
layer_seq.glp_0.norm2.weight 64  3f800000 3f800000 3f800000 3f800000 3f800000 3f800000 3f800000 3f800000 3f800000 3f800000 3f800000 3f800000 3f800000 3f800000 3f800000 3f800000 3f800000 3f800000 3f800000 3f800000 3f800000 3f800000 3f800000 3f800000 3f800000 3f800000 3f800000 3f800000 3f800000 3f800000 3f800000 3f800000 3f800000 3f800000 3f800000 3f800000 3f800000 3f800000 3f800000 3f800000 3f800000 3f800000 3f800000 3f800000 3f800000 3f800000 3f800000 3f800000 3f800000 3f800000 3f800000 3f800000 3f800000 3f800000 3f800000 3f800000 3f800000 3f800000 3f800000 3f800000 3f800000 3f800000 3f800000 3f800000
layer_seq.glp_0.norm2.bias 64  00000000 00000000 00000000 00000000 00000000 00000000 00000000 00000000 00000000 00000000 00000000 00000000 00000000 00000000 00000000 00000000 00000000 00000000 00000000 00000000 00000000 00000000 00000000 00000000 00000000 00000000 00000000 00000000 00000000 00000000 00000000 00000000 00000000 00000000 00000000 00000000 00000000 00000000 00000000 00000000 00000000 00000000 00000000 00000000 00000000 00000000 00000000 00000000 00000000 00000000 00000000 00000000 00000000 00000000 00000000 00000000 00000000 00000000 00000000 00000000 00000000 00000000 00000000 00000000
layer_seq.glp_0.shortcut.0.weight 384  3ebb3d2c 3ea8db3f 3d119580 3ea7e046 3e4b1d4c be95fc8f be5c57b8 3bfb9612 be942163 be09a7b3 3ea885ed 3e42a23f 3eb608af 3b4d1c15 be552981 3e8a576f 3cf68df2 3d8ccd16 be312017 3e2bb8a3 be9a5f8d 3ea6cba9 3eb6dcc5 3e16d71f 3ea2c593 3e7dbda3 be1fa8bc beb54af1 3d5c0b05 3e833d9b bd2b1127 3d0cb323 3e9aed30 3e2c9bb0 3e9c4379 3d758a0b 3d3b7174 bdc7fdc2 bd8d16e7 be5e2d5f 3e8bbf7d 3ebea3ac 3e1b24ab 3c3e0d66 be09ffcb bece600d bd9ad0c5 be946307 be9a505a bda58f5f bda47a18 3da8a94f be978109 3e96375f bebe4e31 be45fbe0 be1eb646 3cce30df 3e2ccff1 bddc564a 3d827cf1 bdc5eeb5 be246bfb bd69e664 3da85726 becb08eb be917d38 3ea34cb1 3e3d08c2 bc32d736 3c533b8d 3d66d1f6 3dc25395 be8eb546 bde3e88d bebfd61d bea454bd bd9d50b3 bd5cca49 3ea37c94 3d900359 bd87919f bc394edc 3e6979c2 bdfd45eb bd9c4d63 bda7b9d9 bea88cf3 bd69b581 bec13ace be60b525 be850bce 3e9bb4ed bec08c7e 3ec96684 3e1cbed1 be8d41a5 3ead2c69 bdb83db1 beb10a1b bd68384d 3e4e9a4a becb3b1a bcfa9efa 3e2a1891 be22ec58 3d184c88 be23d785 be8c3bb1 3ea3b1cc be946a99 bb9cd596 3e0b3c02 be699fd4 3e49d9a2 bead95ca 3ec7a0b4 3e3a2e3d bd6cbcdf beaddfa8 3c4e45e6 3e1448ee be630b7c bd5296b8 bed04eba bed0f607 bd359b5e 3eaee631 bc9d6789 3e031000 be271985 be0880d5 bd37cdd5 be5355ef 3e7fcef5 3e8258be bea27ea4 3e00390a be2cb26f be70651f bd4c0103 be01a986 be6e0810 3d7670a7 3e6e9c1a bd8103c6 bce9f150 3cfbaab0 be33aad3 3e5d5187 3ec0dc76 bd18d4c8 3ce357fb 3ea86ae1 3eab33c9 be9b7e09 be41992a becd0971 3e80065e 3ea324ad be182719 3e061921 3dca87b7 beb3d5ad 3e26f09e 3e4d209f 3c131a0c 3d2b7b8d 3dc24953 3e9694fb 3eb8afcb 3d70568a 3e3231ec bddabe46 3e793db4 be24706c beac4ba5 3e4422fb 3e1b0c39 3db807ce 3e31dd94 3d46fc00 3e0e4705 3e2a58c4 be618377 bcb33121 3d7c0044 bd7de043 beafbe49 3d1e9f49 3e7f7c1f be5f920d 3ecd3881 3dbead41 3e31cc41 be216d37 beaafbcf be1b948a 3c4c5a5e be3e7e21 3eba2624 be85c826 be8cc848 be14488c 3ebb8688 be3f275c 3ec15fb9 3e48e662 bd7e13a7 3e583781 3e46be20 be54c83d bdac215a 3eca7707 3e6facac be4c2eaf bde0d0e8 3e6a4fc5 3e543a49 3d048cfd be867e99 be9a2b19 bdb0792a 3e19b3ac bd32459e beaec2b5 bdcce8be 3ed0a3c7 beacc2fb bea238cc 3e8365eb 3ecffac0 bec91290 bebd0c6f be02b794 3ed06743 be6d43cf 3d0ef895 3eaaa196 be13fdfb be003349 be8c4da4 3c8068aa 3ec31902 3e2af1cb 3e92eb97 bcdd919c bd84cdbf bd955f10 3e6e6e6e bd5b451f beb28bf2 be12cbd5 3e239ac1 3ecbcabd bd980755 beb5fd28 be99e850 bea475f5 3e288412 3e9a13b3 3df742f3 3e1023e5 3e882cab 3e8ee9d3 3e79a102 3e69c57a 3de23cf6 3e57c7b2 be8f6ca6 be874a8e 3de0dc64 3d821d50 beb7c1c0 be9845e4 bea665ee 3ea602de 3e88a8b4 be5c09ef 3d7c4d04 bdc04eb0 3eb5b594 bebd51cc be987da4 beae0680 3e734b3e be50f9e4 3e78fe14 3e0d502f be4c5680 bde13c33 be292d13 3e386e67 be27a668 3e0ddf39 3ceeebc3 bea6ed5e be8364fa be90ee61 3e5b0dd8 3db52a63 bc282e7b be78ec07 becf1a07 be13f0dd be9ff96a becfe861 bec75ba3 be888862 becb332c 3e0250d7 3e1c6be4 3e288042 bed014da 3e81405e 3da301f1 3e55c35a bdcd7dfc 3e48c07e bec63d9d 3e0e63bd 3ea5bf6e 3e2fbb72 bec50724 bdeab5f6 bd4fa89d 3e5b0974 be1e3089 3d708141 be12c168 bd84d202 bc0525e0 be700c8f be9114e3 3eac8e6d 3eaf9eff bc4a7ffb 3eb4ec88 3ea111fa be83a8e9 be261d4d be8f9121 3e07288d 3c2928bc bd65518c 3e9b3159 be2366e5 be64cafd be9496ed be54ac1c 3ec97666 be4b400a bde60db9 3e3c6b61 bea08962 be7dbc9e 3e99d7bf be2056b7 be58ed61 bd585831 bd6e45f6 3d98cc84 3e1943c0 bea12a9f 3ebdf3c5 bec6babb 3e0d95fe bdebe8a8 be308a02 3ec38647 bec96d02 3ce4682e 3e85f056 3ebadd8e beb0b61a 3d4978a9 3ececda4 beccbe86 3dcc379d be82f7c3 3d87ba80 bebd143e 3e4dae22 bdb97a64
layer_seq.glp_0.shortcut.0.bias 64  3e79d7a6 bbc92a13 bd6e5a46 bdcafd3d bebf63e3 be3191d9 3c5e22be bea1b5c3 3eb7705d be87f106 be22de15 bd5f9e91 bea95264 bb5362f2 be494ead beaef5e4 3c241096 3eb90bb6 3dcde321 3eac666c bb82d23e be11ea1c 3ea876c0 be5e9dfc bec15e4d 3db6fd52 3e5057fc be79e4b0 3e13232c be1450d7 bd4ae44f bdb9203f bdb2d587 beaa130e 3dcce99c bddbedce 3e9fd397 3d8b8da8 beaaf18c be9f03e6 be59ded8 3e48315d be86f472 be3f3eae 3d97cacf be90ea51 be4ddb48 3ebd8a00 be5d04b7 be0b47fc 3e957e53 3dbb5ae6 3ea40fea beb825b4 3e50f563 bd7fc621 be85e8ef be330c38 beca2ec4 3e9098d6 bda06e30 beccf4db 3eb2c293 3e8762a9
layer_seq.glp_0.shortcut.1.weight 64  3f800000 3f800000 3f800000 3f800000 3f800000 3f800000 3f800000 3f800000 3f800000 3f800000 3f800000 3f800000 3f800000 3f800000 3f800000 3f800000 3f800000 3f800000 3f800000 3f800000 3f800000 3f800000 3f800000 3f800000 3f800000 3f800000 3f800000 3f800000 3f800000 3f800000 3f800000 3f800000 3f800000 3f800000 3f800000 3f800000 3f800000 3f800000 3f800000 3f800000 3f800000 3f800000 3f800000 3f800000 3f800000 3f800000 3f800000 3f800000 3f800000 3f800000 3f800000 3f800000 3f800000 3f800000 3f800000 3f800000 3f800000 3f800000 3f800000 3f800000 3f800000 3f800000 3f800000 3f800000
layer_seq.glp_0.shortcut.1.bias 64  00000000 00000000 00000000 00000000 00000000 00000000 00000000 00000000 00000000 00000000 00000000 00000000 00000000 00000000 00000000 00000000 00000000 00000000 00000000 00000000 00000000 00000000 00000000 00000000 00000000 00000000 00000000 00000000 00000000 00000000 00000000 00000000 00000000 00000000 00000000 00000000 00000000 00000000 00000000 00000000 00000000 00000000 00000000 00000000 00000000 00000000 00000000 00000000 00000000 00000000 00000000 00000000 00000000 00000000 00000000 00000000 00000000 00000000 00000000 00000000 00000000 00000000 00000000 00000000
layer_seq.glp_1.linear1.weight 8192  3d15b25c 3db12b4b 3da37863 3da92c54 3da21b81 3d931c3e 3cbd8e38 bbf28d9c 3b5c4a10 bd167487 3d2a1b4e 3b27d0cd 3caad425 bd6934d3 bd085160 3d87b5ef 3c0cd97f 3cf9df88 bd9e07fe bd1b08cf bb136cf1 bc17f67f 3d671b04 bcda83f8 3d971409 bc8c0acd 3d0cd086 bd7ee2a7 3c75ccdb bdb07b81 bd9b5002 bd67b4e6 3ccab5e1 3be07bfb 3c0c28ad bc1e6953 3d9819f7 3db15399 3d19c0ef 3d8ff4de bb8f2438 bd0518d0 3c8cc470 3d6e0daa bc5fd08d bd8afe0e 3cef1dcb bcb89425 bd2e4670 3d64abf7 bb449d46 bd4ef344 bd58a243 3daa7a11 3d6b7cb8 bd81cd2f 383137f8 bafaa4a3 3d2c9224 bd9b094a 3aac2e90 3cf14167 3d383e19 3c176c63 bd3373b6 bdadc7fd 3d43afcf 3da54396 bcda9d01 bda1c4c6 3cd3dad3 bd7dd325 bd6c8b1c 3cc55f8d bc098541 bbc50237 3da25d70 bc7e0277 3d5c6067 bce1598c 3d86b27e 3cdce562 3da14e55 3cfc8b15 bd003d8e 3d1dcbc3 3d9a397d 3c893c9a 3d26e904 bd7eb3df 3d442a6d bdab1d97 3da00665 3d1587d2 3bbe99fe bda96cf6 3da49ca8 3d66d9cc 3da6e042 3d0e5243 3cf3da5e bcbb8f6c bd145d34 3d0f8361 3cfb1d27 bb3bcc03 3c665767 3cf8bafd bdaeede2 bda01551 bcc0c090 3d7691ee 3d30a1db bdacc6ac bcd9673a bc1913db 3cedd113 3d941883 3afd6326 bd8ce725 3bb1b6fc bd0bce22 bd5d41cb 3d488796 bc428ffb 3d2b11e0 3d8cf3c3 3c0e53b6 3d4beaf4 bd2afc4e 3d4a187f 3b676aa4 3d7095da 3dad10b4 bd88eed0 3dabd86f 3d8a2eeb bd91d2d4 3cd441d2 bd935e88 3ceae171 3c5ff14d bdaccd99 3d036d47 bcc6e3c6 3db46f9b 3db0ad24 3cf9f573 3d8eafed 3d02c2e9 3dab4311 bc05b409 3cb2f4be bc6f35e0 baca9b58 bcda6e07 bd0f474f 3d516e6d 3d1b5c50 bd1fd14c bd9f8859 3d31057d bda683ba bb802a49 bd9bc1bc 3d9792b4 3d93665e bd94c4ee bda84cb8 bd560dea 3cc7cd85 bd350bfd bcac6fa9 bcb789e0 3c84d1d3 bd2b3f13 3d24a91c bd8188f9 bc00e7e1 3d97bc34 bd47e8f7 3d8ae1a0 3d3c6d39 bce9e3e1 3cfb1593 bd7495a7 3be91a3e 3ccd1a42 3d9c9320 bd4a96d6 bd4de63c bd34b1fc bdb05814 3c926da7 bd95d7a4 bcc25fca bd2188f4 3ba1ef8c 3cdba5e2 bd838b4d bcd5c21c bc0b3952 bd5149c4 3ca7452c 3d060680 bd810252 3d8e56a7 3d80a1e0 bcd987d7 3c577917 3c30530b bc47ce12 bd72fa59 3d9529e3 3d32290a bd9745af bd8c4af7 3dac2427 3c6721f1 bca65a86 3d755e05 3cd00321 3d01f61a 3d8f9c18 bbe20d00 3dac7d25 bd7e4efa bd5c4cf2 3c755f85 bc2fd019 3d4e9911 bcc4e571 3c63b845 bc96745f 3d87e64e bbbdf9eb 3ab1d389 3d849d13 3daffba9 3dad3591 bdb0fca7 bd4c92e7 bc9d3b6f bc957b1e 3d516ab7 3d23837f bbee3a04 3b0939c5 3c9b239a 3d9c0c87 3d3b9cfd bd369da3 bd39760b 3ce4fcc9 bc127990 bd684337 bdaf3448 3c4f6f47 bcd37287 bd52a5a7 3c8834c8 3db04617 3d9659f1 3d4e6b9a bd888676 3d4ea051 3d3b40c2 3cf19559 bcb45eb1 bac9bbe5 bd445e88 bca31a8b bc6e6329 bc4d241d bdb42600 3cff7208 bd941bc0 bd875f55 3d131f2b bd942dbe 3dacb088 3dad5596 bce61949 bc79936d bd8a7d61 3bb30e76 3c846324 bd469a0a 3ce30f07 bb5eede1 bcd57158 b9a0534e bdaf776f bd7f081e 3c3fb053 3daed07d bd5696a9 3d6818b9 3c0488c0 bd1bc2a8 38cb1826 3d2d920c 3c2c49a7 3da03de2 bc89097d bd71c333 3da39376 bccecc06 3d65b6b6 3d6eccaf 3c803cc2 bd949236 bdb1b6e7 3d2bdf7f 3cb107d2 3d52a83a bd9f8d32 bc4783ea 3d9c66a4 3d3e3546 3d966ee8 3d8e1f49 bcb1aa3c bd768adc bd57e122 3cf5ea7d bd0fb4c4 39b7c978 3c671a1f 3d60bec5 3d49e905 3d4ea155 3b6b6de4 3d4c6387 bd297d1c bd10e7ba bc654a7b bd523eb9 3da17808 bc5de89b 3cd281c7 bb3418f4 ba9e7389 bd40f69d bbd4a38e bda1ebc1 bd2d2160 3d8b4e2e bda9c98b 3c6e4f46 3c66b55c bdad4198 3c8d6c49 3d281994 3d831beb 3c87879c 3d8d7fa3 3b5a0910 3d09f1dd 3cd5c112 bd8578b3 bc9ef204 bd7ef33f 3d8ca6d2 3d2cb6b6 bd198b01 bc8480af 3cc14bcc bd9dd5c1 3b2390eb 3d2cb2f5 3c357473 bc053ec9 3d68c16c 3d1d7b6d bda0ecdd 3d551087 bd8ec663 3d4b5deb 3d986d43 3c057635 bcf4b795 bd3b0277 bd20c26e bc85787b bd16183a 3db3b33c bd1c29e8 3d16507c bda7dd31 3d377ffa 3d9a081e bd81c451 bcb8be4e 3cac938b bdad46d2 bd65119a 3cfbd2ae 3daa74bc bcd85051 ba530421 bdaebe82 bdadc03e 3d9d6daf 3d999d46 bcdcad25 bd0f2824 bbbb7e7f 3d27fb92 bdaeef5d bd488a84 bceeb50d bd1d94b5 bb190699 3d840974 3c9e1808 bda3d1b1 3da76bee 3d91c13d 3ce3fabd 3d3135f6 3d0756eb 3d946001 bdae1a8e bd615fcb bc37e7f7 bc89bbe7 bd7070af bdad98e2 bd8a3fba bc60eb21 3d99a9a2 3d70063e 3cd0b5e5 bd5e5bb5 bd11a590 3c0b81ee bda7c9b1 bb843786 3c933df6 3da3a83b bcbe11ad 3db1af36 3bda823f bd7b2d73 3dab15ef 3d9cf08f bd8f08a1 bd52044a 3d2d1bd4 bd5ec3cc 3d762b3f bd2cbd79 bce0ba2f bccfdbdd 3dacb2bf bcf4da85 bc8ccb33 3d5b0faa bd77b46e b9df3820 bd8bd2dc bda713b6 bca550b7 3c201651 3d9a5e12 bdad9898 bcd05992 3cbe8be5 3d08b5ad 3d5385b2 bd918e40 bcb10482 3ca76de0 bd911b39 3d366f93 bdacb908 3d61e821 3ceb687a bccdac4c 3ceae7eb 3d9951ce 3d852a44 3d5b987e bd52c0e9 3cd011f5 3d87d82a 3c7f69ad 3d6fb1cf bd6087b1 3d7e75bf bb402587 bda26877 bcbbb30b 3d9ffe4e bcfcf3a5 bc7ad0be bd10d456 bd44d9b8 3c7ae364 3d5b9fea 3c2b3cbb bbb2a328 3ba78ae3 bd87be9e bd3ec1e3 3b90ee12 bd90b00f 3d33518f 3c5cba3a 3a73fabe bbb9dda8 3d98e369 3da533e2 3d30c623 3d33d05d bd2f8b7f 3d13fefe bd74ded1 3d1c76d6 bd8089e5 b9fd79c6 3d83333b 3d7067a5 3da00ef0 3cf6ffc9 3d0c8910 3cc22c59 3d842ed1 3d3dfb12 3cd5a738 bcfca47e bd2f36ad bcb30485 3d2cc765 bd451296 3cc5d2cf 3d9e5fd0 3d99470d bd854665 3cce62ff 3d6cba25 bda46c7b 3d67628e bd619536 bd82e2c5 bd197735 bd082cda bd15ae8f 3cd0760e 3d0c410f 3d0cb481 3d79f645 bd6510ac bdabe218 bd913804 bd46fc4e bd259989 3d1f15a9 bd82ff25 bd8459c0 3d41e21a bd665ca1 3c87cf45 bd8a067c 3d0a233a 3d623a17 bd9843a6 3cf64c23 bd3dce83 3d65c381 3da2cf59 bd98b655 3d076b83 3d748024 3da493d4 3d88b758 3c8e67aa 3ba9525a 3c953024 bd57d725 bc8dde27 bab2aad9 bd6517e9 bb806b6d bc406092 bcfd7d11 bcde64a8 bdb4482b 3dac82b6 3d32732a 3d82def5 bd9a1729 bdb13812 3d869e26 bc7e4ccd 3c61bc9c 3d358a59 3bb914a9 bb3fd81a 3d571f77 3d909cf8 bcc9c856 bd9a8c08 bd4684ec 3d815c69 3bfbd94a 3d9aff15 bcfd4aff bdab8516 3ce0dbd1 bd1a4746 bd5872aa 3d61b5c3 3bc96a3a bbf750c0 3db04a0c 3d9db143 bd93e0e9 bda66743 bd330742 bd8c8c11 bd3e4f91 3d74404d bd70e640 3da605c6 3ce1ea5a 3b7b9896 3c77b4d9 3c98d509 3ce8f9c8 bd9338d7 bac97dac 3d702b7f 3db3d7f4 bb99382f bd81506a 3d2662be bda59f8f 3da158ee 3d5e83cb 3d231138 3c45cfd9 3d8396a2 bd123fb6 bd96fc43 bd48215e 3d86b441 bd34f107 bd9056ce 3c9e9996 bd60e434 bb753074 bd65cac6 3c98fce0 bc6c697d 3c3f126c 3d27591a bd691d6d bcf6df2c bd716a48 3d96bda4 bd01a08b 3d0857d4 3ca71bce bdb2971d bd80823e bcba167d bd8ac569 3d3ff898 3d6393be b92a06aa 3c315266 3cbecff9 3cf0d367 bc8c0d13 bd0e74a2 bd5fdb9a 3b66a8b8 3d8f2405 bc3401f9 3d9bc214 3cfd45d3 bd3a480b 3d0c9fb9 3d110414 bd2120cf bc7dd591 bc16652b 3cff9a45 3d8d3fbd bc9f3f17 3d6b6c34 3d43359a bd9cd986 3d845571 bb6a9dd3 3d8bb877 3d8d0092 bdaf49fc bd96c12d bc24d800 3ce8acb5 bc667958 bdae4525 3d44ee92 bd4f05f6 3d245b65 3d7fb83e bcf43919 3d5a0943 3c4092a5 bce350a2 3bbbe2ba 3d02310c 3d395217 bd4fbf17 3d874d8c bd2b3af9 bd9bef4f bd1c81cf bda042b0 3ccabdf8 3bc2fb1c bb8d0a49 bd750645 3d3eda37 3c6d29c7 bcb5b9d0 3c804960 3cff5fef bd5982cd bcd08c8d bd24689e 3da0373a 3cb30a54 bd889cf1 3d7faecc bc65f28d 3bc7586d 3c3b5f1e bc2921d4 3dab5e97 3d1cd306 3c9be4ff bd039f65 3ca6a72d bd83cd54 bcfa57a1 3d3791e3 bdb228e4 bb11bb21 bd056f39 3d38f6a2 bd62251e 3c7aa7c6 bcd0bf21 3d97dd4d bc581606 bd84309e bce0f3bf 3d7f38f1 3d0a9c76 3c9b07b7 3d61c146 3d0bcea7 bc39ac56 bd3fbfdf bdad3a55 3d2e1b7e 3d8d2b59 bd0a5f30 bd22b8c9 3c79af23 bc05cd01 3d8afd64 bac88df6 bb2e7ab2 bda84a9b 3cdd00b2 39a10853 3caad206 3d5d57ec 3d1a04fe 3930889c bbdf26fb bd36dc83 3da37786 3d96aba4 b9bbc51e 3db4ceb9 3d9ef523 3d502389 3d3a1a67 3d0f54b6 bc7e086f 3c0fe953 3d9344a0 bc7401c5 3ce1f9d2 bce9ae1e 3c6da6a0 3d524451 3d6129d7 3d31270b 3d2c458b bcadd2d9 3da4d5a3 3d7e5e04 3dab5dea bd925c6b bd240e90 bd964f4f 3c0048bc 3d8a50cd bd777136 3cbd8019 bae7d0ff bda889d2 bb637830 bc2a07c5 bd2f97d7 bd61ef4a 3d56089f bc149c4a bc8f81ff bcc94f7d bc392963 bcc7b7d7 bd58e3e1 3d1a77a7 baab4482 bda1e0b9 bd35ccff bc93b976 bd0a1685 3caacfc5 3da95927 bd82a589 baa9fff2 3d9d4940 bd53090c bd8d48b4 3cc1211b ba86fb9a ba978d89 3d637406 bd9ae3e0 bd589887 3d7b4570 bd7e2b5b bc426c2f 3d281567 bd45b67b bd8c5fab bd58337d bd86b543 bd9b1f37 bc6d549a bda807ea bd5c33fd 3bd5bf04 3da8901a 3db27df7 3d974f11 3c205228 3d616c06 bce261be bd68c451 3d35b086 3d0ed2db 3cfeddf5 3d287819 bcb5f322 3d8529fb 3d454eae bd1d8600 3d8508fe 3d0278c0 3b4570e0 3aae0743 3d9b9693 3b3c32b8 3cfea416 3d8419ee 3b9c8d4f 3da3fd1c bd564d4f bc0d7d47 3bea35e2 3b9d0eb6 bd83940c 3dacbe33 bd4b26b8 3d82a79a bd106e0d 3d0ff3e6 bd477c3c bd1daa9e 3cbee601 3d78f550 bbe8c6a1 3d07c50a bd47b3dd 3ce4e1eb bc22b5b7 bca4f909 3d324073 bcf05a4f bd5d1aed bccd634a 3d348c17 3dad4b47 3da3a320 3d7ce578 bd5f6ce8 3da1a753 3d1362bb 3c80b2cd bd51e11c bd40591a 3cbacc7b bc006609 bccc8e1e bd8a2d49 3d9a4a7b 3ce029bc 3c3e483b 3c080f3d 3d42d0d1 bd5a539f bb675103 3d9fc6ec bc60cade bd9afdfb bd57f9d7 3d6073b8 3d3ea81a 3d79e29d bcffe73c bd2854b0 bda00902 3bc7d360 bc9c82f2 3dabc015 bd2319ba bd660ccd 3d12d1eb bd0417c2 bc0672bb 3db4953d 3d61cf92 bdb46b85 3b8baf02 3b364c84 3db1099f bd9c800a 3d5edf4f bdb1bf10 bdb1f31f bd39959f bdad2211 bbb22d56 3d922dd6 bcc8e0ac bd89473d bbf92af4 bd935528 3d759e77 3c516081 3da08b60 3d199564 3d01740a 3cf3fbc8 3da8248d bd627b90 bd5d6493 3d8b3745 3d0363c1 3da5fe7e 3ca8c3a6 3d03132b 3d5f21c6 3d6be5ec 3d46a809 bd8df4b5 3cd199f5 bd77c1cf 3c3aed8a 3d4631a9 bcf2050c 3d9d0e24 3da12be9 3cd074d7 bd82f40f 3af1cbc6 3d8cd8ef 3c820d37 3d9db2cb 3bd19551 bd27ab86 3d6c4061 3cef9dab 3d47e37e bd5852d6 bd8940dc 3d727bd2 3cfd4e6b 3d846f1a bd96ec23 bd2697b5 bb379141 bd3c09e5 3d623000 3d8fc4d0 3d9ce5eb 3c4b5b96 bda46169 bd01dbc3 3ca7fb73 bcc368e9 3d1a9d60 bcc18025 3d9594dc 3d9ccdbf 3db35c1c 3cefcd49 bd751694 bcbb6691 bd413492 3d22d6bd bbfe1c7f 3d10f540 3cd22dad bcde3c93 3c48a2b0 bc5e6d30 3c7aba4b bd6fab28 3ad679c8 3d89fac2 3d3b4fc6 bd60e12a 3d9707bf bd0a69c0 3da1cbcd bc93a3d4 3dae9e7f 3d54e759 bbef6bd7 3d73edfe 3d99c0b9 bd8d963d 3c8227ff 3d77d588 bc15f52e 3d652868 3d8d33af bd8f91ec 3d456738 bda65301 3d62ad04 bd482fc0 bce15cbb 3cb1159c bd9bdf77 bb47af66 bcfd51ab 3ce51890 bbabacfc bda481bb bcb2c514 3c61e14b 3d463bc8 bd4eb17c bd5c1c03 3d231b1c bd5951bc bd0f1926 bdb4ee6d bcae6e0f bd905747 3c62e171 3d9296da 3d20c73a bd96e968 3da2443f bda1c515 bd0ae949 3d4b1e9c 3d2bc994 3d478447 bcac500f bd9e862f bdb13cd5 3bed51ff bdaf1fa3 bd6ea743 3d6c9743 bc5ef110 3cfcb7ce bd8e6900 3c658cd1 3da31d17 3c83a36d 3c7f6f55 bd5f6abb bd82e2d7 3d530e54 bda2101d bbb16c35 bd910c4f 3bcb8f4b bdb160f6 3cefb4d3 391db4f8 bd6e108d bd06ce04 bd10ad6d bd2283ee bcb48f86 3c856816 bd504e53 3cb6bd36 bd9529d6 3daa792f bd58fdec 3d19f274 bd77d024 bd771c9f bc549191 bd4e3df3 bcca95d1 bd1d7a74 bcca80a6 bd8befa9 3db08bff 3d4c3109 bd015548 3d837398 bd214cb7 bd93e006 3ce7ec4f bcf929fb 3d882415 bcc2d854 bd9362cb 3d98a3e3 3ca2879f 3cdbc10a bc0c0d73 bd8fefd2 3ce919a5 397a50d8 bd6fb3b8 3d4e4fed bda98263 bd60b109 bca8d41d bda9ac23 bda2f691 bcd989f0 bc887e7a 3d84c98d 3d28f1fa 3da84e8d 3ce0e8e0 3c41add7 bc8b8a32 bd18bafc bda22ab8 bda55751 3d1a0bd5 bd65299f bd14846f 3d29312f bd5fcd29 3d05dafe bba04584 3c9569ae bd24ea84 3d83fe02 bd940f8d bda8fee0 3d8d3c08 bd7497bb 3dadc4db 3d20ce63 3d0bba7a bc335559 3c8831ef 3cb9af6e bd2a3e8c 3d853dce 3d5e83fe 3baa4ab9 3ccf9bea bc2fc408 bd02c55a bd8b88c2 bd0b148d bdad5a8d bce3b4cd 3d3d6a61 3dafa223 bda5a514 bd967ae7 3d95683f bcff95a6 38fac7a3 3d632b66 3da05705 3d091b74 3cb35b29 bb0bac17 3b11fa3d 3d12150b bdaa4722 bdaf3c79 3d741e08 bdb13211 3d3e4115 3d830722 3d70153c 3cdcdb21 3c20e50f 3d2732a2 3d57bc66 3b366626 bd824032 3d613e72 3c215396 3d5a16cc bd729dfe bcb4ffe9 bd6892bc 3ba5e311 3d99d447 3c89a026 3d99df88 3d85006f bd79048f 3dadc3e8 3ba0de9b 3d97908c 3c8c35ef bc77415f 3d99ac10 bd85f134 3b01eea8 bc4adae5 3b82de47 bccfbd26 3d8fb8a9 bb9762ee 3d159846 3d1be7a3 3da4ef02 3d022e2a bdb473a4 bd9611c7 bdab0570 bdb1777a bd969c0d baa8dc9e 3dab5359 bd6a503e 3d184fa8 bd253036 3d8c3ba5 3d6b7641 3d2837c3 3d9f78e7 bd8887e8 bd99b5ca bd38f6aa 3c92c123 3da007c3 3d6f0842 3ce25476 bc808b67 bd4d8f62 3db40683 bd9e7258 bd79bcd4 3d55103a 3d8d36f5 3cbe4e27 baca6540 bc2c0e7a 3c3c9e06 bd362910 3db2f717 3db4c9ef bd0c1c44 3d7b5d6c bcac1ab2 bd835027 3c789ff6 bc8a62e4 3d9688c1 3bc8b6e3 bc9ed19f bd8fcb56 3d6cd7c1 3d71a320 3c4baee5 bbfdbc6b bcf294bf 3ca7d533 3dadb740 bc6e97ed 3c0420fc bdac76d9 3cb8d9c6 bd1b1d9d bcabacf1 bd3fffc9 3da7a2f2 3d7687d8 bd1be8da bcb1966f 3cdc8b95 3d083ce7 bd2a71a9 3d1307de 3c66410a 3d500b1b bd43a43b bd69c338 3d285491 bb620604 bd1dc328 3d8e1324 bc21179e bd71c8bc bc4eb198 bd27bbf7 bcfa1200 bd9504f5 3d907f67 3d9f4720 bd98b510 3d627a48 3cd3a3fb bd12cf85 bcd45e48 3c76db31 3c999cdc 3d99af39 3dacf8fb 3ba727b7 3daa45d4 bd561dca 3a4425c6 bd958115 3d2d6de0 3c906aae bd5b4e3f bd8a1fbf bc8fc614 bd08bdda bd13890f bd9da851 bd66ab10 3d963dfb bd320fb1 3d135cda 3bc54279 bc45a9e3 3cece152 3d884ea9 3ce19f22 3c1cfcd0 3d92f00c 3befaa27 3c9f2795 3db07f43 bd830bf5 3d838217 bd2deaa5 bb94c262 bd5185bd 3d6ee2d3 bd919813 bd2064c3 3c7a36ae bd0a8ecf 3c1b9c3b 3da6381f bda01c47 bd6b3d94 bd8cc3c6 3dad1978 3cafbb59 bd82c9e3 bd9d6e49 3d86297c 3da63d86 bd5b1380 3cb951f0 bcb3c244 3d56b90e bd4a9673 3d7741bf 3db4be04 3d5b4247 bc77c5ff 3c3d65f5 3d1c366f bd50b98d bd28a9dd bdb11402 3d7fb863 bd28379c 3d9b8821 bc8e0516 bd05c378 3d38543b bc0cddc8 bd75710e 3c1b8e00 bd289413 bd82fff7 bd646dcc 3cfb4eb2 3bf3c33c bd12bbb9 3d013b46 bce2a90d bd8bb672 3cf8ac18 bcf691e0 bcd68f53 3d821dac 3d874df2 bdb12e1b 3d9b4057 3da1e25e bd82892a bdb47a36 bd8d4f4d bcc03b18 bb823832 3cc78ef0 3cacb155 3c8c47cf bd8d51aa 3dae3a72 3d9bef39 3d306324 3c9e2637 bd4a2971 3bd3a7bc bd812e77 3da66188 bda0c39c 3d9a1111 3daa6d3f bd2f446f bda186bd 3cff7185 bd8aeefd bda703c9 bd5a1d4b 3d7fee70 bd62eb3e bd10e4ca bd12d38e 3d80a818 3d0c47ca 3d4f8532 bc874508 bd561274 3d027b75 3d1211cb 3d95d498 bda99ee3 bd84d3ce 3d6d874e 3cbb4b5d 3d705b29 bcb71961 3db47fb3 3d0d7cf8 bd0c218c bd2ee6e8 3cbe3c80 bb0ea687 bd2f770f bd420df6 3cf3f91b 3d32b632 3dac66f7 bd18c6d9 bd55bcac bd643c39 bd753fd2 3db2d035 bd310db8 bd2a4e2e 3d84cdbe 3d8ff32c bda5aae3 bc1fa13f 3cd99491 3c5d77f4 bd4dd3bb bd91dff4 bd829ed2 3cf12f97 bd288d83 bda498aa 3db2778e 3d25e579 bcd80661 3c67157b bd00a8a3 bd6ea913 bda73f40 3d6bff7d bda72a17 bd8889bc 3d970ccf bd640202 bcf31bb1 39d60138 bdb2c293 bda45b95 bd92d59c bc5a4d85 bd0306fe 3d86704d 3d68e34c 3db01d65 bd9ca2b6 bd2c80b2 3d76a004 3cfb031a bd6bd4d2 3d87b839 bd38e86f 3dabe275 bd907a26 3d3ba7bb bba4a757 bd9cafa4 3d3b5401 bd04df37 3ac99b5f bcdd0f6f bca1dc3c bcb9511e 3d228862 bbe9ed23 3d775c3b 3d123e0e ba08e217 3d112503 bcf39354 bd8b7e1a bd6e7909 bd77eb68 bd9220e3 3c67b555 bc00da44 bda2c54d 3d3bdb92 3d605944 3d99c5a9 3b6d8888 bbd40c25 3d54f07c bd9cfb83 3bb30b04 3d6ce881 3d7a8d0f 3c2aa465 bbf0306a 3d015e19 3c99ecc3 bb427cfb 3d8f622f 3d9a8631 bd4dab07 3da2e8bb bcbd0735 3c9bc735 3da138fc bd2b1393 3d28fc35 bc4572f4 bd4cde71 bbb05432 3d9abd37 3d4a08e2 bd3b397f 3da3dacb 3c934e0c 3d9a81d8 3dac2e2d bcd2cd5f 3d9084c1 bc56a8c2 3c6499e1 3b3c717a 3a9f770b bbe0bc10 bda5ebc3 3bfc0088 3da61a2e 3ced7e8b bda742f9 3c872c6f bc6a92de 3cd5706b bda63d78 3c72159f bd815ed3 3c4e0e79 3d59e695 3d7d752e bc6f5262 3da0ccdd bbaa5bf6 bd505e75 3d2937f2 3b7ae255 bd8ed253 3d662ff0 3dae73be 3d463e0c bc669940 bd97deb4 3d9b150d bd40d13c 3c5a222b bda3ca1c 3d5f55ea 3c915e80 3dac53a4 3d2fb170 bdace1a3 3d8f0b4b bd924878 bd2d0884 3d3aed95 bd4509fe 3cbdde47 3c152769 3bcd2cdd bd44a379 3d7d5fec 3c5029d2 3d0669f0 3c289ea9 bd341a96 bd0813ed 3d70fe50 bd9e232d bcfa40e9 bda5b3e7 bd587072 3c429d05 bca4f454 3cf14a3d 3d89ee9f 3c984cf0 3dabeb91 b974db9a 3daea347 3c69a377 bb14ae25 3cca5f54 bd8eba4d 3d939d85 3da5a17f bd9f3341 bd57788c 3d8f112b 3cb60020 bd02e2a1 bd346231 bca5e77c bc8848cd 3da6fcfe bd5c206f 3c4ba9c4 3ccd3c06 bd3394b4 bbb49633 bc82e6c9 3d8a1dc3 3d818437 bb8bbb35 bd398797 bd4fd939 bd1a22fa 3d9d0934 3d9326d8 3c8ffa35 bda8a910 3ce73c3d bc8692e2 3d4a6b75 3d3c2c8b 3d97dc9f 3bd2e73a 3bdda705 3a27ebd9 3d7a1ec6 3d88afe3 3d2a9525 bc90c8fd bcd2364b 3da7bf87 bd3b4785 3c7917ba 3ce3a7a1 3d3b79d8 bd5b95f6 bc8bc9bf bb293420 bc041792 bd9b5c2c 3d1c387d bd8a682c bcb6d8e1 3cddf248 3d8e5665 bc7bddee bd48739a bd217119 ba5526b9 bd45ec74 3cb2e327 3d23ae90 3daad6b3 3d983a7c bc93fb61 3d19e1c2 3c3dfedf 3d2ba507 bd2490a9 3daa0427 3a1a13d4 3d654d52 3d8641c1 bc996056 3d8ab576 bcbb6302 3d341add bc60c18b bd8f2796 bcb8966c 3d097b06 3d909948 bd93b60c bd5216f0 3d3cb09e bd38f39d 3b96ed1c bd7c8d09 3bb6f732 bd2f2d22 3ca1b597 3d0ec0b4 3c8add10 bd8e5c76 3d87b8dd 3d985ecd bda24f61 3d944292 bd9c0521 3d2a2e05 bbab0ca6 bbe77a77 bd3047c4 3d8e8efd 3c6a0a4e bbc9644e bb4ce4a6 3d833409 3db35edd bd4e3f19 bda08e4d bd74ed39 bd4491d1 bd93e394 bd02a7d4 bd0c0f13 ba25a805 3cce804c 3d688e6c bd6edff9 bd81b342 bd1db240 bd85681e 3b9c0054 bd8945b7 bb8591a7 bc462d3b bd8c2d96 bd2373b2 3d1e4028 bccf947d bd9fc49c 3d934534 bce1bfe7 3c2e896a 3d91921e 3d344542 bd9250b3 3d9fe476 bcc9d6ca 3cb8b479 3d212cdd 3cfcbcf4 3d77747b bd236199 3d86877e 3d6623ac bd9ec2b1 bd06fb07 3d9c6f8a bd865b74 bda3cb54 3d5f97a4 3cff25f3 3c1ec753 3d905949 3b8e9d6d 3db081d0 bd7040fa bd9b92c0 bc9d7576 3daffae9 bd9ac561 3d155cb9 3cb9683c bd194d63 bd947421 3d17988a 3d07c59a bb17820b 3d0f0d6a 3d45fb6a bd7efdb9 bd9c7a55 bc70cf56 bc50693d bd0b0fe9 3cbe934c bd8ae95b 3dafe5fc bc91b59b bd4a3b38 bc6764e6 bd8f56a5 bd9ca310 3cd18ce6 bcc6b5f2 bd440d28 3d26f755 3d8d67df 3c226006 bd346946 3d4502f4 bcf95bad bd279707 bc8d2bf1 bcaff2fd 3daec122 bc81f34c bda2fc9a bce5f484 3d04cfe4 3d1c8cb9 bd72dd18 bd7f075e bcce05ae 3bb934d6 bd94f858 3d26ab90 bc87e569 3d529a51 3cd7cd48 bc671756 bc02b133 3cde9518 bd3c2280 bcbbb579 3d25b0f8 bda190f5 bc902694 3c96b907 bd3ab559 3d2b644e 3d335773 bc51f41d bce8a7de 3d2f391c 3ba3296a bd8bf844 3d50a818 3db23394 3d9aed44 bd47b695 3da80f63 bd16e106 bd892c2d 3d81a0fe bd7f4f23 3da662fc 3db16887 bd735446 3d6fc306 bc8a132f bcbc446b 3c5bb499 3d08bdc0 bd76687d 3db18367 3d7dacf3 bd51292f 3d2af5cf 3c808d75 3d46f6ab bb06e3ea 3cf4f4d6 3cca5d24 3da92b99 3c4c253f 3d938cca 3c6f9863 3ce939a5 bc21485d bc1d47f1 bd880d47 3dae0027 bd43e0cc 3d3d7d50 3ca70fac 3d6ac76c bdab52e5 bc0719be bdad7ca0 bd8e7ccf 3cffb0cf bcab0e26 3d71cff0 3d870b03 39630f01 bcd70268 3d7b20ab 3dac984f 3c2f0c0d bd971169 3d175c6f bc71b70c bd856034 3c9bdfde 3b077183 3aabae39 3db417bb 3d37c3e4 3d648d76 3a409705 bc8f2bbb 3d07c1ae bd8770e2 3dab0ff3 3c33fc0d bda8425a bd510efd 3d2e9468 3ca71a5e 3d32d10e bdb28291 b9e48fac 3d57b633 3d47ffa8 3b9d4aa3 bdb2f989 3d9e32ca 3d0b0f3c 3d0d6c03 3d5a3463 3d55f8ab bc23948b 3d6fcd08 3d7606a1 3cb359ca bd8b7c7c 3d7cf1f1 bd315e9b 3d9a5ff6 bd617f31 bbc79663 bd0bfb90 bd463baf bceed167 3d695530 3cef3887 bc05900f bd9162c5 bd489078 3d4d9c9c bd291e7b bd8b9540 bd4691c3 bcf21db6 bd20e3ee 3d3f9824 ba8aaae2 3daadd1c bda6a414 bd35c7b4 3cf08a2c 3d5df8e1 bd14ab1e 3d10d19c bd476f98 bd5b452f 3d45faeb bbb05d08 bd84781f bb600cca 3d9f509b 3ca550b2 bc90e776 bc832b1c bd57c438 3d4defd9 3abf7192 bd3b0809 3ba7d374 3cdfcece 3b7548ac bbecdebd bdaa2a21 bb2e9f1d bce7a369 ba94583b bd5e64e4 3d089942 bd60280c bce9f9b0 bd2671a8 bd364238 3aa50f49 bd2118e0 bd1cb603 3c18a138 3d182976 bd2c43be 3d410020 3cd6d68b 3d8bc00e 3c0c199b 3d948837 bda31ecc 3cd2f51a bd9b8e5a 3d19107a bd0ae48e bc94730e 3d99524f 3da977ef bcb59254 bd506828 3d45d65b bd205eaf bd2a4054 bd882166 3db3e327 3babc780 3c8d926d bd5284f3 3d28c535 bdaba603 bcd232fb bc5d4f40 3d5511ad bc06ed5f 3c4ff847 3d8a6a87 3cfef233 3d931014 bcf6c18f 3d5fca8e bc607741 bbd1d4f5 3c9abaa4 3dae8610 39bbb6fa bc1aa940 bd0db379 bd64b011 3d4ff634 bc963bf5 bcf3e78a 3c9d2f04 3c773674 bc6b1417 3d974888 3d5d8668 3cb069ac bd2b81ac bd15fb8b 3d9d67f6 3c957c5a bda455ea bc42f114 3ca2e638 3cc3784a 3d99952e 3b39cd7b bc2e84d1 3d7ffded bc55e3f6 3ce949cc bd8796b7 bcffad89 bd8889a7 3c1000e1 bd8deb50 3d89e56c bd20850f bd78200b 3bae4c78 bd2a9cfb bd58be48 3d848dce 3ce8fbe2 3c6d4a2c 3d3206cf bcf1f452 3c167f77 3daeace8 bd1c9e56 3d11e0ac 3d983662 bc4a6364 3d94f302 bcbe384d bc908f13 3cb89567 bc5fe767 bcbe237c bc8d29dd 3c942e2e bd47fa33 bd8a3dc3 bd8ddd8e 3db21284 3b1b64f1 3d22110f bdad612e bc53e968 bd8d8c14 bbfa1d23 3da140df 3d835fc1 bd02b8e3 bd44ab2f bd941e0c bd328924 3cf7a24f bd5660c4 3d470023 bd020b84 3da7b5c4 bcaf2d6b bc80dcbe 3d5570a9 3d7dcbb6 3d82b1df 3d8321bc bdab286b 3d47a21c bd3d59d1 3d806ddd 3d8cd890 bbf18225 3cf9ab5c 3c9930c8 3d1f11f0 3d72d04f 3cd19261 bcf28fc6 3b63d4ff 3c273ec9 bd959310 3cedff37 bd6be4b2 3d659955 3da23785 3c4518aa 3d979243 3af9df00 3d63aad8 3d349d48 bd96d9ba bd912f3f bcadd72e 3d101a80 bc86bcb1 bc92d73b 3d5aeccf 3da236d5 3d194a73 3cd69d7d 3d3801cc 3c451b5c bda306bd bdb39453 bda89ead bd9f2fd4 3d891a24 bbcc9328 bd7af449 3c9dc021 39f37ce0 bd5939fb bdad371c 3ca79db1 3ab13360 bd007b20 bd49db2d bcbf9876 3d9d5d3e bd90dfed bd0f7701 bce66443 3da5eb95 3bb07ee3 3d76d099 bc0fb5ed bc628d6d 3d4dc28f bd0b4bea 3d574f92 3d9e5a7c 3d136579 3d5f7290 bd8c48cc 3da701f8 bd5a4edc 3d4badca 3ce2074c 3bd3ecf2 3cbb8bcc bdb19a3a 3dace22b bbbaacc0 3da1ad1a 3b0dd183 bd139385 3d629a55 badca2a1 bd65ebe3 3c35f656 bdb42e2d bd5f8eab bd931a3a 3b94c3e3 bd474fdd bafcb916 bd89a5d1 bd9bf56d bc2743e9 3c2a9d0f 3d824276 bcf79458 3dac33ee bd81721e 3cfaab66 bda2da83 3da3720c bd08a4b2 3d4916b6 3b8b84c2 bd119670 bcac9e92 bd074031 3d5d61de 3d843562 3dac47a8 bcac374a bcda48d6 bd35baff bbc629c9 3caf1efd bbee63e9 bd69ef67 3bd5a343 bb2c1a69 bd90cb09 bcc4f0d8 bb6d0c9c bdafcf71 3c49636b 3cc6d40b bc07bf34 bc48196c 3b0ad43f 3cb88f6a bd2d762c bc06c7e5 3d4fe456 bcd451e2 b90245fc bda76dda bd89ca25 bc0b59ab bcfa2fb3 3db000ab bc9aeef2 bd970e90 3d9a5b59 bd6a046b 3d95d41a bc130b3a 3c8e2dca bdb18221 3da442b3 ba825097 bd358bd7 bd812eaf 3c83b8f3 bdaae8ac 3d8634ab 3d4669db 3d9ce652 3da12edf bd554d15 bcc4121b 3d5dc5b9 3d67ac23 3db12edc bd159a81 3c502e54 bb44aa2e 3d5080b8 bd315f53 3da3e0f1 bcd65c04 3d33d545 3d8895e2 bdb4cb9b 3c86e811 bd783f4a 3d2e4bcf 3d9b045b bce622be bd75534d bd380262 3d8cfdf9 bc6a9e72 bd86bd90 3d9429d1 3d6d5b03 bc1cc13d 3c26b0bf 3c31cf3f 3daef5bf 3d51fab6 3c82795c 3b012fbd 3ce92d23 bd85bad5 3d44498c 3d181b96 3c27a6d1 3d522364 bc8ba324 bda5747e bd96a8a0 3daaaa6e bceed681 bd842601 3db122b8 bd7fed9c 3d931b68 3da13c08 bc37e13f 3d52d03f 3d8a8c34 bdaa51fb bd41c878 3c3c5b77 3ce301c5 bd772335 bd950ecc 3dad7b6a bd2aa169 bdb09219 3d1f0a23 bd3a2a1a bcfcb3e5 bcfdf40a 3da7189f 3d09c62d 3db15fe8 bcffe63d 3d83359c bd92e42d 3d5b3e31 3b6d1327 3b585199 3d9a2ce0 3bddd5de bd19f94d bd47ae3b 3c6aa562 bcf23ba7 3d370c16 bd972f39 bd734a27 3d9ddfe7 bd0c266c bdb2681d 3d81827b bcc47854 3a08ea93 3d605016 3cf1b68f bdadacad 3c81e6b3 3daf643a bba758f3 3d83a31d 3d9e95f3 3d056be0 bda750a4 3d9b4aab 3d8ef8c6 3cd90f1a bbee78dc bd795e4e 3c9fa052 bcfb8a1d 3da2374c bdb4756b 3c9c1e4b baf47cd9 39732806 bc3403df 3d19398b bd9b6e62 3c9bd642 bd71131c 3ce65da8 bbf5e645 3c37c568 3d4c2785 bd0ff418 bd91af20 bd28e3a0 3d938dca bd935988 3d659635 bcffab81 3b985277 3d1448d7 bcff4860 bd7962ce 3cf50d41 3d5aa369 3d06e5fd bb49c4bc 3c1a696f 3d180136 3ce6bff7 bd337257 3d827c55 bc41d6b8 bd0ed3b5 bcda74e0 3c405241 bd3b538d bd84115b 3d49e2cc 3d93b897 bdb3ea44 3d900d5d bd54c13b 3cab0780 3da78719 bd626665 bd14da12 3cd0b305 bd627593 bd0ce81a bd97bf31 3c2901f6 3d620a15 3cc1ed20 bc80dd45 3dab983d 3d8d4a2a bd44f470 3d4f198d bca61eaf 3ce98372 3c1d5506 3d1e7550 bd3829ae bd2e7f3a bd4e795c bd6a69b6 bd1c1c35 3cadce57 3cce1ce2 3c893461 3d86b5be 3d89aaa2 3d921489 3d615472 ba35ac89 3cb832c3 bd364e8f 3ac22eab 3bdb9522 bd9400a6 3d9427e9 bca07972 3d8a87dd 3d2bf645 bd44a579 3cd43999 bd1f866c bd32311b 3ce5d945 3d310c0d bd4eca03 bd3709a5 3d88b50c bd0517ee bd72fef7 bd9948e8 3d5144f6 3d826753 3db37267 bd87e926 3c2da882 3c8cd5b8 3c0f457f 3c922e41 bda73658 bdae04d3 bd161b96 3c052b41 3bdb6523 bc4f00d6 bdb4c9a4 3d621248 bd72b499 3cabea53 bd84454e 3d827e20 3d91b38d bd3d317d 3d9b5007 bcda2975 bdafe767 bc6a4fde bd88a280 3c97050a 3c8bec32 bd1fb6a3 bcd0c8b8 3cd56e0d bd463702 3d14d8c8 bd860cc4 3d5395fb bd2c423a bd971823 3c8aeb24 3c18a313 bd85af9c 3d9f22a0 bd0299ad 3d6e9250 bcbaff4e 3d721be6 bd2e8701 bd7ba425 bd93c324 bd38d062 bd4580ee 3d252a66 bd6ef955 bc756d93 bd038941 bd08b04e bc316375 3d47c3d4 bd154df3 bd97ae77 3d767934 bd52605e 3d79d662 bc1367ae bc2b338a 3da9c849 3c8258d5 bda3c2d5 bdad84c5 bda9540e bd8595c4 3d02dd56 3d165ece 3d3b9a18 bda69138 3d598dc6 3da07968 3d0e1b10 bd0ebb7a bd9cf950 3db2f7d3 3c0e1324 3c9c22e4 3b5b3075 3d7311cb bdb1ea1e 3d370668 bd760d64 3da7e6e8 bd8d462e bc9faed1 3cef4569 3cf0c165 3cf232ec 3b69c29f 3cc6c7c2 bd73ac41 bbab1edb 3cc9e34c 3d9134ec bd935de1 bd0ee8ee bd72b017 bd3b15e9 bd539431 bc5d035e 3d02d0c4 bc8cd250 3c9118fb bcab3138 bdae310f 3c382d37 3b7da2f7 bd75dcdb bdae4de1 3cb2c6bc bcc73f0f 3c9103d0 bc9e453d bcb24a43 bd113344 3dadf1fe bda138b2 bcb3c594 bcc559bd bcfeda83 3d378f5b 3da0f2cc 3d954b05 bd302c03 bd1df8cc 3d0fb9c8 3d425567 bd97c601 bd24250c bd2aa785 bc0cf4a1 bcfe8838 bd8bedfb bc732138 bca76569 3bde5525 bd09fe12 bd28fe5c 3da19f7f bcd0a81b 3d57a37c bd6ccd7d bd1cf1da 3d13520f 3c8ef74b bd888099 3d8bf0f4 bcc51e8b b7d098b4 bc452d42 3d8a406e 3caf4817 3d28af9e bc9d7e7a 3db47b9f 3d0ce3b1 3d32b525 bc8c7b68 bd95da10 3d82cfc9 bda13407 bdb2f510 3c098e5c bc8bf618 bd826b36 3d8b5725 3c120834 bd27c952 3d68d013 3d002bc4 bd8d5676 bc6f5ea0 bd9bf7ce bd49c0c2 3c82885d 3cc899b8 bd0c063c bcfeebae bd9a94fd bd5fd1c4 bbb810cd 3b50229e 3d4bb1d8 3d708300 3d9df95c 3c8ccddf bd85f097 bcccbb4e bd9f4b72 bbdeb9e8 3d3d95c7 3c25b40b 3d2552e4 3d98d5b4 3d3c5aed bc968f71 3da4ebcc 3d48b29c bd8657ef 3c501b80 3d2e9e8d 3ce83cd4 3dae438b bd6d962a 3c4becad 3daf7f3d bd630ceb bd42fd30 3d75502f 3d366371 3d8e7474 bc7b7e40 3d569a92 bd9b9422 bd50bd40 3c682ab6 bd807597 bac7923b bd071525 3db2f2bc bcd852bf 3cfbfc5b 3c8b053c 3dae6a84 3a719444 3d4daef9 bd75aed1 bd829595 3d3b69a9 3d60ed43 bd3757d9 3d91039c 3ceec436 bd4d2db7 3d2e9841 3db3fd83 bcb99a04 3d8c994f bcdf8134 bda9e730 bd8f089b bcf37984 3dab3676 3d18244b 3d9c14e3 3d377b6f baa4b8aa bd6f38b2 bda4849e bcf27531 bd1fe0f1 3da2eb51 bcaee4b8 bc2f06c0 3c835622 3d949968 bc1502d2 3d3ddb04 bd79c5fc bdac7678 bc5e2e85 3d25df1c 3d62c9cf 3d040149 3d893293 bd54df70 3ca2d3bf 3d969c19 bd60153b 3d7a8dc7 bd92a1ca 3d6b7b48 3d3cbf39 3d9e21e0 bc1c9867 bb9f4191 bd59834f 3da5f813 bb488821 bcbc2fd3 3bbd330c 3d3c4247 bd37a34c bd9025a7 bcb04772 3cdaa4f5 3c11b278 bcc09e06 3c3c5553 bbeb768e 3d8c43c0 bd54bcab 3dae90e3 3a5c0af4 3d7e4ad0 3d11c2ee bd882662 3d81d851 bcfd7b90 bd738346 3d1e712b 3c88ed1e bd36179b bd2a199d 3d9e4369 bdb4f9f9 3c4f19a1 3aea0e76 bd90872b 3d1d5f7c bda292f2 bb2ca8e4 bc98d0f2 3d4b9871 bc9c4eff bda77941 bbdc74ee 3d8e8673 bd508931 3d988d2e 3d498625 bc253f81 bb33a71c 3d95ec13 3abb4905 3c44768f 3bede1fb 3bda0b46 bd9d1ec9 bd5116e3 3da71116 3d57ac30 3b96c172 3dab16b9 bd0d5d35 3d1ae035 bd3d810f 3d8bf14f 3d479718 3cf9910b bbad326c 3d76a15a 3d44e77a 3d3b4264 bd06c9d9 3b219318 bcacc70e bd5368ed 3cafb858 3d9bbb3e 3d551d3e bcca1fb0 3d4ef5f1 bbd6cf84 3dab5155 bdb31d4b 3cc2fed8 bd9fdb50 3d2c8474 3d820a43 3d8ac7d8 bced85ec 3bff34dd 3cbd8d3f bcf83dc9 3da99727 3d77eaec 3d3333a9 bd137499 3d7d28e9 bd386c67 bd936a04 bce2c2ba bc054fa0 3d646793 3d1552c1 3d027eeb bcdb7ba7 3d8c84aa 3dacc958 bd9bf7b5 3da2dff3 3c8df900 3cfc7179 3d0d7c0b 3d52f761 3ab1e317 bcba7369 bcf996e6 bd685ece bb5ef630 bd4b3bb1 3d580d35 bd8199d8 3d9d5b4e bd9fda53 3d96bd94 3c240986 bdaaa2f9 3cd91d5b bd6915db bd8f6541 3b98754a bcce031e 3cb2b14d 3d8f28b0 bda603ad 3db40bfa bd48c10a bc8f15b9 3d6aad87 bd173944 bd367837 bca96785 3d0d8243 bb7ada06 3da4e85d 3d1c4fa6 bda52e37 bd824f36 3be437d0 bb5dec7e bcdc0a78 3cee203a 3d17f01f bd52247f bc9072e1 3d019f79 3d0331d1 bc01eed5 3d36047e 3d016065 bda9e575 bdacf429 3b41e13d 3cf7dd33 bd810ab2 bd3a70ec bdacfa51 3c89245c 3d8333c8 3da06175 bd936399 3d8bc6d6 bd11015c bd9f6d27 3d68578c 3d981bce bb94aa41 bccffcbe 3c34ed38 3d29dee7 3d276ce4 bd36564e 3b410719 3cc74ed6 3c51c9c7 3c968db2 3ca4c2f7 3cbff22d 3d43f85a bd37b1fe 3d95c787 bcb9ff71 bd93852a 3d705200 bd6642e8 bdb2e7f8 bbf5c591 3dae5214 bd892463 3c9cf804 bd8c83d6 3d140c6d 3d7539f5 bc6bad22 bda11f58 bd87455a bd5e6ca0 bd073760 bd2d3943 3d1f505f 3ca33cd7 bd90e263 3c383236 bda7d04a 3d81a5c5 bbc887f4 3da947b5 3d8d63bb bd4f97c2 3d8c196b bd9aaa9f bda7b698 3d72849d bd39c740 bd849880 bd6b54ef bd50ba0c bd9ffb51 3c39f78e bd9b36b4 bcca45b2 3d64172a bd8b93a8 3d762a16 3db32ea7 bc5c85f2 bc2e7c3e bdac1dcc 3da80040 3d910888 bc1b3f33 3d5792b0 bd9f6e2b bd750f57 3daa1826 bdb3bcad bc18c2f0 bd411118 bdaae533 3c6de07a bd1dc741 3c8eafbe bd0732c1 3cf075f4 3c3f631e bdb3d26f 3d66c3ad 3d5fd488 bd8a96b6 3cd7d1d5 bd2b76c5 3d78aec7 bd2e1a58 3d631a68 bd65a0e7 bd42fb02 3d135bea 3cc54a7e bd256f22 3d851a53 3c89a30b 3d2d0d9c bd56adf6 3caf3412 3caf012e 3d52b3d4 3da7089a 3d658841 3db1ed7a bd1ea4e3 bd951ff4 3c802fcf bacf7560 bc578d27 bd91c0a2 bb49df9b 3b2a4a31 3d5de7be 3d2db447 3c74c795 3d7eb6fd bc1b45a7 3d919e07 bda4b8f8 bb2a11fa bd222218 3d684bab bcca5f37 bd74c6bb bc743558 38553154 3d73a8e2 3d477565 bda3b6b6 bd18fc75 bd2f9784 bb9898bb 3d20dc93 bc52b2db 3da4c9a4 3c1f9074 3d486367 bcae10fc 3d51e199 3d0e030e 3b56577c bb41227f 3d20678f 3c4c8246 bd6442f3 bce0a482 bd6d7bac 3caceec3 3d87ced6 bd4fd9b2 3cf2cdfa bd8bc01e 3d1522bd bda9bce0 bd0e33f2 ba84a9fc bc75abb6 3d4bbe9b bd105d83 3cf00082 3d1f02c1 3cc5e54e bdaf6b68 bd48bf76 bcb19ce9 bac1b83a 3d0b0641 3d7eb6d3 3c9572c9 bd77f609 bdb3e2a2 3da22224 399ec315 bda0defe bcc71a77 3d0ad60c bb361d24 3d6e9d30 bc77f1e2 3c35d55e 3da9a86c bda0c1ad 3c1006c2 bd9359a5 bd73f3a9 bda980ed 3d31c1d6 bc8e175d 3d0371e3 3c23edc5 3cec3617 bd98131b bd0063ea bcc64bb4 bd837a26 3d1a15f1 3d4d8015 bd02f1bc bd7770b1 bd3c762c bda8c368 bd6ba6c8 bcc77428 3c6edc2a bd2dc1ae bd94468c 3d36e1fb 3d90b31d 3b894d65 bc4df581 bd202467 3cec1d2a 3be73f82 bd25888e 3d7863bf 3d55460e 3d85b994 3d79c18b bd56d3b7 3da5bb02 bae53bda bda68695 3d657d5c bd68d9dd bd2a0863 3c8d1156 3d807f55 3c680f44 bd9ac716 bd76832e 3d064760 bcc67ee7 3cc5bee7 3d9dd6fb bd6beeaf bd9c519c bcf2dbb3 bbe05479 bcf3b88f 3db0a714 bd5877ef 3d51bbb9 3d0c5d8b 3da67dfe bdae3ac1 3d84343e bce6ac74 bcff2938 3b41364c 3d7575a4 3d39b66c bd520031 3cad0d9c bb6c4bbf 3cee4bc2 b88790cd bcb39f33 3d278554 3d9a81ee 3d40bf72 bcee65b3 3a9e1acb 3c89d315 bd52730d 3d998889 3d3f2520 3d1ce30c 3da7a5fc bc3e9110 3d889c41 bc29cf77 3d91e983 bd59bdae bdb1065d 3d3ae363 3cf9554a bdabbb4d 3d1d3d23 bc9ab5cd 3d135634 3da463ec 3d921c08 3b4fba51 3d324dd5 bda7cc81 3bd60138 3cea66fb 3d3916f8 3d02ba2c 3d72cc93 3bca0394 3cebb445 bdb1a2ca bd2d9382 3d254f42 3cfa48a0 3d1a910b 3d12462a bd98f3ec 3cef8ca7 bcd8d0b3 bc6a7ca3 bbe49dfd 3d98bf22 3da22144 3d339ae3 bd0d1805 3cd6ba1b 3cf9124b 3d8aa790 3be4412f bdaa9dc6 3d117622 bd901861 3c3c084b 3d6c7a3d 3d15787a 3dab5027 3dae8536 bda59066 3b0ea51d 3cd10b03 bc8f1f7d bd3abf72 3dae569d bd594803 bda76dca bda5629d bd45238f 3c184cda 3d74586c bbb49742 bd8e2784 3d86485f bbd62bd2 bd02aa40 bb2b2f79 3d1d8ef9 bc35000b 3d0e8d16 3d1758c7 bd6e9489 3da2c647 3d6fe8ee bb89d583 3d69413c bcc7f365 bc9ac15c 3d174481 bd864721 bcaf4c0c bd70e372 bbf862ee bd0eff21 bcef73d6 bc9e3e97 3d8b5506 3cb21825 bdaed50d bd7aae23 bbe19525 3cef4268 3d614ddc 3da57df3 bd743d05 3dab0bae 3d7327db bd900ab2 bd94ebcb bd8d4e12 3ae165ae bc9cfdc9 bdb0de27 bccda70f 3d62c84b bbcef6e4 bd90757e bd6dd746 3d072914 3ce29770 bd1d2296 bd943acf 3d19c689 bd415c97 bd9e9026 3da5fc8e 3d118f4d bc75ae74 3c548ffa 3d93079a bda0de9a bc900cae bd0032ed bdafd5fc 3d99842a bdab1adf bd11a9b8 3d37cba6 3da3d32c bcbf3cc8 3d95f0a1 baec9ac4 bda74a72 bda8bb5b bd283892 ba0d73a5 3d92d18e bd1aa505 bc60713e 3d777fa9 bcb28296 3d1cda2c bbf59976 bd0d178b bd6a91c0 3db1aeed bd427473 3c15310c 3cfb7366 3c865103 bbea029e bc8bf174 bd186038 3cfa39bb bcd32743 3d06f008 3d3a7935 3d005812 bd2a6510 bd78f065 bcc5ca31 3ce787ca 3c1c1109 3db0f304 3d748fe8 bd296180 3d820bd7 bd4e651b bcf46759 3d862bd0 bd850fb7 bcc93b9f bd94c5ff 3d280225 3d81b79b 3d9f21c2 bcfc65ea bd85d9fb 3d3f0bfb bd6a2294 bcf14a5a bd94ef02 3d8d3477 bc118410 3c40a1fb 3ba92ad8 3c4f15d4 bd1e9ded 3db15dde bda42633 bc3d7c7f bd52ced7 bd76681a 3d42821b 3d84d9fc 3d2b51b6 3cd8deaa 3d717da9 3d4216cd bcd2a64e bd192b26 3cd68b4e 3d633cb9 3d71b16c 39c15db7 3db4f5b9 bd81f219 3d16359b 3d9b099f 3bb4e017 3d5aaa7e 3d9f12f7 bd8c2fdf 3d6b5b30 3d27d3be 3d3e4099 3d35b601 3d589090 3ce7645e 3d48ebda bda42dd4 bdb4572f 3d405f6a 3db44265 bcd81628 3d8b2a3b bc1db739 3d359dd4 bbeb7b6a 3d300fb4 bd1d32d4 bd94d224 3d415990 bd17f0ac 3d870d55 3c43ab50 bd13933c 3dae2fdb 3daceb2d bd3bb2d5 3d210325 3ccfb5b3 bd5e5b47 3c37e4ea bd9e9570 3bdd1325 bd9cf74f 3d9acc21 3d35b8e0 3d8f6514 3c8c6566 bd1a22d5 3d38f9b1 3d1f72f4 3d46a502 bc5dd600 3db442c7 bd66ecae bda173b5 3cc1a86d 3da39314 3c5f6343 bccfe859 bd9a6507 3d73175a bdb206bd bd153de8 3d48ef9c bd4cbdbf bd6cf81b bd3689c2 3d2ce920 bd1a5589 bca4f750 bcae2255 3d448601 3d9f01c9 3bb4a6d1 39ca9774 bc1426c7 3d2c741d 3d829d1a 3cab8804 3d5fb4ca bce39b14 bb8ebd11 bd96bf31 3d1d74b3 bd3a5821 bc5e51d5 bdb11aaa 3bf7aee2 3ce3eed4 3d5aef4b bc9f5aef 3b8bbdf2 3daa2fbd 3a926bbb 3d825835 3db15563 3d9a087e 3d243ca8 3d673cd9 3da53dd0 bc0e3cba 3d913cdf bd14f248 bce55df2 3d2292c8 bd5a2389 bd0ac22c 3b9bb769 3beea979 3b929ea4 bc420536 3ce67e3f 3daee44f bcf29b82 3d472bdb 3cb15567 3d65078f 3d93a7c7 bc0a7f0a bc96802c bd0eca8f bcc8a404 bd19df26 bcb2cbf9 3d539913 3cd955db bd2ace44 3d4cc450 3c01de21 3b65420a 3d0bcb3d bd4acc5a bc193b80 3d8a1324 3d6a8ed2 3d4c14dc bc4b3567 3c12199e 3d6b029f 3c7c24c6 3d475e01 3d377090 3d1ec8e5 3d2a50db bd728bcc bd9f1947 bdb35efa 3d8ddbb6 bd4961df bd8e542b 3c392503 bc8b70ea 3ce5e34e bcbd1877 3d8c40ef bdaba0de bdb2639b 3d9bea21 bd1d1a47 3cb17167 3d03efa9 3c63499b bd64ae85 3c1d0951 bd6d0899 3d98b2db 3c5f925f 3d82c0d1 3d7fbffa 3d1a1be5 3cffbf37 3d4c2b93 bd66cfad 3d88975d bc9ba742 3d8be66c bbc1e904 3d27c54d 3d85abc5 3c8991d4 bc8c6407 3d13aad3 bdb461cc bc149a4d bc936a6c bd8aa187 bb891818 3ca865d3 bdaff511 3d94436a 3d4d0b44 3db2984f bd1b9d5e bd804d7e 3d5cfb23 3daa2660 bd5303f7 bd54658a bbd5ab92 3d99ec39 bc5fefc1 bdad615b bd15c86f bd4f2ff5 3d887a66 bd846727 3d87208d 3d074135 bc014bef bcb5c18c 3d47fd5f bd4cffc3 bd0bdad9 3d9fb99d bd0bfd49 3c130866 3d93066d bd8df876 3c6f7b43 3b20a993 bd3b0398 3d92257c 3d7956ed bbbdc609 bc1bc21b 3d618087 bcef9085 3d4cf6ba bd7182b0 bd94b282 3d71b8f2 3d76f76f bd8cb857 bca02760 3d19cb02 3d41658d 3d57b81c 3d7dbbc4 bd25b1fd 3c9a4aa7 3d9b7eb5 bd948e47 3d6ad621 3cb72ee1 3b7d3a7d 3db35368 bd16605f bcc75e4e bd868556 3d986935 bd845194 3da1e323 bd853449 3d4f8746 bd34c8a8 3d9f1464 bd726617 bd6a6f91 bcd0ea54 bd9188ca 3dac0fff 3d05db09 bd44a368 bd88dbd5 bcef5470 3c598333 bd23045c 3d52615a bd31beaa 3cd7c04f 3d8254fb bd80573c bd8d5599 bdad2194 3c88414a 3d8e1e62 bd66f949 bc430aee 3d62a32f 3d8c7526 3d4687cc 3ce7e49e 3c7b5422 3bd4a7f9 3d9e08ec 3b4ec35c 3d0cb320 bbd3603b 3d8f5d7b bdb365fa bce64838 bdad7ac6 3caa0ae3 bca5ab50 bd94c4a8 bd8aa6a1 3cce885d 3d87ec92 3d9a3442 3d7875c4 bd92244e 3d967ac7 3dac8d54 3b8c4cdf bdadc9bd bd82e0ee bda0493d 3c694341 3d94de0e 3d683ca4 bd3012b3 bd1d9893 3cab3acf bd424b3d bc0a80f1 3cd18190 bd0492f0 3d01b6e5 bc4e2e6d 3da69439 bd94ba8a 3d98cb31 3d74273c bda21aa3 3caa29ff bc396715 3d2a134b 3d82d989 bd42897f bd4de93b bd8398d5 3d8365ad bd979e92 bd6165b4 3da3139e 3d3a91d9 3d78813a 3d9bf622 bd9def81 bcb42559 bbf42f82 3da770b9 bccc9ca3 bbc1ec60 3d4d5796 3d3c9735 bd6c4951 bd9d3d2f bd08b993 3ce71170 3dac4287 3d233e57 3d517c5f 3cded9f9 bcb80b9b bc6efe75 3d9842ae 3c9a3b4c 3c90ad80 3d53dd6c 3d827c7a 3cce9eb4 bc1224c1 bd202163 bd5bfcca bd34fc00 3d935287 3d901e61 bd3f6a14 3d98b4c7 bcbb11a0 bcb6f830 3ce5d8f1 bd9324a6 bd563180 bc53d8e1 bce39062 3d36ca78 bcab3e3c bd9a4149 bd9d9a56 3daecb1d 3d2342bd bdb43008 bd948261 bd64a504 3da3ee75 3d44fd30 3cec5b80 3d4cf59c 3c754dd8 3d811153 bd91bfb4 3d8e3f5c 3d257c9a 3cf05814 3d678279 bc8d7684 bd2bfd0b bcc4fa31 bd87c97e 3a1dea00 3d3a36a7 3c86ca4d bb48380c 3d08f7c2 bda511b3 bd6e078e bd9e03c8 3db3f743 bda4894d 3d2bfaf7 3d821def bccd4778 bc643693 3d94b3f4 bd93f63b bdb48da4 bc544fa1 bc396d0d bd142f1b 3be1f08a 3d40a26f 3d41b3d7 3cd2ebc1 3d7faf67 bd28c6d8 3bc177b4 3cf2bfe1 3ce8dc98 bd01e3bd 3d92ffcd bd8a5540 bd2bc2e2 bdada4ce 3c2d45f5 bd8ca47c 3d80d16d bd726a52 3cbee86a 3da0bc0a 3da4b43f 3cf06c4c 3d043898 3c80c29f 3d5095bb bbc938d1 bd87b752 3d9fdfba bd884c3d 3db00d4d 3b9fb4a6 3d261307 3b20a308 3d1a2434 3d76b32d bdaad56c 3d4dfb5f bcf4c192 bda2f454 bd9123c2 3c01daae 3d8ce304 bdab46d3 3cd1fb51 3d121ef7 bda6cdd7 3ca021b8 bd31aa5b 3c623fbc bd09aff0 3d932b27 bda62edc 3d3d3f11 bd082d48 3ccba811 3c11068d bda8952e bd2c13c5 3b744886 3b31ab3b bd3727c4 3d4effbe bd2d8974 bd4017fc 3d1e584c bc1b6c04 3ce23855 3d60ca56 bd0e6e1d 3ccdc747 3d905bcc 3c662379 3d9d2739 3d1d4361 3d84e86a 3d8cf88b 3d59be44 3cc48744 3d359a0a 3d5da1c6 3bc3cf10 3c769311 bd0ad782 bb44cef3 3d3976f0 bbe2a808 bce8b89e 3cb31906 bb3bac04 3bf50baf bc9b63f3 ba6585be bcae8ff4 3d98392c bd757883 bd8a0548 bc8cd8ae 3bd7334f 3d6e1b11 3cc86164 babe3c91 bdab49aa bd2af8ed 3cbca81f bce7de30 bd5daecc 3cb6941c 3d812fd2 3c32240e 3d87931c 3d9c25c7 3b0f971f 3db4ffb1 3cef25a8 3ceed85d 3d033f73 bda7988c 3d138085 3d980510 3c870eb1 3bae32a9 bc77651f bd8e2f0d 3c37b2c1 3d11df97 3d0a16e6 3da46b73 bd589c49 3d9f614f bca22435 bcd33168 bd3719f1 bd7217ad 3c9b7fae bc9a5f50 3c850c84 bdb0320f bceaaeb5 3d39fccb bd300121 3da73f0a bd705641 bd50730a 3d70c7de 3d9be72d 3d204cb0 3d40851f bd80520b 3c88c793 bc0736c7 bd2a542b 3c99d07a 3d12d9d1 bd7a7326 bc319f9b 3cbdae5f 3daf3cb4 bd91cbcf 3d9fc90b bc0c2dcd 3ca116f4 bd9c2e83 bd9f3aec bd395dd6 bbd55b3a 3c89b146 3da1e3f7 bc6f9fcf 3d799042 bd97d91e 3d4ab316 bd9c77bd bdabcfd8 3d59462e bd6c5351 bd4819d2 bd55cd64 bcc7ed68 3d30cad8 3d3539d1 bd88425e 3be97a69 bd95b19d bd99b234 bcb8f32f bbf8ae97 3d34a21c 3d1d29d3 3cb49cbd 3d8a1c25 bc25dd19 bc007d0f 3daef025 3bc655cd 3d7687d5 bd346a75 3d683fab 3d58515b 3d8e607d bd56ad7d bdacaeb1 3c8057ea bc38130e 3dab529b bcf1f4e5 bd1ea2bc 3c6204e9 bd909bad bd94c01d 3d691cd1 3ca56c40 3c8e9b97 bc5cd743 3d4a070c bd088cb8 3cdbb89f 3cf198cc 3cb80c94 bd774482 bda7a7b1 bd2c9e02 bd9a8708 bd9ce09b bcfa0113 bc19441e 3c55c211 bd3ad2a8 bd68f165 bcbf524e 3d5332c4 3d3ddfcd 3da88194 3d27322e 3d81a08f 3abb4850 bd5f2092 3cdec5f3 3d9d8277 bcfdc41c bb348770 bda118fc 3d8bb4e8 bd93074d bd21805b 3a572103 bd2ccead 39c16bdc bd4515ed 3daf718b bd524333 3c6984ed bdad05b3 3c4cfdd7 3d7039ea bd62b279 bc8f6a60 bb5c1946 bb528863 3c8c7c01 3d9223f5 bcd4fce4 3cf011be bd94bcd4 bd56c11c bd8276ae 3ca72d8c 3c7792dd 3db0ea58 3cff4439 bc047a63 bd105b83 3c0c8e30 bd2977d4 3c646a04 bca34838 bd69aa78 3ba211c1 3d0bbffb bc8560dc 3ad43dbb bdb37f73 bcf72998 bdb42c7c 3db3ca14 3d9a6d5a bd9ce65b bd8b3bf7 bd9982bf 3d508591 3c9794c3 bda73e81 bce049a5 3d87f9d0 ba67a2ae bda38d92 3cfb36d5 3db3f736 3da5117e 3bfd26c7 bcc706de 3c174267 3d858c71 3d1c4c74 bd962631 3d3ebfa8 3d6bb202 bd99ce7f bd7eac70 3d7791a9 3d3fdb2f bd9e27e2 3cc79e90 3d5aa05d 3c92a60b 3d411cb5 3ce9d18a 3cd007d6 3d530969 bcf6af00 39fdb696 bcaf51f8 bc834b26 3d0b979e bd0c3bcd bb987f30 3d9a3750 3ceddbcb 3db166b7 bb862fb0 bd03039f 3d9f36c4 bd638b0c 3d28ef39 3d9912fc bd4cad30 bc91e556 3da36eb9 bbe9ee33 bd9ecd08 bd48c3e7 bdaa6fee bc8ce49c 3d4841ba bc41729f bc8724b9 3becaaf1 bbe9aa24 bc80a0ec bce56806 3c32bbc6 bbb00cc7 bc4fa033 bcb73ea2 3cbca2ff bd0a0d79 bba6c90d bc5dad35 3d7f08bd 3d17c2e3 3d17b35a ba0e0e80 bd656069 3bc1e4dd bd8e321f 3afd336b 3db1a1fd bc503303 3dace7b8 bd6176a9 3d8e3b31 3d07ee04 bd1db982 bdb2a916 bd22dbab 3d2a702b 3daece02 bd91977b bd22cfae 3d00cac9 bcb446bd bd9a4a9c bcf3966c 3ce6af9d bdb018da bd0684cc 3d54acfa 3d2c8189 bd1ac0a4 3da8727d 3c68e9fc 3d2d3502 bbf9ace2 bd098f6e 3d9cdf22 bda95591 3cfdcccb bd1eedf9 bce5042b 3d8a2f8f bda4fe3a bc42934c bcf5ca1e 3d84affd bd8923b8 bc8df0b1 bd107083 3d86b869 3d8e2ad7 3aef254e 3d115cdd 3db4d99a bd9b7f24 3ad94b07 3da522e6 bcbd4db8 bd860745 3da0520a 3dab7fe8 3d558960 3d881181 bbf863e7 bd7b4778 bda01573 3d166d77 bccad0ed 3db0ff49 3c21a630 3d6acfe9 3bbab01c bca664d7 bd0b3793 bd9a8fba bdaffce0 bc943f3d bd9d3a7d bdb4e1f3 3d3475a3 bd1f3038 38d12078 bcb9ba75 bd884ccc bcdd407d bd687feb 3c828808 3daa0826 bcac0bd3 3c4e67f8 3d4ea010 3d1e2f8d 3bf7882b bcf86108 bc8db5ce bc474309 3db4b8ff 3c4c77ef 3d6cf801 3d4e6c88 3d952467 3c79e64b 3ac86a41 bcd16b28 3d67635a 3d86de7a 3d8cad4f bda0b89b 3bcdbe16 bd5d1e9d bd6e874f bd9dfe3e bd0a3ef0 3da1d0fe 3d4ab562 bd7a3da1 bc95f3b3 3d1ec04c 3d5465a3 3d831725 bd3e6d69 bd1219ed 3d43ebf2 3c9e40bb bd3abe65 bd8919ff bba867ae 3d99d139 bd0f58f7 bc4937ab 3d08f093 bd9710d9 bd127d52 3c4d5e95 bd253f20 3d8d90da bc4d137f 3d197192 bc85f8bc bc2724fa 3da53825 bd902140 bd7be5ac bd069518 3c89ae55 bcd489a8 3ce38f5e bd2707f6 3d065330 bda8d5d4 3b5b6acb 3d3ffd78 3c7bc353 bd1f60d8 bd0702dc 3c9dacba bd79d774 bd8c9392 ba95f74d bd9a772e 3ca22e70 bd6f3d69 3d48020e 3d533028 3d922ce4 bd6659e9 3b87338d 3da80148 bcb4ffef 3d013dea 3d445e03 3b47ff4e bcfdfc86 3cbd1296 3cc5984c bd8c03d1 bd0411a9 bd986cee bd99080a 3d85330f 3d7e8285 bd76b6a2 bdaefbb9 bd930168 3d2bd0d3 3d96d194 bc58f0df bcf97e6a bd91bb27 bb547f23 3d48d70f 3d2ea1cc bd140b2b bd13671b 3c8180f7 3d2f7a13 3d943546 3c992db0 3d61fde0 3d939421 bb01d28c bca22057 3d588751 3c10b159 3dad3ee1 3d43e000 3ca4741f bda68c0c 3d5e85d0 bcfd3902 bc8187f9 3d220786 3cc84ccc bcc50352 bba2e0ac bd8a3c05 bd17fb94 bcb5bb4b 3a105cef bcb66894 3d48353e bb969119 bd63078c 3cc6b1f2 bcee97cb 3d8150fd bb252c47 3d9cbf42 3d9cdd5e 3db284a9 3c1b44fe 3d89a80f ba8ae9d0 3cec21df bd294466 bd8fee5d bd8af0a4 bdac39ae bca509ce bd9ba2cc 3d8cadb4 bd973a8b 3d8a4240 3c9d457d bd82412b 3d9a5945 3cf07bbe bbe8b21f 3d8f5e59 bd982a1c 3d825c0f bbfd1d0e 3b26aff3 3d0454d3 bd144ad1 ba996094 3d827e07 3d10413d 3d2efda8 3d9aa10f bd69b908 bc84610b 3d9dd573 bd00b472 3cce268f 3d0f7dd5 bda40fd0 3a990069 3da74281 bc7465a6 bdb12e9d bda4defa 3c5c437a bce5cf8c bd713466 3d930a5b bd4c8d7d bd8288d1 3d75e587 3d89753f 3cf8078f 3db4cc25 3b12c55b 3d87cf31 bd56b5fc bd936cab 3c21f387 bd70bee8 bb2357ff bc116954 3c5edb7f bcb1a07d bbceb757 bda45b91 bd18a0eb 3d2644c4 3d9d5c06 3d9ef122 3c88fbae bc8c4216 3d8a9396 3b82774e bad633c7 3b52ad28 bd605136 bcd46f68 bda33e86 bc07b543 bdaebdec 3c5cabe9 b91f2ffa 3d0024d6 bd61e202 ba1a4773 bcc9cdc0 bd5828ce 3d8d29b1 bdb28bf1 3d80200e bcb34105 bd4a9f0b bdafc48f bdabb7e6 bcf9c104 3d6995a2 3c8f9ae7 bd843908 3d98b014 3d944e74 3d16758e 3db13453 3d712540 3c4d8d79 3d7a38dc bd4e49d4 bc3b9a62 bd3cb35c bc7ee326 bd8f439d 3d761d9a bd0f063b 3cdf0df1 3da60397 3cf480f5 3b99303b 3db3ca79 bdb31b74 3da7a84f bd9cf023 3db36eac 3be64641 bd5e31e1 bcf74ed4 bd39e63b 3d59171f 3d9b822b 3d5aed87 3d845d90 3dae869e bd9f8996 3d183666 3bed14a7 3d5a369b 3ccc55fe 3b21854e 3d70e991 bd126bf9 bd89eaef bd81be74 3d81e99a 3af40394 bd932676 3cfa6138 bb3c2f02 bd56c37f 3d9e9c05 3d52429a 3d9946c2 bc6bd5e1 bd5fd131 bd99210f 3c29408b bd7dba3b 3d57f853 bda41a17 bd80d65f 3c52540f 3cb13091 bc3ebf6c bc96c2d6 bd37886b bcd16f2d 3c3bd60b bda27bd1 bc7b08b1 bc64e00f 3afe05c8 3d868a01 bd97c080 3cfa24a1 3d0637d2 3cc8fe86 bccf7fa1 3d524714 bd80194f bd11dfd2 bb1b813a bc54ff9c bdb30a21 3d4240e0 3d55e689 bda0b8fc 39323f04 bd985c7b bc839e91 3c2c203e 3d9d72cf 3d7ea0bd 3d3aa425 3c3eb48d bda708c0 bce99537 3da15f9c 3bee864b bca32cb5 bcf9cb2e 3d2ecafa 3d63c0c1 bbfcb900 3cd41233 3d854e11 3d72640e 3d3bc981 3d77387a 3d03c120 3cc6716c bdb22244 bc8e3625 bcd80b49 3ca258e8 bccfb602 bda52399 3d9778cc bd1ce91d bdabe61f bd168aca 3c97b527 bcf61d61 bdb4cf42 3cf0ec43 3d0b905f 3da882cb bdb2ea6c bc8930de bd09f6b6 bcfadfb4 3afa59af 3da8c5e9 bc176803 3d9af960 3c4882f5 bd3c93b4 bc0b5704 3d3a5378 3d561168 bcf03d57 bc31253b bd975be3 bd668cad bcbf5686 3d57be88 3bb2cbba 3d3f4b5d bd971044 3c9428c4 bd924a0f bcd3c262 3d93c45f 3b71b717 bd878878 bdb2445d bcdadf2f bd0df7c6 bda80d2f 3d461d93 3ae827f8 bc5e4e62 3d8bd116 bdab7a84 3ce724f8 3d860ecb 3c9c4496 3d422388 bd007e2a bdaa7306 3da91f59 bdb3af20 bd13b13b 3da40c07 bd2d4a41 bc8f3360 bd39ad00 3c93b29d bd025efd 3d072853 3db08325 bd87fa7c 3d6d031f bcb62d34 bdb46931 3d1d651f bd7229e2 3d55051a bc7c352b bd5a926b bd9d9fc8 3c9bc703 bdae7308 3d46faf2 3d0a660f bd9999f5 3d3d45d4 bd8eaf0b 3c12fc6c bcd0e222 3d721788 bd990f1f bce3e12c bd006ba0 bbf99724 3c12b9a5 bd62789d 3c4532f6 3b834995 bd37bf16 3cabdd44 3d84f90e 3d3a5d66 3ce96dd0 bd1f749f bd830b7a 3d5860d8 3c5f6562 3be0dd35 3d386fd4 bd26c340 bdb3bb09 bd788cf3 bda98650 3d615513 3d5c6d27 bd25db41 bca21feb bc974d08 bd133fa4 bd7857fb 3ce3fa95 bd00407e bd6bceff 3c87bba0 bd115f21 3c8f2b82 bb5b2a72 3ce97db4 3d6e68b5 bd9f175a bd2bee18 3db17b65 3b80aa73 bc6e0194 3d8f01ae 3d9daca2 3cfe513e bd8e9ebf 3dacaa40 bda3dfd5 bdb3b51b 3c5b5633 bcd4212e bda86661 3d8cb3d3 3c2f8e3f bd424902 3cfdb36d 3d83cb73 bc1982eb 3d859715 3d603edc 3c75ed08 bd401c59 bd8a7b25 baa6882d bcc12334 bda30815 bda979f7 bd65ce2e 3ade716e bd23afbc bd9816eb bc79ebaf bd1f9082 bcaeaf60 3d5afe41 3d51f3ed 3d6c24b3 3db499d5 3bc7dc91 bd408034 bc172faa 3c67660c bd012a01 3d904df6 3d3e2ead bd834b94 3c09318d 3c089d53 3ce0a663 bd7162e9 3db21212 bcfa902d 3d083f3f bd33263d 3cf642b9 bcfb0840 bd3f7b12 bda1ece6 3cfef9d2 3c469c9a 3cdf8703 bd46ca16 3c9a211c bd140eb6 3cc963d7 3da90270 bd97ae71 3d0adba3 bd697fd0 3cddd446 bc9df85d 3d13c6f1 bd8719e1 3d7e90bd 3d4c80a6 bd78e876 bd7f83c0 3d45d532 bd8e122a 3d0d6551 bd32edba bda234f3 3ce0a1fd bd1818ab bd6ee9b2 3cd77f5e 3d276043 3d924e3c 3db103d6 3cfa9aa0 bcd13a80 bc786ec6 3d88a73d bd8cb808 3d820bd2 3d270a12 3d0b168d 3ce00618 bd964c14 3d10c27e bbaef835 3a973142 bd282690 3d82d88f bc71e162 3a3c3e09 bd9a9e3c 3d8b01c1 bda7178c 3d6015a9 3d1eb7fb 3c5c7e9c bdaf42c8 bd26eb9f bbc02149 bd86147a bcea4f83 bca3cc1e bce21a8b 3d7be2d0 3da58257 bd22206d 3d3af387 3bb5dc2d 3d848337 bd9de019 bd335c88 bc910dd3 3dadda02 3d8f4583 bcc3f4c9 bd5f2b03 bd34b7b8 3c321ba9 3ca3d807 bd3727f6 3ccc0600 bc277158 3d86b973 bd0a02cd bd4b4d06 3c5e90ad 3b95688e 3d4c7112 3db0b7ee bd11cd65 3da854f3 3d2a0fec 3d9a1c39 3cdf1b28 bc58841c 3c46bbe4 3b183c03 bd85b162 bcf107b5 3d891ac8 3c8de243 3cc0668a 3c0c2830 3c9c39c8 bd7c03a9 bc885c3a bc9c9e4d bcf77cae bd64d465 bc16f4fa bb0a6158 bceccc49 bcb0fa7f bcde59fc bc66f4f4 bd90837f 3d938b98 bd415d95 3d3c9242 bd9f55da bb8472be bc05ad73 bd99f3f4 3b966733 bd871d86 3d000ff7 3d628e3f bc5febdd 3c6fff23 bd35348f 3d030d91 bdaae69a 3db44f51 bba3259d 3c962b95 3d995cfa bd95efe9 bd3c952f 3c81e325 bdb49e52 3ca4b3d4 bbf632b9 bda9cc84 bcb43225 bd8479bb 3c0be5ad 3d856494 3dac4ea5 bda942bf 3d0118db bd8b5466 3d00ae67 3d47483d bdac72fc bd82a88f bda250dd bc07c734 3d04ad41 bd84c8c0 bbbc7273 bcfc1022 3da439df bda5f7ba bd48f21e ba590e92 bd8d1153 3d8b56c1 bda64ef1 bce99a79 bd176521 ba545401 bd2c026f 3d81f4ac bd9bd60f bd3ef689 bd25b41c bdad0387 bdb38ba1 3cff7dbe 3daa7d41 bc5d6888 bd0c76d5 3d1e4491 3d5554a9 bda27527 bd2cdae5 3d990138 3d212485 bda80d00 3ad8976c bd89144d bd8c0637 bd33d12e 3db3aace bd50bfc0 3d78d8b2 bda446e8 bbc73f69 3da3b4a8 bca29525 bcf98cee bd200e5a bd82d50a 3ce85282 bd83f516 bd66444a 3d9d3f4a 3d86b322 bd3d4d8d 3af49210 bcc28cd2 3d89ceef bda284b0 bda2a335 3d3135ed 3b8a07ce bcd3cf66 3d396ea4 3d14b05a bd764ae3 3d4ed756 3d523d71 bc4cc715 bd9c9cef 3d180421 3d57ad35 bdb3d0d9 bda77c82 bc2edc25 bd9ebdb0 bd34d5e2 3d8d46be 3c846d1b 3d584a35 3caa867f 3db0ff90 3d15d44a 3cd53724 3d89097a bd0fca7f 3d9b25a7 3c09f659 3da5b4a5 bd57d769 bd75edea 3d83b719 bd507b94 3c8beaea 3dab7cc5 3c8764f0 bd8093a3 bd5c6f00 bd47c922 bd758aa5 3d422f57 3c51f592 bc027e99 3cc9a62d 3d53a660 3bff762f 3d6b0875 bc429193 3d0bd868 3c9acb26 3a4813fc 3d83b373 3daebfe3 3d91b023 bcb7be99 bceb1116 3d950220 bd247bae 3c1b5322 bd4d7902 bcbc51b9 bd073664 3d6202a6 bd1e69d2 bd1d3bcf 3d197682 bba01c98 3c0ba62b bd875e08 bd1f5051 3d35ea5c 3d2650ca bda5f51a bd7b62fb 3cd2654b bd8e2658 bd3f9202 bd4cc860 bd8a280a bd30d779 3d7e039e bda6867a 3d6fe4be bd9ce4cc bcc34b3c bcf1fd2f 3d65ab7c bd92a5d3 bd3418a2 bdb2439f bcd4e5f5 3d100d66 3dab4512 3d9cd27f bcc0975f bd40ceac 3ca0a8f4 3d7029af 3da229bc 3d77c1f4 bad01a22 bd958c1f bd5b1522 3d5caee4 bd9a1934 bd849528 bd66775d bcc27ba1 3d28cbbf 3d7aedc1 3d8b8541 3d280f4e 3ca465de bcbe8f19 bd5dd36d bd386013 bb2ebf49 3d9cb878 bd00db56 bc591144 bb1ce952 bd22ed06 bd2c27e9 3ccdb17d bd8139b3 bbaf15bb bcaeb558 3ca0926a bc391027 bd3db552 bcda99fa bcb379b3 3d1a1a73 3ca549fa bce0ae84 3d8ddf84 3c008fe3 3d45a709 bd09ab08 bd997e8b bdae9346 bcf166ca 3d5f2e8f 3d63a812 3cdca920 3cccc9a6 bd733a22 bcd58faf 3c2fa98f bd9df91b bda4ace3 bd895454 3ce08625 bc37b66c bc7fabb4 3d613e31 bd7227a1 bd5fea16 bca5a0b5 3d5f0ef6 3c688478 bd9c1d34 3d80196f bd52416e 3d8d3f34 3d0483bc 3cbdd93d 3d95ed72 3d052590 bdb287bb 3d0fe32b 3daf96ca bd1647a0 3d848f60 3d928637 bcaaa12b 3901ee4d bc3ba432 3da01c50 3d17a963 3d803a7a bda1f9a0 bd12da9d bd88bf2c 3c9e7383 bd0d53f2 3cd1e1a4 3d3c85f0 bcbf4f41 3c2a7a96 bd856e0c bc26ff80 3c6a35f8 3d812973 3d124a30 3cc0866d 3d3bef04 3d8d998f 3c08034f 3dae5d9f bd5cb3f4 3cf53c19 3995906b 3d85fe43 bdacbc79 3d2fb663 bd9bb12b bcd87b73 bce98882 bcf25aad bd2fdfc4 bd939573 bd9e76e7 bc93b3c3 3d93d64e bcc234e6 bd749c18 bcceb883 bd95424f bb9d1c96 3d94b8db bdb0c127 3d434d85 3d86330f 3d828689 bd56c21b 3c2961dd 3d4c1079 bd9b1ff8 3d8b0cb2 bbd48e9b bd9f5498 bcb9bda9 3b265324 bd13921e bd12febe bc14e9b8 3cf907a4 3d24201c bdb0f87b bbb9d132 3cb31a0a 3d921397 3d3567f7 3d765686 3cd6c6f1 bc0d73f4 bd481684 bd166627 3cea206d bc978f9d 3da6a751 bd630313 3d762c73 3d67d998 3d6f1d51 3d8def17 bd514847 3d513ce2 bdb33ab9 bd424a00 bc65dbf8 3d9878d9 bc91deed bd9121b4 bda18984 3ad8d497 3bd83660 3cb0238f bccac6c9 3cf186b3 3c17cc4a bcbe2a6c 3d396b70 bd82a0ad bd3b718c 3cb3031b bccedb2f bb0c0f71 bd01b411 3d4e6d2f 3daa7cbf 3d9b077c 3cbbd896 bd657830 bcfd23ba bd24cbab bc8bb44a bd347289 3d57c405 bdabb9cb 3b7cd66f 3d82cbc5 bd8f9330 bc7db7b1 3d467b4d bcfcf7e9 bd2b6ccb 3d40d2c8 bd7aa977 3db4a1b6 3da26024 3b81a8a7 3c69aa7e bd386700 3ca8b5c0 bd88c30d bcbcb112 3d90b7dd 3cd34a00 3d8329ed 3d6ee8ec 3dace817 3cb74176 bd84abcf bda3d97f 3d608eb3 3d93085f 3db23a7f bd75fc58 3da5613a bd0101e6 3cbcf762 3d7ad95f bd8bb04a bdadbe83 3d70c09f bda84f76 3d2f7092 3d51783a 3d846d49 3b0bc14e bcb8f97b 3c3cda21 bc48868a bdaa9932 3caad2b5 bd547bbf 3d85fc98 bd29fa04 bc8d31f3 bd8c6844 3da6bd92 3d520a69 3d9e7f40 3d534710 bd5f2aa0 3dab2474 bc42bbb1 3da68d5f 3c4aceeb 3d654163 bd0fb1b7 3d0e38bd ba0b6863 bd90791f 3d8c3783 bd45163c bd6fe644 3d9132ea bda6137b 3cfa0f75 3d9335c3 bc66a83b bdab3cae bd92b579 bb8f5097 bc65d206 3d7b6900 3d90b38a bd5fe4c5 bcbf5768 bd8e3f35 3ca12fca 3d84a440 bcf79239 3b403434 bbe0f75f bd9cff02 3db0717a 3c9c3ce6 3da9cfcc bd9d6253 bcd3a406 bcbeef93 3cee4685 bcb764e8 bd50472a 3d943ee1 3d8e1cd5 3db403b5 3d59ab46 3d6e28fd bd6f328a 3bd83f7a bce3095f bc0174ae 3bebdbac 3cadd4fe bd560209 bc6b5afa bd2724fa bcba5315 bd691f31 bd3d1e9e bd7cef86 bd7e2fe6 bbbec9cf bd99e5f8 bdac9870 3d7dfaa8 bd825909 3d7d7602 3bc887f4 bc53e711 3d8c0fa9 bd8d5850 3d2d70a9 3d71a43b 3d9064b1 bda90740 3b893cdd bc37f868 bd864fb1 3d77435c bc7effb3 3d74deb2 bd42f163 bd209056 3d081f34 3c3909e1 3d4f7d8a 3d1a71ad 3d90e69e bd856fc9 3ca39c58 3d86737d bd240d4e bd6238aa 3db21e37 bd979802 bd837997 bd9929d7 3cb329f3 3caf9e39 bd9ee2f1 3d5db0d2 3ccf9658 3cf54737 bdb1310e bda585d3 bd94c7da bd148d54 bda0d6ea 3d37631b bc449311 bd0ec656 3d9d4b0f 3c3f247f 3c3b0e8d bd4b4d0c bcd52987 bd98c6c7 bd5de0a1 3db3d72d bd6c1f39 3d468be0 3d78cfa9 3d6c746b 3d9436ab 3d9b5444 3d4245b4 bb9b368a bcb9a6f2 bdacd80a 3d3e7e7e bca41c43 3c62fa1a bca3852f 3d69d327 3b380e3d 3d81adbb 3d875002 3ce0043d bbebce3c 3d27a28e bd556cfe 3d7e9aa1 3d8c3a18 3c3caed1 bc117301 3cb33664 3d9f5940 3caad78c bd375532 bc9afa20 bdb1e8a2 bb1b11dc bda508f6 3ca3331e 3c393b3e 3da88f3e bcd83221 bb97ec33 b9a52fd0 bd050172 bd009013 bd1595eb bd18cedf 3c26383a 3d0b62cc 3c905e76 3d90b57c bc36bf6c 3cd326e3 bd95d945 3d6313bf 3d95e7e6 3d0a98ac bd690e33 bb577cc2 bd970af9 bda4961a 3d88d465 3d2857b2 3d88d5dc 3d69907f bc65f7da 3d2798f6 bd2c06b0 bd9357d1 bc630e14 bd55d7b5 3da8be1a bd933524 