100
subgraph.layer_seq.glp_0.linear1.weight 384  3d547555 3e17543a 3ea16c57 bf435b71 3dba737f beb90309 be1cd19c 3dee3ac8 bf4884b2 bfbd359d 3e6681d8 bf0f91cf bee6c4ae 3e229efa 3f01f97f bf98f4b8 3f147854 3f2a963d be254bb1 bef265c5 3f13e32a bf81f67f bed9a5f8 3db193e9 3e34b038 bdb9d4f4 bfb9fe64 bfd3614a 3f0a8ede bea790c4 be49e4ab 3dd801cf 3f476f22 3f6448d9 3ef6cc53 3e8e6477 3e9ccfe6 bcb47cba 3fa687af c056ec8c 3f4895ce 3ddc0af1 bf51858c 3d1439dc bfb27996 c00d6b5a 3d904aa4 beaaf25d bc49883f be029558 bfb9d2e2 400400f4 bd6064e1 bda199ca 3f1ecdad bd95ba3c be82cdd1 bfc4bd2b 3f140e66 be991688 be8dd2ab 3e7fa4d9 beda305d bf772b83 3eebf1ff be85ee28 3e90bb14 3dd82e9d 4017d28f bf88376b 3ecda260 3e418500 beb39792 3e30c8bd 3f75f2ea 3fbaadc8 3ee9e9b0 3da42712 3e04e373 3df82eee 3f6504d0 3f129fb3 3e8efd07 bd9cbedb 3dee3690 be63ee44 bfef08fc bdef3d8b bf2bdc38 3eb18004 beaf7c55 3d00c991 3ea12f5f 3deb7899 3ee111c6 3e1927d9 3de16d08 bec3bf87 bf56df9c bef59c74 3e0c91ab 3f025aa2 3ed58952 be7c39e7 bfb916eb 400e597d bea85a1e bdab2b29 bf00d0c4 bde56de0 3d182194 bf458048 3e9c19ac 3ef126a4 bef8102a 3d8493fc bf18fe9c bdfd2030 3ecc0724 3eda1828 bf260309 3ec2bfac 401a4b90 bd7d2862 3f3d3339 3f2a9e7a 3e63af0c bdb86d8d bf2a9569 c00d7dfe 3eed046b bed35f24 3e8d932e 3d9d8af5 3ebd9be4 bfefdb3e 3f303c21 3c92c86e 3f34e658 3e5c2530 c02a8257 3df0c263 3ed56f3d bf8bfe59 3f0ca5f0 bef5f358 bf1613b3 bf3dbefb 3ea22cdb 3d11453c beb2a3d4 3cbcb104 3e39d432 400daffb bf4dd0d9 bea347d4 bf4a9747 3de26abc bf5f58e9 3f3a1f71 3f389601 3ed2066a 3d4bb617 bf1a1b2a bf50ca9b 3f9389e7 bdbc152e 3dda4a38 bf093077 3e2029b2 bfb23e72 be9a0ad4 3e3319d8 3bd5d58c 3f9e8141 3a96017a bf9fd11d 3f1e0a51 bf2259a4 bf02301f bea799dc 3ea5bf4b 40193ca9 bf12c149 3ec0263f 3dbdc6b2 bf372b1b be33e404 bfaefcb1 4001e43b be0baf6a 3f1e4d96 bf38755c 3f3d71ce 3fc3b30a bfd4edbf 3e29f4bb 3e0006df 3dc32b90 3ea1ed15 3f126e66 3f39d75a 3dc31870 3d83867c bf3d175f bd9a53c7 bf56e863 3ef17656 3eb58520 be53ad29 bf6d7ec8 3e8e8e10 bfa25706 bf7016ba 3e3bbf11 3f008c71 bd859baf bc85d561 c01ce06c 3e542bcd bce00c3e 3f161181 3e2999e9 3e51e552 3f85d1c7 c00af6a2 be818351 bbfa3a65 bed6c518 3e28759e bfe9792d bec9406f 3dca7899 be414ba5 bb05a722 3e0429bb 40135f35 c0161ef4 3e0e9194 3e9ea12e be6375bc 3cfccbfd be63bb0a 3ff5acd2 3e07eacb bdf7c02e 3c9aeefe 3e2fc844 bf355c2d 40013cc2 3ebfbc40 3ee5f461 bdd823dd 3e1e74d7 bfaaa039 3fb4657d 3e42e487 3e66ccbf bf54c4c7 3e50c5a1 bebbc36a be44fc4a 3f05d0f1 3f18c49a 3e58f884 bee8e5d0 bef3fb92 3f237a92 3c75a736 3e269c10 3dc75f5f be0a605f bf926d90 3f12206c 3e0adfe8 be0b11d3 bf498812 3e3b56de bfaf4467 3e7fe957 3e525be4 3e3d1ff5 bdf7652b be3c3938 be9c60c1 beda818d 3f0c7ca0 be37986b 3f731827 bd77e302 bffebe2e 3e504d08 bee3cbe0 bb7e428e 3d73cfe7 3dce54f9 3ea49320 bf51a2eb 3ee5e138 3f32e610 bce22975 be705a35 bf3ce64a 3cc05e64 3d8960d7 3dea31e5 3e66c3b8 bd0cd47c bf7d72ca bfaa859d 3f11ee1c be74ead7 3f8955bf 3dea6035 bfd9e73e 4010b57d bc9e77a4 bf0fdef3 3d7ef883 3f02ff34 3e829713 3f8d6236 3ed63644 3e70b944 be934d68 bb8ef893 bf2d4f78 3ffff8e7 3ddf4b74 bda71225 beeb655c 3ca748b9 bee028cf 3e7efb7b 3eb8962d 3d3978d3 be5a092c 3e1e20f9 3f2d745c bf5ed3f2 be398ec1 bda8f6af 3e254965 3d6e62b4 bd968816 400653ca 3e61ce77 be01fc4f 3d8b181f 3dc9bbae bf4631c2 3f98492e 3e96888b bf4c34ff bec8503d bec6a8c4 3f24e790 3f5ddcd9 bf0f3103 3e2c8cd5 3e2a240d bec56b7f bfa6932b 3f331659 3e3ce0e0 3dda6eb6 3d2b8c27 3dd7a4b1 bf24d143 3f187c18 3e151e85 3f191038 3dae1a98 3cf8a7af c0286a8c 3fedadff be80f494 3e8ad3cc 3fc7db0d 3d290cee bfba3f9d 3f00af66 3dac3012 be00a4a9
subgraph.layer_seq.glp_0.linear1.bias 64  3deb89c7 3de9918d 3da942b6 3cca3e23 be6bd2f3 3e607f2c be24a38b 3d523b59 3d8f913b bc85eee7 3e29e3de 3dfe991d 3dad7912 3df49d90 3d0871e4 3e5564e5 3dcdda67 3d890a03 bdd26877 3e16d105 3d202e6d 3dc4e392 bdaa4531 3e15806a 3d87eecd 3d5acfb8 3e0ecf23 3da00143 3da56e0a be38a849 3d6cb848 3dc106cf 3d97a834 3e5af361 3dd0a5b6 3d34f28a 3d2e850e 3d37e9a7 3db4c7b0 3a59ae4c 3d8ebc2f 3dad8129 bde1e822 3d45bd4f 3d609712 3d6122c3 3e03a5bb bca700ae 3d952af2 3d8c392d 3ce39bd1 bcbf689d 3cce07b5 3d791c7b 3d834d9a 3e22dbf9 3daef10a 3e08bf88 3db02a66 3d71d667 3dd834ea 3db2dd4e 3d56e6a2 3d9fd0d1
subgraph.layer_seq.glp_0.linear2.weight 4096  bdf81599 be6c8997 3e718935 baba609a 3e0c6335 be06bffd 3e06fbf2 bf1f3d99 3d912cbb 3ca4a883 bd7babed 3d8aa475 3c9ab51c bc682e4e bcd34f6f bd8ebbcc 3e02e4b5 bdcdd26b 3d10d0b5 3dc211d6 3df84eab bc629960 3d1af853 3d8e5887 3d007073 bed1aaa2 bd009dbc 3d39c06f 3c9556ea bea03747 3d0b174d bd46d85a 3c13df21 3e077359 be4e2f39 bf221fc0 3ccda358 3de8073c bd521c28 3e9831e6 be62e3dc bdd88d52 3d5fcddc 3eab72fb 3dcb0fc4 3d93d90b be39532c 3e460d98 3ddd7f4f 3eb24793 bdc9fa96 bde593fd bf1b4741 3de6c80c 3dc97b05 3db51fb2 3e851e5d 3e61889d 3b4c1373 bdf72804 3e0fde48 3b17d170 3e4c5cfb 3d834a47 bdd944e4 bd9cb169 3d5052b4 be8aaa29 bc684cc1 3e894461 bf6a43cf 3f0b32e6 be870c85 be9d31b7 3e82c7a7 3d53f680 3e7f4bb6 bdc673f9 3e88b1ea 3d9f8bf5 bd8218af bed9f5bc be42d7b5 3ce4e54c 3d432faf bdd74977 bea5171c be21ab27 be81a313 3f05a9d3 be2c356b bef4ac7c 3d2a64df 3f22c608 3e5f02f7 be688d86 3e3bd9aa 3cc40781 3ee61f4e 3e447d47 bd15f06f bc917e44 3deecb03 be7e3e1f bdfcb547 3dafb612 be253d1f 3e292bd1 be7d0dc7 be9f432a 3d3e5d24 3e3419e6 3e40131a 3e0c3b86 beaa801c bdc7b094 3e945682 3ebaa48e be4adcd4 3dc7949e 3db8a099 3e515caf bd977921 be85192b be5bb450 3cd3c562 3efc0d1a be9b9edd 3c7a23f2 bf15c80f 3e8579a6 3d38276c 3dd8e09c bd814cda 3ebc0dcd bf24a36e bded9aec 3e15c6f2 3c4ca05c 3dabe412 3dacef22 be1e867a 3cdd5dd7 bdbda518 be98d8ff 3e5a72f1 bdd1ec18 3bb4d6b5 3e5a94b8 be984ca2 3dba83ec 3a904aca bd2b217e be9fd718 be898e9c 3e31f023 bed61a29 be516f31 3e6473fe be44b74b 3dc33d7a 3d954ffa bda24fa4 bef3031e be01c7fa 3c938807 bba3ec3a be2ea66c be411de5 3dfec93c bdae977b 3d8ed287 3e171360 3dca7f53 bded7410 bd3bb5e9 be5fe75f 3e87b10f 3e2f80a9 3c34b8f1 bf800ad1 3e04e8e2 be3f56c4 3d9ada46 bde3dca2 be2f9efc bdd90fbc be2d0551 3d40c3d6 bdf9a416 bedff0cf be97bf3c bb71b55f 3db0778c 3e70042b 3e8254ca be33123f bca15107 3e4cbc30 bd5f269a 3e3f41b8 bd16739d bd299f23 3e512929 3e7147e8 3ea819e8 3d1a4048 3e274f06 3e306ebc 3ced94dd 3e1f7eda 3e10ac3a 3ea72b2b befd951b 3df09784 befefd02 3e8ebab6 bf7944cb 3dbf44cd 3d2c5d09 3d80a314 bf6d464a 3e29e28b bbdba197 3e870a28 bccde6bf bdb0e56b 3ee43a22 be6280d3 3eb2932d 3d341019 3eacdcb6 be8d76c4 3e11b660 3e016614 3dcc2de0 3eb2d2e2 3e622590 3e0946cc 3dad587f beec7b8d 3e0b4930 3e54bcae 3d5a1aab bc2ed71e 3e295d5e be3040e7 bd8d100d bd6bfdaf bf80dcc5 be758fc2 3de24b88 3e0dbb1c 3e275d71 bf69f3d3 3e913835 be58878a bd4f9554 bec86b13 3b062d4e bb7267ab 3cbfecd9 3d9ea06e 3e715e12 bcf8d3c3 3e424a30 3e1721fc be8534bb be17f70f be727f91 be864489 bd62dd05 bd8d77f0 3e68946a 3df87781 be809c2d bdecd2aa 3e0ab8ea 3e2ede49 3e8a5cad 3ea521ae 3f8f8737 3d75207b bea1f06b 3d25c27a 3dcfe72b be3a57ca be910d8a be7cef20 be1e18a8 beb0f001 3e106d0f be3881ad beff1549 bc8038aa bdfcbcd0 3ca909ae bea37967 bcb14d19 bdf36ac1 bc8ef864 bd7d9243 3de3bee1 bd63969c bef9dcbc be85672b 3e0f6518 3e021857 bede9efc bdbd5115 be239a38 3e5c3278 becfbabd be905c73 bdc1540f 3d8e34c7 be71f109 be336179 3daddc37 be8ba8ba be120c83 bd33d902 3ab67548 3d452d4f 3dc5aabd 3daf4c38 bd0f8973 3d83285c bc993499 3da5160b be0e37dc 3dc5dcfb 3e0ce46d 3c9dc2b2 bebd4f44 bd488b7f bddbdf7a bdfd19ba 3d51c6f8 3d4f0c67 bc67c466 3d89e9d6 3e86c8dd bd988543 3ca39fb4 3dba6274 3e063308 3d9865e8 bda69214 3d9b9c0e bde17038 be27fd97 bebe9914 be375b9a bb1bb27e be1ba4f2 be767500 3a74df84 3e586264 3e99e12c bdad7dd1 3dea3d50 3e0e565a 3e3d6894 3daa5c84 bc6d5d7d 3dccd997 bbb53d14 bb54b555 3df1fb93 bee60572 3e517238 3d612343 bd82d04b bdf0d901 3d8b9834 be92affe be1f39af be0b31b4 bea429b3 bd48c8dd 3e260b9b bf0789bd 3e6a585a be19c4ba bd614241 3e16eb3d be1d92ef be08b055 3e563ed5 bec1abec 3ed0a94f bd07a682 bd34e826 3e96bcf1 3c01831e 3db9ddfb 3e2113cb 3d97ffad 3db6ba17 3cc4fae5 3dd49b3e bdeb64a2 bc1efe5f bc132151 bd1fa18e be2f3b26 bd8f132d be11fa02 3da67950 bec9c3d6 badfe49f bc9b51ef 3da096e6 bde7b957 be4bc368 be9df713 3e19df89 3dd71fd1 bdd9449a bda788c8 be5a6fe5 3e2deb8f bed4ab15 3e065bbc 3df3663a bd942f5e bd4efb65 be15f638 be4dbbfa be213eb9 bc293998 bdf038f1 3da84de3 3da4b1bf bdfec20c 3de21a5f 3e0dc94a 3d7811f9 3d296eb6 bceb306d 3ed3ad66 bc5caa20 bd4271a4 be206be3 3bebe82d 3eb70fe1 bdbdda64 bc9511b8 bda56911 3e05d641 3ec710d3 be2b9cfc bde718c7 3df89844 3da4dfc8 3f217513 3da21718 be64fc1b bdd706ab bd6246b1 3dfb5628 3e8202ca bd8956f0 3d85d089 3e03bf6c bcaad812 3dafb4ee bddeaef4 bc86e320 bda51234 bd9c7203 3d1778de 3ea5189f 3eae95ab 3eca037d bd0b8b5f 3eaa8aca be80ee71 3d8b9048 be55436e be0ff7c9 bb3071ec bdbba921 3e1d52ba 3e5b6a76 be07e9ad 3e842926 3f4ba917 3e26f23f 3ea5488f bcfcf1fd 3e8fa4af 3ea429df 3dc76b84 bd949cd4 be485091 3e0618cb 3dc597bd bd2fd895 3f020c06 bd0a56e1 3f362995 3d6b7a78 bde756f3 3efb9359 3e133b03 3ec25fcf 3f11c2d4 3db10e76 bdace850 bebba307 be35db71 3c3e8756 3dc64aec bda85006 3dda7b23 3c8ed4f2 bd98276f bda0b0f5 3d1917dc 3d604967 3d6a1cde 3e631d71 bdb7a108 bc27e638 be04c64d 3c3ed2b5 bcc0f91f bd5d1988 3df185f9 3d71d826 3e41992d 3e4c72e3 3c3fe2a4 3d41ff6d be15451c ba34ab54 3d4f7b7b bdab719d bea5ad20 bee90a72 bcc1cf69 bdebadae be945f27 bd4c07d7 3dd86d0a bee55a44 3e53576d bd50486c 3db05685 3d7f4975 bda70b9a 3e52617e 3d8ebb66 3d5e87f1 3dbd27ef 3de68ab4 3d2cc1eb 3e157bfd bd7801f1 3dd17232 be084598 3d9164b0 3e9c9df2 3e619e28 bd527afa 3e8c30b5 3eba5f8f 3d19f345 3e95c0dc bd010eaa 3db2e7b5 bd4eaac4 3d9bca0b 3e8de3a9 becef11b be15ed40 bc008391 3e0b52ce be9fe870 3bc1f90c be5a1ee9 be5a9e47 3e59af63 bd97010b be5341f9 be8c6f21 3dfda765 bf623da1 3cdc50b4 3dd98fd0 3d986ec5 3e4275d0 be3c95da 3e51892b bca3adee be8fe14f be6072aa 3e22daeb 3e84510c 3f22ed71 3d36efd5 3e3dac1e 3e98332d 3f337618 bdd6ad79 3dfa0d68 3da43c68 bd680b93 3c19a879 3e58fce6 3d91f994 bbbca92a 3e3bda3c be87313b 3eee1cbb 3e8f527c 3dba1c10 bf9528c5 3b9aa366 3e043450 3e6ce4f4 3d8064af 3d84a556 bdcb2beb bca4cdaf be077932 bfa06e83 bef25096 3ec0d213 bcb136ca bdfc6146 3ddee831 3e2ddf8d 3e469412 3e953d35 3e461f5b 3e6d03fc bdacf6c8 beade39c bf195ee1 3f08f35f bdd40b6c bcf41e86 bc9ef0ae 3f08bdcc 3ddf92e7 be9dab47 3dd898e3 bea65387 3ebb4e81 bf379c3c 3d7e16e6 bf4b3906 bd8a2f26 3dba749a bedc177d bd76ecfc 3f043774 bf0a9860 3e87ec6f 3d89759c be0a3760 be12ad06 bd344bdd bce497ff 3ca2e26f 3e1859f7 3f0ebf05 3e151c27 be8c09e8 3e9da22f be221203 bdb77191 3e1718ca 3ea7ab01 be14ac0d 3eab1c22 3e2bece8 be4a3e5f bf00fd09 becdd142 3ec9e088 bc64b80c be4ad213 3ed1ab4c be271b03 be4ab16f 3eefac17 bd994b68 3cc65a2c be2f4965 3eae8804 bdc450e0 3deb9d6a be37b39f be38ba2c be265a3e be2ac063 bd42736a bc966343 bef6a5cf bf5f0ca5 3ddf732e 3dc72b84 3dba0675 3f2a0803 3de5a80b bd8cc053 3e3717df bf0930b5 3e014651 3df6782c bce8ba1a 3e5c63c0 3df8a82a 3e2b3f04 bc81ef60 bd536113 3e7e8409 3e8bb89a 3df3a284 bd755554 be3b52a5 3eb277fa 3d9c6020 3c19b829 3d851ca8 3f17b6aa be0db9b1 3e168f2a bce6a9d9 be46aed8 bdcd1c63 bcd47466 bef58a3b 3df22d11 bee4de33 be766230 be0ab144 bdc9e8fa be924614 3d530d7c 3c743c6f bcc02824 3df5fcf7 bdee4ddc 3dcf6094 3d66d2e6 3cd19acb bd3e5280 be04ed7e bc9e514d 3e0d95b6 3e277410 3da06586 bd15fe5f 3c58ff71 be03418b bcac0980 3e4e5e8f 3ca9d6fb 3df7b81c 3e547a2c bca4ac53 3ceef355 3d9f8ada 3e66cdd1 3e940954 3d28164b 3eab827a 3c675614 3d930228 3dcf3fa8 3e7707f3 3ec897b8 bd9b6df7 3da5b487 3e2f4144 3d132547 3e21ada8 3f067b03 3ca39a93 3e903792 3edc66d8 bd33e49d 3e827ba5 bca07742 3d686a16 3e016257 be8a1d7a 3dff3ac3 be3b5a36 bd1c6ac8 3ec5b548 3e90c911 3d9c33b9 3e5b7eca 3ecfb8bb 3e672010 3d8937ef 3d89dc49 3efb5ddc 3ddd5441 3ed50820 3ea1d9b2 3e921b5b bc8e84e2 3db0b458 bd47422d 3dd24a91 3e69e809 3e4599c3 3e05975d 3d451db0 3f1530fb 3d49fe07 3eb35c7f 3c29f0d3 3ee2f61a 3dec00ff 3cef24fd be027ff0 3e90fac3 bef176e7 3e59636d 3ec5ca3f 3e8fae9d 3e23ff37 3dd0709b 3f0e2400 3e3e246e 3ef19ed2 bd7eb195 3e08e993 be22d146 bdf2d30d 3e298c58 3cccdebf 3dc84a16 be5d85f7 3ea56a25 bd213038 bd818970 3d99811e 3d07c013 bd5969d5 bd50c698 3e8f398d 3d7fe643 3de8fe16 bd5de5d8 bde0b585 3d1f9568 3da047cc 3e5ef8e7 bdd6b171 3c312812 3e9b4023 3e04d11a 3eb7957e 3c6d67e3 3e830201 3e1fb5eb 3d4d316a 3d59398f 3ead926f bc19ad70 3ed481de 3d71edea 3ec2bbf8 bdcb3774 be329e39 bea8b9e9 3d3f7e45 3e3183db 3d3baa43 3db14b05 3d74ebf1 3e5a9c4d 3b4c2ab2 bd279345 bec61217 bee48a42 3ddc5178 3e19cbbd 3daeaa50 3d68e6e4 be995365 3eb1edfa 3d91635f 3ccb2a5b bc0d5f10 be3bd4e0 3e92c478 bd4e2027 3f039831 3cefcf19 3e11180e be9ea308 bdb3e4bc bfe4947d bdb7c590 3e6feb27 bea72ca1 be43f2fe bd601ad9 bdc36a61 bdc4e1a1 3f35edfe bc097b71 3eb1278e 3e201186 bdba302b 3dfcf686 bd4b15a5 be531f2d bf15f680 be8c5f63 3e1a4f44 3f425204 bd888e58 3a87e66e 3d4459c5 3f887ee9 be8a47a7 3e9db17c bdb5d669 3bbb111f 3dc63606 be5e4324 3eaadc8b 3c196a10 3ec2f338 bf295112 3e9c7445 bd4e93f5 3e268995 bd295970 3e666a58 3dc66f91 3de01a0b bc935076 3f2360e9 bd75080e 3e84d156 becc3253 3f3b3c95 3d911a57 3dbaf097 3e693710 3d9cd55a 3ea050d4 be88bd69 3d4d66e0 3ea644e6 3e623a73 3eb1bbc8 3e873c80 3e0f56b0 bd00a5e4 3e7d1ed7 bd3276ce 3b2c8001 bd10fb5b 3e2c84cd be81bcea 3c2251f4 3df26e48 3c5e0977 bd0c10dd 3e64a0db be7f67cb bd52c6d7 3e1b39c7 bcf5769c 3e1f5a1d 3dfc2915 3e5f6529 3e224f50 3e5facda 3dc1262f be0865b9 3d99772d bd97b276 3e0ff09f 3dbafd4b 3ec964a3 bdab2f1c 3e0a1d3b 3d7cce3a 3e506147 be59c31c be21ad8e 3f272afd 3d2bc950 3ef138ce 3e3b3973 3efc5a19 bda9910f 3e4f7b55 bcc1d382 3e1c3cfe bc8e2b74 be473e7c 3ea3cff7 bc847279 3cfd9323 3d52ad01 bd736449 3e8346d4 bedb5041 bce31f1f 3d9cbc34 be777af2 3e18da7a bca4fbbd bc9fa078 bbc355c3 3d0aea24 be33e866 be9daa51 3ddb1f14 bea77ea0 beda15b4 3e2a18ee 3da5ffaf 3e88c85b 3dba6a97 3d6a5bcf 3e7b3afc 3e382236 3e0e22b7 3d903216 3d973147 3e45200f be72e608 be84fc81 3da76de3 3e202041 3d9b8a7f bf3319fa 3dd61d61 3cf8d17f bdf63f08 bdcf65c4 bdd1a9cd 3d458fd3 3ecfc697 3dac322e 3deba011 3e03590d 3eb57fd9 bd985c08 3e2e34cc bea8cd8d bdecd573 3ee6c4cc 3f190d2a 3dee062c bf0f1689 bdc2a5d3 be86206a 3f49d7c8 3db31bc7 3ed23126 3dba5cd3 3e51590e 3e525e04 3de0023f 3e25aaa4 be3ef4b7 3d7200a7 bd925078 bd021479 bf923dc3 3abef8a3 3eb29c5c be425467 ba9363c9 3ed72ac7 bd57361b be466f55 3df92599 3e3d12b9 3e4bcfe6 3ec5eeef 3b618b1f be475704 3e930d8b be52e6d4 be5077a3 bdb0342c 3de83fb7 be950bec be5e3313 be262931 3c72763f 3eaea824 3d1fa5e0 3e4625f2 3d846f1d 3dead9a5 be83c658 bdb3f8ae be72dd09 3da252ad 3dfa0dd9 be902102 be6ff5db 3e24ecae bdf79692 beefc8e5 be8b0c9d be35648f bea33aed bf10637e 3e777a3f beb5cba5 be7875e9 3d7c18fc 3d8a3e64 befb8e57 bdf8787d 3e4f5623 3df8e800 3f103bd2 be18180e 3def6d0a bd8281fc 3c4590e2 be5458b0 be9dbd61 bd68023b be46d3db 3de6326e 3eb2ec55 bd4cad1b bd7260e8 3b36c13a 3e5e83dd be9704fa 3e82b02c 3da778bc 3e0178cd bd5b6374 be2601a7 be473662 3d2378ff 3e6984de bf2ecbf9 3e27e7e0 3eac8e59 3c878d6c bd89d61b 3d58efbd be0018b4 3cf1a6f8 bda936f4 3cb7905b bd2d7f17 3e478ee9 be2cb389 be43d1cb be123b68 be29cd5e be0127ff bd5cf638 bda7b955 bd535b32 3cd3bd23 be456e38 3debb4c3 bd507e1d 3e6fa08e bca7e42f be7e175b bd32e1cd bd675ba1 bea3883f beaf6c94 3e3c158a be0e712a be043665 beca93f3 3e13eed8 bc921e80 bd5c81dc 3e4e6075 bc90eeee 3f0ad96f 3d1888c4 bd439650 be283c0c 3cbf1b2a be1ce16c be179c08 bd7ff650 3dda27ea be434540 be47ca34 bd92122c 3dbd9738 3f8016cc be5afbdb bdf70274 bebcc778 3e1f5371 3d87f8d4 bd21cca1 be21f7c8 bda068b6 bec2d035 bf0f032f 3e83b611 bc4b1843 3befb711 bd2b08a3 3d6b121c bdc43629 bbf42f27 be2a66bf bf5a4d38 3e0324f1 bd80fefb 3d1dafef 3cacb69c bd31d896 3dd07647 3e1ca4fc 3d970bb1 3e6305f4 3d32b2e1 3d2ed576 3c8f5914 3e4aede7 3de49a75 bd47c25f bc531375 3dbdafe1 3e4f7f83 3e0be2c2 3d754494 be429097 bdaf0a48 3d57708e 3db5b2c2 be66f5a3 3cb0a35f be896433 bee825a3 3dd260b8 bd3e980d 3dbd25d1 beba3624 3ed21092 3e087a8e 3dabe805 3dcdc509 3e3beb90 3df474af be1ce664 bcc0fc95 be9abf25 bd1e748f 3e115473 3daa1990 be708134 3d8cdbe3 3e329320 bdd3137a 3e0828fa 3e8d3f59 bd9a74e4 3c9814d6 3e41478e bc940010 3d23aeaf 3d7454c1 bb533b94 bd6847f3 3cfe6b94 3e148f40 3e014bbc 3e0213e7 3eb46b88 3e4f13bc be326325 3c919cb6 3de6460f 3e3272a9 3e5e27ee bc2c516d 3ea342ef 3de96896 3dda2fe2 bd5e28d1 be4ad8e9 3da9a845 bde54f58 3f459e65 3e76cefe 3ceb7d78 bd8314a5 3f23fd64 3dc23758 bd382789 be7ecb5b 3ebf49c6 bdb0282f 3cf9fd16 bec0c392 bd4d45db 3e69a8b6 be3fab54 3d7a8f31 3d9c0f38 3e5e531b 3e42dbeb bd9c412e be7dd77d be83b13d be4cb652 bd3b8cc6 3c83ccdc 3ca67edd 3e742e5f 3ead88a2 bcc9c9ad be8e89e5 3d848566 be92870c bea3d841 bd8f40b3 bdebd48b be871890 be108a4d be8dbec6 bdca749e bdf42d24 bd10e8e3 bde7db3e 3e356f63 be818f06 bf0e1043 bed5f00a be9bd0a2 bd950ded bd157325 bea53514 3f5ea42d 3e999b94 bdbf3ff3 bf2627f8 bf841b0a 3e7dff2a 3de2fce0 3ed9be3d be34d723 3e2e96ea 3ea1796a 3e1b6a1b bd9d4228 3e829b95 bf302066 bdbd49b5 be1a173a bc94beed 3f5323eb 3e38d9a1 3e37b76a 3b32966a 3e571aa2 bd2f99b7 3c2ddbb9 bf049886 be12cef3 3e12ddbe 3e95ffd0 bdd26190 bebc468b bd922030 bb24754d 3dce6c06 be16edac 3dba838b 3e848c41 bd33f5cf 3e43b6d4 bdb360ad 3e40e667 3e5537b9 be502e3c bda37157 be879450 3f0926df 3f529948 3dd66088 bd52a35c bdfafc56 3eaf3ff3 3e9e8ced bd65d0b4 3dd16816 be3efd05 be59edd1 3edeceeb bea81021 3d22cf3a bd897e89 3c3d611d 3e4ed31e bd8a56bb 3eba6fc1 3dab6b1c 3d97e2eb 3e01f59f 3e27c478 bdcbe8d0 be9a6846 be259473 bea11588 bd925dcc bd49dce7 bd386f5b 3e810b8f bdd54599 3e160f87 3f16a030 3d9e5570 be447ad4 3e0c3a07 bfa94626 3d63651a bd7b904d 3cd185b5 be9d472c bd6ddf30 bb6aa905 be68652b bba49f55 3c9d4a98 3edcc36e bdb35090 bf09f2fd bdaeeab4 bf131a05 3e8b8381 bf122dee 3c80ad7e beb913cd bba30dee 3e622e15 bd1f2b93 3e7167df bebdb763 bec1e9c8 bc0b5f87 bceb64ed 3d96f3fd bf1ea532 3da7c03f be807d48 be0758df be826d59 bea140bb be48e6b7 3de6b2ca bdae06c4 3c65b499 bdf7dd39 3e2bf9b7 3e83520d bdc8775d 3e1c5d20 be1a57ba bd7e3517 bed30ad7 bf13b1da be8b4156 be5c1c4a 3e003dff be22e61b bd164e99 3d78bb22 bd5a8599 3e3f0209 be87bdc0 be571155 bdf84729 bcd3a0e5 be3d0bb9 bbec7420 3d8cfb4c 3e1c481c bde108a2 3e916cf2 3ddee743 3cff3e9b 3c9faa60 3e6b2524 3c9b0c0e be19fe5b be19abeb 3db2e743 3c919511 be582730 be08b0ad 3bc1b4fa 3e1dc390 bed937bf 3e153979 be0329ba be003e4d bcf40c7d bceb2a40 be37c032 3dbf5504 bc08f9a6 3ce75da7 bdda63a6 bca1f990 bdf65069 3df2ee1b 3e8bb8fd bc80cef5 3d0ced49 3db52cbc bc5dd4a5 3e4056fd 3daf065c be22bbb2 bd88f0c7 3dcb1d9f bdccccb4 3d98bd03 3dd6f14e 3d87ce6a 3d84bf71 3e82186a bdc4b5e1 be16174b bf2200fd be91d031 bc562ca7 3d5fba62 bd0345ef 3dd5e460 3c956b0a be20d28c 3e0e6614 3dade0ae 3daf496a bc9b9838 3e0f7a75 3e26edc0 bd11cf8e 3e881bde bd03f37a 3dc0476c 3d8ded58 beb53504 bdf917aa bd334b76 3c2c8ddb 3ddf3554 be681575 bdeecb13 3eaf529b bdcd0cce bed146ca bd751e42 bc8044e0 3c584a71 bdfd1e1c becc2fed 3b86f256 be2f9fa4 3d87ed6a 3d420bc3 3b5e35fd 3deed076 3dc10f6a 3e31e89f 3df8d21f 3d1620c8 3d63b4e5 bd9c52b7 3e0f9ca4 bd7377bf 3c20911f 3e08a4b6 3e44a1e2 3d7d29f8 3cde7fba bdb30819 3d41aa6b 3df1dfaa bc96ca02 3dc546af bdb8f1ed 3e004bf5 3dd59b98 bc7ac3e6 3e0b0fb3 3c3e6f5c bed2a3a8 3dcb024a be12c1aa bcf1b86d 3d9314c9 bc8448e8 bcd25205 bce8ef46 bd2be36e be049164 3d436e96 3ce2554f 3da99019 3d35f03c bd2ce17f b9b57963 bce833fd bcf3e73c bea86ed0 3d0c2f71 3dd18c7e bdaa0079 bdbb1901 3d715eb6 3e2cf06e be9a8ced bd602ec0 be3ed18b be807a6f 3e2d1c77 bc4ce464 3d6a87c4 3d451fa8 b944c1bb bd0cbd6a 3da64802 3d84910c 3e1351c9 3d582b7a bc6d9163 3aae31d7 be1d0bd8 3da85282 3e127220 3e08a085 be3a7ffb 3df64909 3d2dc608 be170310 3d5b28af 3e64167f 3d727027 bd576a35 3e3e5d77 bb9ea87f 3e9bc291 bec87924 bd6bdb6c 3e097b5c 3df30ad3 3f199582 3ed39104 bd85f222 bea52401 be057b23 bd71a66f bcb61142 3ec3c655 3daba6d9 bd5dc976 3bdb9cdc 3e8ba088 3caf5932 3e7b01ef bbdd384b 3f27907d 3ea8d4dd bd0108e4 bd9745d6 3c281ee1 3f0b1a4c 3e1cf63f bfc1006e bd9d81e5 3ddb9cae be553cfc bea8e200 3e2a0a27 be83fdbd be36cf63 3e1b79cd 3e013eb2 bead43fb 3e08c74c 3d107f6a 3ea0bcd8 bcb7db4c bf1f8964 3e69450d 3dc37637 3ddaf4b3 3dcf0cfa 3e5b6582 3cbdd5e9 3f2fd7c2 3cdcc250 3e17231b 3db37f85 bcc652ef 3ea41bc9 3da85254 be81bff2 3dc61969 3d5d36e5 bf10deb3 be28a124 3e583552 3e2330d5 bde81590 bea2764e 3ee82144 3e3a47cf 3d859563 bd5efd04 bec1238f be041dcc 3e23ca66 3e9f2af1 bd515372 3ee9b996 3c52a510 3daf2fca 3e293549 3d908500 be943106 bd78e8b5 3d5e6d29 be77e562 3eabf856 be09473c be0a5f7d bd673b03 3cbda3e9 3e30a2e2 3e21eabe be4b1408 3f0f1902 be4fbb78 be0a79ff 3d06d4b1 bfb5d567 3d78c3a3 bdf71101 be7337dd 3e4d1534 be478943 bda0eccf bc7b2225 be616057 be8a19bf bd3fd4a2 3e872003 be635113 be9fda33 bcc11c15 bdde03da be3bdc1b bb029674 bd9dbac7 3ea9e922 3de715da bdd5a4c4 3de9d215 3f678022 beba93b1 3e23d40b 3c8b19fb bea364e0 3eff0d29 bb82e235 3d00784a be9a1d8e bc6684aa 3eef355c 3e0f41c4 bdc216bb 3d363c66 be1cc9ae 3e433a0a beaa4b92 3da6fc90 bf606a53 be8fdb45 3e731692 bf147328 3add7bf0 be50455a be615e90 3d899502 3dde0daf 3d7af523 3e7d5dcf 3c57ef31 bee8e4e3 bdbebfc8 be5518cf be6e82b0 beda069d bebb258a bd31f915 3ef45592 be716ac2 bccc2575 bed28353 3f31747f bdd3330b 3e9651d9 bea12dca bd21b0c5 3e0539f6 bf2141ab bd47bb7b bcd73038 be4f7e86 bf362f7d 3e8112a8 3ce87d59 bd3f4f93 bde76865 bcc4e2b4 be38df35 be540e4e be70f9a6 be1cd5aa be11d64d bd230279 be07b862 3ea0fb05 3d2ee839 3eb4f575 3dc92f6e bd9a2229 3ed8c398 3d8f3b77 3e5703ed 3d2102e2 3d500885 3eb32da4 3e5bd2bb 3eb54acc 3e32167f bca37bf2 3eadb599 bd4c5732 bd2f0136 3e7d93ca bf18feef 3c9a6f86 3e7bb387 be80f97a 3e14cbaa be382c3d 3d945a7d 3f1c05f0 3c373ada bc8f9879 be9637a8 3e70edf8 be8fd0d0 bd879c57 3ee58dab 3e406db7 bee307a3 3da3c7ca 3eef9aa6 bc9407e2 3de961ae be4d3008 bf47222b 3cb64085 be11b147 bd2b0060 3e53bc4e 3e7e39a4 bec98621 bc006cc9 3f2ab0d0 3ca4a77c 3edb69a0 be942e54 bd72dd09 3e142d59 beaf9563 3e1fc4dd 3cd9eea0 3dd6236c 3dcfe84f bec115c7 3ccdee50 3e807484 3e68663e bd56f1af bf28961e beb0a965 bc4be262 3eb4b5b3 bec66819 be66c916 3d1dad6b 3c9888ca 3e442a32 3ead4883 3cbb52b3 be78afe2 be67aff5 3c90a431 b92a658b bca4df93 bca41c2a 3e833805 bec465a3 bd9dcfa2 3da09659 3cd68113 bd0a6b52 bc25dc29 bdf1b6ff 3e836b3c 3d0ba1da 3d8763ce bd079e35 3ddf86ab bc1d19d3 3e599dd6 3dd2f7a0 3e3e9e9c bd0dd453 3d87a530 beaa6dcd 3d82faab bdbd4bfe be421e1a bd05cfe5 3e2c57bb be84f9e1 be89ae90 be09df94 be2965e1 bf114fdc 3e981ac0 3d89c19e 3d488bdb 3e57f44f bea92588 3e0a060d 3cd68a60 3dc49e7a 3e057647 bd110826 bd20494c 3e2788e5 bd1c65e5 3e82eacd 3d04b5e5 3e3f3073 bf041038 3db1df4c bd890896 3d46215f bdb09aff 3e0f369f bd9c4b51 be2c956b bd24b71a bda1904f 3e565ad4 3dd81de1 b92cc274 3d58390a bb7615a1 3eb28b24 3e4af021 3db3b6c8 3e8b857d be97a5c3 3e6e44e0 3dd46c71 bdf12c01 3bd8e866 befa3a58 3d27c0b6 3dac7772 bdbc2dd9 3ca9a71f 3f013d09 3d991c45 beb81baf bedd8e4f 3e9d0b79 bd72cd3e 3e3224d5 3e4643e5 bedeb9eb 3c77a429 3e98aba5 be970c96 be3a27a3 bb0bf867 3e6bb9ba bebce5eb be15750d 3e053a43 be1657b4 3d3a7f25 becab258 beb24ea7 3df97b28 3e828786 bee48cc3 be62d0ad bf304381 3e057278 3e590d01 beb02217 3d10b09b bea7e847 beae08d5 3ef3d5f3 3b977e92 3e41780b bebfca2d 3e4e5b0d be0312c6 be3c4803 bc2518f6 bd288d91 3e929e9f 3e136fb2 be767fdb bdca0195 3c8c3dd9 bc782e1e bb2d7dd1 bcf842c8 bf45299c 3dfd25ad 3dac4aba 3df15809 be10e7d2 bea83e55 3e7040b8 bd621718 3d908cd1 bd9bc3c3 3e3325f1 bf38b4ab 3eaf7629 be1f493e be5aa061 3d441641 3f1614ee bc9fbe79 3e546de8 3e877e9f be084e43 bd7caf28 bf907cf8 bc8c18da be943792 bef5551a bed3ecfe bd145ee1 bf08de39 bca6ea09 3db8bbd0 bdb91e18 beb6b83e be08b218 3e27b7c1 3a36c130 3e4c7f14 bebe0d6c be0f779a bda69657 3e034f79 be2da7e3 be3e6650 bdbb19fb 3d87105a be94d71f 3e4ee362 bde18934 3d9f7685 3d5eb7a6 3d3e3409 bea5b9c2 3d80de13 3e3f8bf6 bdd89e72 bed32dee bec46509 bde2d7b6 bd5f7b54 3e20f874 3e693cf9 3ae11163 3bf1d552 3dfbc5cd 3d88d4c7 3dbb5aca 3d212c63 be3254c3 be207117 3e1e84bb 3df4c4f7 bde67146 3e188e76 be0367ef bc468b3f bb68a66d 3dd464d9 3e4d9910 3dbf7cad 3d4993ab 3bffd62e 3e375332 3dadbf99 3d5bb0f6 3e47e6bd 3e13c0df be756ae0 bc91134e bccb9f04 bd91f108 3dca1e83 bd0ddb76 3c8cbccf be07855f 3d43aad8 3d2294e0 bf3e2c5f 3f0820c8 3e4590af 3d4088e4 be608df0 bc255f9d 3dd2f69b 3d27a2b9 3e7a0361 3e397247 3e043194 bdb2695a 3e4e6e1c 3e7ca4a2 3da60701 3d858f58 3d4005a8 befd62fe 3e2de5f1 bdae71a9 3d9313a6 bcca5066 be1b0b19 bdfebcb5 3e6e8a7f 3e2705a7 3e8122d7 3e8ae9b1 be98024a 3d45c324 bd065d22 3e24c7d7 bec4fee1 bd481329 3d413e9f 3e35a11c 3e30aa77 bec1886e 3daae11d be824acd 3ce83d7f be2c384d 3d21532e beda4f73 3d2cd137 be5e3e95 be1b0e11 3ec42472 be16156b be3bee2d 3e8457ac bcd59cff 3ddd7e10 3d235f06 bf8f2824 bdb84d16 bd819952 bde9be1e bd65fcbd 3e727eaf be7b7cad bdd25e86 bc6b0c91 3e092360 3de4e236 be8a3a52 3df47dfd 3e1275e1 3ea4cdcd 3db12205 bea26a9a beb0ca7b bc8ecfc1 be101136 bbe97e2e be63d542 3cc9b945 3f628bf1 bd52424d be35c283 3df428af 3efc02de be6f78ef bed35d66 bd816e9b 3d1a3e7b bef962ac bbd31e40 be8ea34d 3da1ecb6 be03da2d bdaa4adc bf6b972b 3db2bf86 3daf19a6 bcc03903 3907ae8b bc9084c7 3dbd85ca bcb6a401 bf113edc be90a211 3e5e87cb bdf7b6a5 3e744d11 bdc03bdc 3d86ebf7 bcceb866 3d951f09 bc8bdf58 be8553e9 3c9418ad 3e24e804 bd035363 3d603667 be02d0ca 3e3042f6 3d680cfd bf4d2f23 3d0c047b bda5c8e9 beed5316 3eb6e5f1 3daae760 be21efc5 bea28cd4 bd89b5bd be22090f bd986786 be18bd85 3e8afc87 befcd179 3f06a7af be7dc117 bcfda415 beb20e8e bd611539 bd677b9a bddee991 be949b79 be88bc24 bf10746c bb4cf5e4 3ce63077 3d11183f 3e9d664b bd4430d8 be4fbe34 bd9f7790 3e14d53d 3e2f730f bcccc188 bd8a4c4e bd9ec3c1 3b1903d5 be8d44c2 3d668d82 bec53dab bec7ccd4 3c5f5020 bd4cc8f9 3e948131 3da7a61b 3e98acfe 3c17c759 3ed20087 3eb4e1e1 3e52d791 be0751af 3e70dbfa 3dae4146 be884ea0 3dced244 3e0ba7a4 3dda5ce0 bb32eb0b bd214a66 3db18b8c 3e822650 3e64ec4c 3e93cd50 3d908b69 3efba67c 3ec0fd65 3e024bf1 3ccd4da5 bf1e5341 be0f49d7 3e479121 bea7e388 3d2605c1 3e2acd31 3f218004 3e054dde bee26d8e be5b2e1a beb17f9a 3f41cd01 3e89dc94 3e25ad91 3e21ee0c 3d4dbd59 3e673b7b 3cecf90b 3e6e5529 bf208407 3dc15237 3e0e0ccd 3e289357 bf41c08a 3e754998 3ee9fc81 3d5a22a7 be0785d2 3e5b3b8e 3e36cd17 3d563d20 3e2d4704 bd5f51a4 3ef8eccf 3e16384e 3e4a497b 3dd4626c bd09582b 3ec3f72b 3e0d00f9 3da67ab3 3eb41712 bea4c4d2 3f044311 3e1b6456 baa2a240 3e377e11 3de6e718 3d8aeeef 3d08ace9 bd185d73 3d6af056 3e95457f be142cf8 3da69192 3dbe6793 bdda0bd9 3e11776d bdb3e788 3d34f75f be004aae 3a8cd13e 3e74519e 3d34a2ae bde8c368 3d8da18d 3ece8920 bde04661 3da70d7d 3e10c613 3e8da479 3e539b2d 3cbadd95 bda3b46d 3d05f046 3edc067c 3dc610cb 3e0939cd bd62823d 3e5901c6 3d1d8f77 3e390850 3ea5e43f bb507d30 bd7bdde1 3e2b377b bcbe20ff bf46f6d4 bce91475 3f05b803 be274953 bd13d395 3e934455 3b80fa9b 3d8c0843 3d0883c6 3e51f769 3cefbe46 3e9ddc2d 3d803fba bbc520f4 3c698366 be1f8606 bea6c267 3c7ab09a bd3b2e62 be225d88 beff3b01 bdb01784 bd3137fc bd6b7d21 3cb28851 3dd3caca 3dab9844 3c7da90e bdc03c96 bd32c7ab 3cdf8b52 3d4dd727 3d7c6dc7 be08651b be3d68ad 3c611236 3cf65e09 bf4bf3df be23f025 be2ae802 be50de97 3e73379b 3e1edfaa bea9f414 3cfaeb52 3ca5f26c be7a413d 3e8f6f60 3dd32a30 bdc034e3 bdbc407e be93a0f2 be5dd446 3d1cccdc 3d6583d6 3e01db9a bdecee63 bd886429 3df746fd bdf7e49e 3f1013ac bd5a86a6 be30501a 3d456193 3e9a93e6 3e747453 bea42f1a bdd2c01f 3e7160d3 3ca798e3 3e133789 bd846919 be1e2a4b 3e06eaf0 3ecfdca7 3ea1ea6f bddf2068 3ec74e20 3e5b1d31 3ed29b15 3cb77dea bdb20764 bdeaf27b bd95ad6c 3c89f4dd 3deafd6d 3dd8db6b bde1792c bc4dfa2c be9ce7e0 3e9f4b31 3e400f12 3db65293 3d9c1af8 3e721918 3db3ff74 3d82aba2 3bcd4e73 bd75d9bf 3e9b9bbd 3ecb27af be10be7b 3e159cbd 3e63a621 3dec7b40 bf233eb6 bd1f70d7 3e7ea721 3da6b6e1 beabfce2 3e0d201d 3e938fa5 3ea05a4a 3ebced40 3e930bbf 3eab0528 3e7bc6b2 3e8fe6b1 3dbc163a 3e74e284 3eb08a75 3e318d3f 3e475528 3dfc553a 3df1bc51 bda06753 3e91a6fa 3e375e08 bf1be45c be1fdf43 3e9f9985 bd1b3461 3d34dfa9 3ea103f0 3ee5c204 3ea788ec 3e4b24bb bdaabb2a bf3e8263 3d3557e9 bd72356e 3d2c3cef 3e56698e 3f1e03a2 3da67be7 bdbe3f3e 3e6914d0 bf67a4c6 3e22b9b3 3c1d5433 3d9622af 3d1a381d 3c91b237 bdbaab62 3ea49059 bd9adae1 3eade78d 3ee82b53 3e2754e9 bc1f4882 3e06bdfe 3e4f2fbd 3e459fac 3e5340a5 3e286540 bde934e8 3d4be4a4 3e55e1fe bcc05ebe 3d885a53 3d3e91aa 3e2c7381 be7e75f5 bda844e7 bd6305e2 bf361a0a 3e961c3d bd7f944b 3d2bd688 3d3f7178 3d118752 3dff2c1b 3d4a24b9 3dd39c0c 3ee64399 3e587080 bd8ca0f7 3e1a41a8 bd78aaf0 3dbee66e 3ed8c09e 3de86da0 bf2b2b5f 3dd508a3 3e9956bd 3dad289e be0c007d 3dbcb748 bdf4b8fc 3e92295b 3d00034f bdae431f 3d404edc 3c9125ff be17ea14 bdfecf96 3dd50dbb 3cdac176 3d6bc1ab be43ee65 3dcfbd27 3cdc6d20 be6b3278 3e1b2cc5 bdf4234a bd95dfbf 3e6c0b31 be390609 3dfb4fa7 3d2a2c67 bda53cb2 beaeb064 be3db1e1 3da98633 3d31b5b8 3e24ba7a 3d155fd0 3df29752 be08be48 bdc8f52b 3e162564 be05a1d9 be9e78a9 bd78cc22 bb457030 be8e5bf6 be8d68c8 3c83c090 3e261906 be5fd8ae 3d73222c 3ce2d2ab bda33ed3 3cbf6433 3c20b58c 3e170072 bdd4f739 3dfc5430 bc119b93 bd2e1437 3d504794 be8d2ff5 be0a25ae 3e03ed10 be99726b 3c0c47ad bea124dd 3e2ad521 be84fb53 bdda28ce 3ea2cccd 3d68f05c bd4c212d 3dd06b84 bd1dc3a9 3ca0904a 3e52d917 3e6aa86a 3df3a7d6 3c403cfd 3e0b2f4e bd946f74 bdef575c 3cffdb66 be104b9b bd4e08c1 bef618f2 be0fece1 3e501ad1 bd852235 bc21f71e 3cb93f1a 3e90d773 be079172 bd30b211 be89bc7a be3db57f 3dc237c4 3b84d3ad 3d88692d 3d4c73cf 3e66552c be4c6d22 be9d879c bc4ffff6 be64afe5 beb1cc96 beba7717 bd399719 beb45c60 be26fc61 bd05c6b0 bc6a02c6 bec366ae 3e0284c0 3ea0d16a be52bb90 3edd0f67 be856b16 3e08c5e8 3d3255d7 3da74d61 be8b6f7a beb187d2 be3c6b01 bdaf0ab7 3f16c101 3e471254 bde10867 be2be77e 3e4a0bb5 3e6f344d bede1c87 3e20acf5 3dc4eaa7 bdce4ce5 3e3b7258 bd82f74e bee9518f bd50bc96 3d379417 bee8df19 3e7e9f47 3c795b95 3e9ac58f be1c1c15 be185f2d be521c19 3caeeb1c 3e0390f4 be8f92eb 3d5dec7b bda0a56b 3a8b20bb 3e07b4fa be653518 bd7a426c be000b41 bc47b142 bcea8ec8 3d85331d 3e969be4 3ce7803e be0708c0 bdb56c95 3ed95d38 be4d37e8 3d4bf74b bdb310d7 3d96d479 3ee0cca3 3d0c3144 3ea5c3f6 3d24cef1 3eb5fe12 bdf32f36 bc315ad4 3f8af018 3e4eb5df 3ed9e5a7 3f02ed23 3f8265b5 3deaa148 bd320369 3d59991b 3ecbeceb 3e0eab4d bddefb48 3dc81124 be326a8d 3ce0b673 3d860b3e bdc393dc 3e3f59c9 bf246a25 3d9d7190 3c88dd51 3e174ef3 3edfac76 bdaed5e7 3ee688e4 3e3ebee9 be62b98c 3bc10b27 3c3c8256 be633d39 3e4457d8 3d67c18e bd408b71 3da8a77b beb5cfd4 bd0ebad0 bc2c2acb 3e31be51 3d928b46 bcab5be5 bc1e68dd bb4b4335 3e044016 3e15eaec bde0faee 3e534b74 be33ab7f 3da6c381 bd31a92b 3dd1a22d bd9815f6 3d9dd0c2 3d42c6e7 befda3af 3dbb91d9 be5d49b4 bc8a5029 3db2e242 3ddae0fa 3cf9db8f 3e4e4450 3e65810a 3cdf1255 3e26ce79 3e912424 bc626261 3dc510c0 bd7653e4 3c202165 3e8e36d3 bce2a780 bb3eccfb be8a5d65 be88a673 3e123802 3d803c84 3e07e8e7 3d762cd5 3e63ddd2 bdcb13b9 3df1aa0a bd4ca1fe be05c6fb bc1a9540 3e99d0ba bd2a9e18 3d9bf2c5 bdc42c73 be8a395a 3c5d9d13 3cd772eb 3c9099eb 3dbb7ef6 3ed34f4f 3d8c7599 3db6ee84 3df45a01 3d3bf67d bcbd903f 3d6181f7 bd8b33d4 beb297c3 3e6dc006 3db8e216 bd82ee86 3db678aa 3e48d596 bbc44508 3d36225d 3d8a3c22 3e10e0b6 3ddfe5e8 3d4c2a2f 3dc1623e 3e179a2f 3d291fa6 3dfbfe2e be2938ed 3e527f0d bebb4515 3e373cc4 3dcab0f9 be2cc546 3e95d6af bd9b6412 3ccdfe8d bc94d1b8 bd32feca 3e45dedc 3e19b36f be220d18 3ec05a11 3da34a02 3ed59864 3dccac56 bc4ed07d 3b1855b7 3ebf5095 3dd2e4d9 bcdbfb4c bc8b3d14 3da17588 bc99f4d4 3d3a022e 3dabe210 3c3b37ca bc36dea1 be07364c 3d9e5ccf bd4bbe58 be54acb8 3e082012 bdfbdf0f bd1b8705 bc1f9eae 3da1493a 3c3c61d9 3e945279 3e58c77a 3e0a8548 be511eb9 bf802787 3e38987c bc3e3dea 3f08b695 3f42a784 be532360 3d567fca bd417427 bcdec6f0 bebb53a6 be0516f7 bf1b022f bd9a8b32 be3a3502 befd87c9 3ce1201b 3debd37a bf66bc8a 3e8ab23b 3dc38fcb 3bb8df57 bb8a2d42 bf69bbe2 bdb4ade8 bd06da40 3c8649d1 bdaa59c1 3ee5eb67 beebb4e6 3e3236f6 3d19e022 3d39ef17 bd837a00 bea44087 bafa1868 3eb83c18 3ef1ee52 bcd47332 bd46f57a 3e6fcb7f be3ab43c be012b20 3da83009 3daced27 3e5b34a1 3ecd2c9a be3908f7 bf196067 3dc3d724 3f35d373 be989bc0 3e2ffafb 3dc97736 3dfe83e0 bea40571 3bcbf23f bf4f4d40 be0188b3 bd01a2d5 be161258 3f0a1cca bd897148 3e88f38a 3cfd44b9 3d94dfc0 bd37cd06 3d9715f6 bf299afd be9019a0 3d6f1581 be9b60cd 3e9dfb91 3bb47373 be5b36a8 bd2058f7 3e8b582a 3d844f36 3e9a5e37 3d9789c3 bef1ffe4 bccd04c2 be878090 3e1e922a beee462e beb1ff2c 3a132732 3d50c0a3 bed9ef42 3e113f4a be48aa48 3e90d83d be89c2a5 3e82f8d0 bef1c02a 3d4b1c5d be465d3d bf0cf3c2 3e91e992 be5a4199 3d1b9f8e bf02ec6d bd978de6 bdd71790 bcd87a77 be12b1dd 3dc09383 be1536f4 bc71e1d7 3dcb762d 3e0934a1 be62cad6 bd6be677 be8afd79 3ea1b7e2 3cdb82ec bdcd03b5 3dc82651 bd3b19d3 3e80c141 bdd4bb2b 3dca6bf5 bddaca54 bb02a023 3dab44a3 3e53c193 bce652ae 3e84bb12 be59742a bef58f8d be1e2282 bd966c8d 3c32c58e 3f7d8e6c be80dc41 bd8c2e3f 3e00ecdd be98e6dc 3ecb99b7 bdc39785 bc230f45 bdd83710 bebe62ec be9ff670 bd9c90ea be1387b1 be0a040e 3d039e42 3db083eb 3ea31a91 bf4eabc2 bf1efe94 be3fe911 bf631338 bd35362f bee8639e be886ac8 bf082007 3f583434 bdae1115 bcd766dd bdccebc7 be8ed5b6 3e5bf402 3ef8c9ef 3e2d4462 beb04f3d be912f15 be871c36 be102a0b beedc71d be68190a 3dffb5b9 bd0c1039 3dc852f6 be6cbfbf be589aa3 bd828a97 be432d46 be1e0327 bf0e8d4a be37b865 3ea5074a 3d976fee 3e391b45 beb2f584 bf3aab8f be2b9ba6 be633a1f 3f305ba9 bd7ff010 be14e8a2 3da6dee8 bd068c8c bf6435a9 bdee6684 be2d59dc 3ebc3fc0 3ebc9488 bf265dd5 3daab43c 3db72b57 3ee536fe 3d937944 3dab3f15 bba0332d bef3cd6c 3e2ef6f3 3e02693a 3ee8587b 3ece106e bf23fdce 3d730df7 bb1b8327 bf87687b 3ecf8a9c 3cf0f308 bf379f21 be1ff227 beace3bf 3e9efbe9 3e37679d 3e44a9fc 3d420c8e 3ed5b27c 3d653a4c bf6f2f65 be95c7a8 be4b6099 3eb8496c 3f005d43 be9c07ac bf0baafc 3e9e40a1 bf229ea4 be28a6da 3dd06875 3d7842cd be275318 3c763753 bef828cc bead6bd1 3f665f82 3ddde1c4 bcbcf001 3e783b92 be42d45d 3eef3a28 3e280ab8 be1ae6cb bf02bc4d bef727fa be7159af 3e96dad6 bd328549 bec490eb 3e005c25 bdadb366 bec49c3e 3d8b21c3 be670faa be16b50e bdcb95e2 be587c79 3e6a41ff 3d8c9885 3e252480 bd592777 3d1d489e 3decda4b bd42d2db bdfdbd19 bea99ac7 3e642415 3e444bc1 be6c7f80 be826454 bd4e6501 be521bc8 3e80679c be1a4357 be53073a be617627 3c9d3892 3d634f1e be815bda be27f520 3e2ce631 3e662bbb bee12377 3dc58083 3ded658f 3cb5e97a bc48cf5c bd7728fb 3d85fcba be13e0c0 3e01cf31 be7c3216 be0cde1a bdda7798 3d485209 3cd9f008 3dc0b1f0 be4780ba be46bb2f bdbc1b0f 3e695e64 bd91cf0a 3d309afd 3e025124 3e768325 3d80ef9e be2827c0 bd28c1fe 3bd95a86 3d92eaa3 bef50d96 bde9690b be286e48 bcb47289 3e8dfffe be742a02 bd8e8470 beee1eed bee636fd 3db87fdb be3abb41 3e3b009c bce10405 bdebdd74 3c79129c 3dc1ba35 bd32efcf be0dc10e 3e4985d4 3dd5def9 3dd5326d 3e1767b7 3c664fc9 bf25a083 be568a58 3e4f2bda 3e48c88b be5c55c7 3e1dbfb1 be16e9fa 3eb78449 bd1e35b3 be5c02bc bd985178 3e4549bf bde8ae6b bf01286b 3e470030 3e76857c 3d626034 3d824c7b 3e7dde7f 3d03fbc6 3d96a4a1 3e14e790 3db16485 bc56bcf0 3e5fe988 3de9e20b 3d9b252c bd91edea 3e76f55c bc77f7a4 3ea6dbc9 3df04c3c bc8c7da2 bd608253 3ea57b2f 3ebb2c19 3dc63115 3eac3941 3c3e5528 3d6dea60 3ed7b289 3db3f51d bde25530 3e38ea36 3e218fcf be4ca877 be33d782 be325902 bdcd4905 bbe213df 3cae6fc8 3e1c17dc 3d062ca0 3e37a17b bd87c537 bd4c6108 bd859ccf bd3ea2c2 3d513366 3dda7c1f 3d058380 bdabf112 3e1c622e 393506fe be944c8a 3dc54aa1 3d1942bb be586895 3d8ac43d 3e29df81 be656a9b bc7722ae 3dc8f765 bdbbe0c1 beaa9ed7 3c67c78c bdaaab6d be23f800 3e441bee 3e736bfa 3ca45edf 3e84551e 3e961c06 be2e1d69 3e1a6b3f bb4ea8a5 3d77b5d1 3d87eb1e bdce398f 3e097ae7 3c8a2611 3d98e77d bd01eb4f bdc99db0 3ec69f04 3d5b0932 3e914266 3d3ecdb9 bd86ede0 3ec773fe 3d88df05 3d603e2a bd4ffd04 bb35b545 3ebfef5a 3e3bc77d bd8a4ffd be79fc89 3eb64650 3dc97741 bd88647e b9e37bf9 bf99508d bf0161ae 3cd35798 3e879637 3e6fb325 3e227c12 bf307c84 be1916a3 be2a1440 3d5d727e 3d9dc936 be01e85a bd9d1405 3e819f73 3e3f8b77 bf0bbff7 bf3eb148 3e31ea0a bbd67a03 3f107ed2 bd1cc86b 3e8081f3 bd234d56 3f3c21e4 bd233982 3c2fb2df 3d8d7b16 3d52c5b6 3dcc6f10 bd96777f be934782 bdd0d041 be267cd5 bf0a77b3 be47ee26 bf3858b0 bf2ae178 3d2da6bc 3de2302b bd4e9bbd 3c32dd5b 3d940da5 3f064608 3e803919 bc6fb191 bf1037fa bf0d31a2 3ee47072 bdd9c29c 3e5ae85c 3e28ccd6 bf1ffca4 bd342f86 3e190650 bbb62455 3d07b10c be9f6aab bf4fcb5e be8f5642 3e30eda1 be1fef54 bf00454a 3edb4703 3d5040e2 3e56db21 bec26b5a bed71e5a 3d44b859 bcd25408 be63d90b 3e6387d4 3d189a08 3ec1e2e0 3d80988f bded58ad bec178da be92bfc7 be824458 3d6a314f 3ed1186f 3e45b7e4 3f3c55f5 be933cb4 3f35fd6d 3e2047c4 bf04bc0b be9d1d88 bd32971e be7a6e94 be43596e bef5ce64 bdd92037 be4f57a3 bf0f453d 3e77cf3c bf33534f be5847b8 be3884fb bed5a363 3eb5deef 3ebc252f 3d062dc5 bed2251a be82bbcb be53301c bd5a5d00 be015495 be0ca54e bdb6d443 3e4956db be5c4bd8 3d4437ab becaa9d8 be33c109 bef575fc 3f0b1093 3f150a0c beeda625 bea037c8 3d90856e 3e9fad41 bf02eb21 bdf5f12c bf01a85d 3e76867f be992857 be7478ad be231639 bf333e12 3edd91be 3da76ac4 be10b32a be210bc3 be485480 3f000334 be863daa bd818a28 bdbe1284 bd4ad5ed 3ebdee22 bbfd4833 3e906d7f be7de89b bf506533 be2285dc 3f349d5d bd4a6892 be99d5fe bd753f46 bc10716d bec8ee06 3f84d7e9 be2bdd65 bde27010 bdb6215a be55f302 bc8c306e 3eadd74f bdd0d0a1 bd093939 be6326b1 3e92f03c 3e83e0ce 3e3447af 3e3df098 3dbf81b1 bdfcedb6 3c59dc1f bde88639 be84eb6b 3f95eaa2 3cdf4dbf bd23f78b be70967f be84017a 3ed9a494 3e8b2787 3c3fad29 be549c82 3f3aedf3 3ec02671 3e7d388c 3cbaf9c3 be53b760 3da5381e 3dcdac1d 3eb84095 3de7bb93 bc2a397e beaa0341 be63b834 3dc55474 be83d110 be89b4fb bf427bda be8ed0b2 3e99b71b bb0ff4f0 3ec6c1b4 3e29a437 be66e6cd bc86c3ce bef8a3fc bee013dc be1cc4b0 bd2c1a96 3e0dc80a 3e2a14d3 be016736 3d01f8b0 bf4538df bdea8d2e be83d3e7 bf2fda49 bc0c1565 bf0d9d32 3d89f569 bf20d7c0 bdede3a4 3e6bb1f7 3cb4fbaa be783c71 bee749a4 3df0bc1f 3d597078 be828782 bf20f683 3d032b97 be3748b2 3d5011fd bf12c82c bf33aa8f 3e1209c5 be828e53 bd98951f be3fddf8 beeab443 bdfb4fde 3e95e0f2 3e48bb52 bf134c87 3d12f8d7 bbc88b38 be20d15c 3d20035a beb21699 beff9797 be45c5a6 3db1394a bf3432d1 be90f48b bebe649e 3f16f11e 3ecc73b7 beb19be1 bc7f37a8 bf262004 3cdbd1b4 3edf9bb4 be9938f0 bef088dd 3ea43bb1 3e8fdf5e bf3b3b15 3d018f02 be0d0ffb be30dd65 3e4ef49c bf0458c1 bd20f2a9 3f2bc4df bf4b00ab bece07a2 3e09bb5e 3ce9b58b 3e4ff021 3d3f79a4 3e841cae 3dbf89f3 be03454b bcbf2d04 3eb9a888 3e1a2910 be0be4d0 be2d0662 3f1694ba bcac8cf3 bd062aa9 3e2ae6ca 3e2f990d 3f42cab9 3ef45840 3ec80d26 3d0a81ee 3da41112 3e04e262 3e538875 be8ad05b bbf23517 3e3fe895 3e653a3c 3e460ca5 bf33f2fb bedf9f71 3f662fb6 3da898a3 3e0a1cd1 3e9e110d 3dfb9c20 3eea5889 3d96f585 bdc28a78 bf03eaab bd6eab7a be9c5e7a bece570d 3e6fa431 3e619b0e 3b2eb73e bdc34589 bd77aad3 beb139b1 3deeecb1 bdb83ed0 bd5232eb 3e3fb963 bc8f167b bd658be4 3c76071d 3e25ffd1 be3aa8f5 be6cb8f9 bde1d223 3c1b7385 3da5453f 3d541dac 3e475ef2 3bafb892 bba77c9e beabef73 be0f82a9 3e5bfc34 bf203267 bc251da0 bda83d70 bdfe909e bdc1527f 3e511ff5 3c2ab5d2 bef7d1d9 3e2bfb76 3deffe4f be218334 3e5b861d be0ac82b 3e0ff98b be690559 3d693f2b bca59cf2 bd311976 bd38deea be63de93 bde52512 3e8e9f87 bccaefcb bc82be7a be8ee700 3c35d5ba 3e91898d bdc641b2 3be53b23 3e60a1b3 3ddb371a 3c583e60 bd89dc0c 3e036405 3e6a4b43 be3acf8c bdd4837b 3c15392d 3df4ea09 3e9eebd4 3e1be74f 3cb42710 3cac68db bd579fb9 bddf33e7 bd5e61e0 be301a18 3dbda252 3ecf52c2 bda67338 3e992fc2 3ddc2855 3d87191d 3c4b2dab 3d17a1fa 3e95e601 3e99c290 3de395ff 3d3ddda7 bda5d2bb 3e27279a bea8940d 3cdbfa9e 3d32529f bd7cc142 beadc553 3e2c9287 3c3a932a 3d8073d1 3c4b052a 3df86fa2 bef41341 3e8af868 3e2c62ec 3c1a2824 bc6e2346 bedd19bb 3e0c395a bc93e4ea 3e11ee70 3d9bbefb 3e066d60 3ec11b97 bd6e7357 3ebcf46f 3e1165eb 3b7e21c3 3d914f5d bdc61d06 3e27e9a6 bebd311d 3bf978af 3d8d8d45 be8088c3 bdcae42b 3e656970 3d0a40f1 3d7e1918 bdab8d89 3ef46205 3e1c9476 3e464825 bd72d29b 3dc2aecf bf164985 3e077eed bf437d71 3d88ef69 3e1ff1a1 bf311580 3e2ca98b bdcc73ee be69bb7b 3c7e423a bd6bec92 3bd6d9bf be018428 3e4f4190 be3f73e4 3e3b8a8e 3e017686 bf0dde0f bf0fdb27 be262516 bdd92cf5 bdcb776e 3e1bab4a 3e0a312d 3d023cf9 3f04426d bcd4a330 3e3bf3ce be65926e 3d112a73 3e725c64 3dab4d55 be6e8c2c 3dfcb501 3e3f3653 be84b900 3e5319a6 bda81067 be5d9ee8 bdb1e646 3e334740 bd57d10a bc859d89 3e2cd43e be17b3c5 beb45253 3dd90f17 befa9fc3 be84df24 3decb292 3ed9a0b4 3df2f97b 3e3d42d1 3f09ab31 3eb397d3 3dbf51ae 3c1ca6bf bcee1cb4 bc7e287e be721eeb be2ca66c bed30135 3e6120b0 beb4e221 bde53bf4 bdb9a22a 3d5df7fa 3d934b32 bed350e8 3de0decb 3c8e47ad 3d3bab87 3ec2728d be0cd9c3 3b828a39 3d20efee be61a5fe bd8c05ff be1191b6 3e12061f 3e5e6761 be95abc0 bdd5ef82 bd7e6044 bdae8e28 bf8d73ae bd3aa445 be18d0eb be168bf9 bed94a97 3e3ba43c bec797d2 3e673411 3ca426be bded98a0 beeeb589 be2924b0 bbaf3f7d 3c6ce929 3f1b3afe bebb2a33 3e108ebf be762607 3e913354 bdbd8d08 be8eaa45 3e09b841 39683dd4 3eee8980 3e55ed3d bda42e92 bdabde06 bf2529dc 3c4b080f be998cfb bd1318fc 3d4c7358 3dae91bb be048df5 bece89d0 be0a8f1d 3e199d20 be0b4f6c 3d45bc4e bd7c036a 3ddc995e 3df71596 3e476c14 be87dddf 3d73a93e bd61ad7b bdb00a2c 3e0ed6bd be99f92d 3d6ef32b bb022521 3d2f5b79 bd820640 bd95a9e8 bdc37293 3ddba777 3da7f8fd 3cd23a79 3e1bc88b 3cead22f be2f089c bd7fcb06 be0e48e6 bce34014 3e209f58 bd008ecc 3dc159a1 bd3a813f bed5e997 bc8bf905 3eadca61 bc6aaa3b 3e1c32c1 3ec48681 3d039abf 3d819367 3e353784 3e007d16 3e8601ae 3e4a80f1 bd54936d bd76c551 3d81d02e 3e9432d8 bd2c4889 3d875c63 bb73b45c be6652ca bd28bea1 3e1ac522 bc8bdd83 beb78750 3e64db5b 3e7deeb9 bdeda5e2 3dbddb9f be282afc 3c83e659 be0c1fa8 3dfbf6f5 3e152d3d 3d4dac7f 3d2e3cea be31a958 be20abc8 3e64bab7 be36476f be57ade2 3d6f3c96 3eb94cc1 3e97bb00 bf4fe373 bebec7cb be44e0c6 3e4bea43 3f232b5c bbd59332 be3f0182 bcd90952 bf5d6ea9 be9b63e2 be0ee73a 3e6657cf 3e7199b9 bef3017a bdbb815a 3f28da07 bf1d8494 be8011b1 bc61ccbc bf3d11bd bd3d1d52 3eff704f bf11535d bd88fa7c 3ee48792 be890ce5 bdfb8295 3eecdb0a 3dcfec27 bdee8ffa bd38af99 3f976820 beb19e0e 3e3839db bf271104 3e885779 bf2d608f bf368a46 be8a7d6b bec36a86 3f4706f1 3dff98bb bf21f947 bc8e8510 3f9a0b51 bea89f47 bf894526 bb9cd8bf 3de74250 3f145869 3f60bfd3 bec191d5 bf1d40b9 3e0ba54a 3ed7bc24 3f7e2a82
subgraph.layer_seq.glp_0.linear2.bias 64  3d3d4b80 3aa61419 bd03ecbe 3e1e8089 be4d3dbe 3d0b11c0 bd568598 3cca0224 3cdd1978 3db7c7e5 bdba0143 3d35fe06 3e63b7e2 3d88daad 3daef1d8 3da237dd 3d07721c bcb14a2a bdaa35a6 3cef0fd3 bd566053 3d70c82d bd4c598e 3ca813ee 3d90f4a7 3da3a3c7 3deb16ed bcc54db4 be2b557d 3bfad883 3e1e2366 bdcd3bc8 baef92a5 3dbf50af bdf8f13e bd2ac53c 3dcd38ef 3e4c5e92 bb81c2fd 3e69a862 3e71dd9e 3d9d7648 bd2496a0 bca2983c 3da8cdf9 3d52e2cf bcee20bc bddf7c16 bdb42ff0 bd9f235f bdce319a 3df93076 3d770bda 3d3e1ccb bce7a0c3 3d5b2f24 bdc70055 3dc93ed3 3d0ea044 3de8c850 bda249db bd205991 bc6cf123 be280684
subgraph.layer_seq.glp_0.norm1.weight 64  3e87796f 3f03ecea 3ec1ec61 3f5d1c45 3f1d97cf 3e35a415 3f9a52ba 3f7e1e1d 3f28d9eb 3efe8337 3ee8e6dd 3eee521b 3f2290f9 3e8ee9ff 3f792cf2 3ddb5eef 3e0cf66f 3f1c0170 3eddad4e 3e92a293 3f096cf6 3f54752e 3f044a8c 3f3508b4 3ecd3045 3fc45d8f 3e49fe13 3f016f9d 3f0baa57 3ff60076 3ecf8827 3eee8c77 3f7f7481 3e16d219 3ef5fd4c 3f7c9311 3f10c45f 3f7a0b41 3ecb51ad 3f8ff5c1 3f1277b5 3f10936c 3f152897 3eeeff11 3ef54a32 3e8a82cf 3eaafc61 3e82c474 3f5f7b22 3eccb396 3edad6c4 3f058c3d 3f62fd0d 3f0e6b69 3f1771fb 3e538be7 3ea7a4d4 3f34d785 3f2b74ff 3f053359 3e885e59 3e817e26 3f581929 3f62cfc6
subgraph.layer_seq.glp_0.norm1.bias 64  be453245 be131395 bea38635 bdc5039e bdfc7caa becaf4d6 3d835bb8 bd41396b bd8ff07e be391b59 be326e2a be2496f2 bdac598a be74f3d4 bac51c57 bea3422c bdeb76a1 3b1d2fa5 be0845f4 bebbd068 be348c9b be176153 bd272d1e be3a2102 be358484 3e03d098 be6c7f37 be050cde be0c7f88 3dc33185 be873229 bdc3ecfc 3c98492d beaf3db8 bec2315d bc340f6c bdc13263 3d9c6480 be6b52ec 3dcf3897 be44b5e9 be4a2763 be32d3b1 be2911fc be1b7c04 be14805c be9f124d be7fb457 bead2ff0 be65eada be539f21 be8ae83a bdebac42 be5bfc12 be4864c4 bea24378 be05721d be0a6126 bcbcdb03 3c5c0f38 be694ce4 be85cab2 be21bb5d be99061a
subgraph.layer_seq.glp_0.norm2.weight 64  3ee96d15 3f449cbf bd4337a4 3efe562d 3f116a10 3e7f8343 3f2d8625 3ebbb989 3c566170 3ea3c18e 3f2c82ac 3e13d693 3ecd25e3 3ee19783 3f184cd0 3ef878e6 3ed465da 3f1a3b85 3eb5cc44 3e2f8afb 3e9cd258 3f1669b5 3eece9b0 3edb9f57 3efb234d 3ecd167a 3ef74399 3f4720e9 3f42f25b 3f065991 3e82d6f9 3ee1930b 3f03e602 3e342857 3cfde836 3f651bb4 3efa9052 3ea806b8 3f5f82ff 3f000b8c 3e359d02 3e3f7066 3f10972d 3f331b02 3e8d2909 3ec6f35b 3f10a43f 3f739550 3fa84db3 3fba22c1 3f10d2b6 3e2b41d7 3e5d82f1 3ea165eb 3f50320b 3e1f4180 3f4372ca 3f1ccae3 be44ae2a 3ebbacf7 3f4b11ba 3f2485e2 3ec0d166 3f8368be
subgraph.layer_seq.glp_0.norm2.bias 64  be22c39e be684b72 be08a554 bc822e97 bdeb9077 be484822 be9b3ea4 be530a53 bd973369 be95ce1d be1945a0 bd3eaf0d 3e005096 3d7c8ec7 be315fe8 be2b93de bd62ca23 be17b509 be0ebfc3 be221067 bd9f349b bdd464c1 3cc21fff be010442 be15714e be4dbeca be743c91 be378897 be5fe73b bd5c87c3 be58181b bdd16c42 be0c423d be2c0189 be5241ca beb44f1f 39247a19 bd883f0a be00bdeb bdbd0157 beadfb2e bdafba13 be96f4b8 be815b8f bdac53c3 be017dbd bd896669 be940a1a be917b75 bed07df0 be255ebd be4e9bc0 bda90b18 3ce85e6a be07284d be6706fd be10612c be22e6b0 bed1e4f4 bdbfe4ae be595d70 bde8f026 be0cf701 beb5f45f
subgraph.layer_seq.glp_0.shortcut.0.weight 384  3db95d2d bda5c19b 3e156e70 be64d803 be33d861 bde7745c be7c64a4 3d761d4a bf415be5 400cac6b becad0ce 3eceb096 3da0a6c8 be14c13d bf33fe86 beab29fa bf028d7b bfb3eb21 be2345f1 bd98fc8d 3ff94864 be58b7b1 be82b60e 3f4d980e 3e6f67a6 3d7f7c43 bf3fa481 bf71f0e1 3e82272e bcd5faf2 3e094ebc be9c2a7c 3f243a49 3f56c18f bec98d54 3c2276e1 bc207e3d bd040050 3f8224e0 3f873eae becc2ba0 3ee4ee6e 3f0bd635 3e1cb07f 3f0ee7aa 3f5e90a8 bdb2c165 be54edc4 3eb982e1 be2e4c3d bf8030fe 3fb3abed be9704f4 befc406c bd9e3f9c 3e837b81 c02de36e 3f84cfe0 3e6c6696 3ea0cb9f 3e317b33 bea2ed95 3f432405 bff24890 bdccde10 4002fe08 3fc08685 3ca7bcf1 400dce3e 3f7d24f5 be184365 3ed4318f be7ab44c bc947953 3de4ae49 bf48f8c0 be16b83f bec1fd45 beca5b65 be12e567 3f7774bf bee88b83 bdb0546a 3eb6b525 3e982248 3d790e96 c01a1ced 3f19deb3 bdfb205b be8c57ad be90f8b1 bd33c6d7 be023f41 3ee4dbb2 be018257 3f9623fb 3e7d281c 3ea234f0 bd03280b 3d25b52c 3f152bdc 3f55dc3c baecc269 bea0f43d bf0bb3df 3eb09dbb bf0a641c be889baf be68cb3a bea92fbe be605eef 3f9f5dc1 bf38f073 3e52a5e0 3eb3df76 3e1517c4 3f86e33d 3df3c5d9 3e872dc0 3eaacc4a 3e27da47 bef60316 3fa2d944 3e493db6 be11880e 3da1c0e0 bbaae0ec 3e37502c 3eef7fa4 3ff3bfe9 3d0d9936 3dbe48bf 3d4206fd bcefa71e 3bc04390 c00060f6 3f0644a4 be365ef2 bd79d3d0 3ceb6714 c0261d04 3f1921e1 bd53669d beec75ff 3d90a2f5 bdd31922 3f470e1e beaf3f59 be4099e7 bedb4cca 3d1baab0 3d699313 3ef6b7c5 3f342ef3 3d32f225 3c5cb4c6 3e139eb6 be1007f1 3f11b48e bf872318 be34d486 bf10af97 3d8b8416 bdc46a87 3fce6143 3ef20125 be6f1de8 3e4dc3da 3d4b396a 3e94cae4 bfe4814b 4026cd56 3db368ed 3e93843b 3ec1f654 be14e5b3 3f7a813a c00a1c5b 3e2597af 3e895f53 3e005f36 bd8383b2 3fc0060a bf29acb9 bcaea00f 3df29d74 3cdb7848 3db7b4c4 be368788 bfde86df 3f150f6e be865c05 3ec20b29 bde9a86a 4029abde bf3b94ba bd692c96 3f2e2229 be05e017 be43df36 bf832b24 bf58d5d5 beed80ed bfa2a4cd bdcb769b bdd34f1a bfd2b055 bfdcaa9c 3e61286e bf1bd51b 3e0ab0fb 3d614ddc 3f788ef4 3e163544 3e2396d9 3d486065 3e563031 3e5523bc 3fc652fc bf74c555 3f125ac2 3efe4700 3d4cd4c3 3e78125e 3fdeeaa8 3f1ea974 3efc8f45 3ea2bf4b 3da799e7 3d30439a bdf1ae62 3ee0db01 3d2e5966 3e617728 bec3b525 3cad9870 bee4dd36 3d784269 bd9580bb bde47714 bdaa250a 3e1738cf bfc07cc7 3fac7e5e 3e1abe18 3d89a8dc bd887080 bed9e76f bdf24bf9 be4e516a be02ef67 be3cd4bf 3e06cd72 3d60e7c3 bea08686 be3d7ffc 3e687827 bd84ecfe 3cd4485b be86b5ec 3f3c6f6f bfca20e7 becfaa9f 3e11e6b3 be8e8628 3cd8b570 4011fae4 bf3971a5 3f11b5e4 3ec6b997 be9f6982 3c8bb53b 3f90a87a 3f61d363 bd82eb36 3f8b49b3 bc5c80bf be9bacf5 bf64bc8b bfe53970 bcfc2084 bf84555e 3cc0df52 3eb4a207 c0289858 3fd9c45d 3ee456e8 3d58f502 3c921b3a be298a6d bf482c7e bf200a39 bebbe642 bf220597 be57b3df 3dea162a bdd36648 3f62fa97 bd47eb93 bd521014 bdfb835d be36dee9 bf6eb848 3f0cc09e bed0e274 bebb1296 bd9f900c 3d5d2485 3e103802 3f80c931 bdfdfe52 3e2387ac be66d506 bdd79f51 bcbe5b12 3f9fdfc6 bf09c003 bebfe8c6 be4a938f 3d037b07 be97a421 3f4aaca7 be6334d6 bff277ea 3bd6999c 3dce9aba c00009f8 3e7d473a 3e315825 3dfc205c 3e5fe41f 3d738cd0 bd339a51 3f87e62f bce0b05f beb08e70 bd7672ea 3e0e5e9a bfa7674c 3facaa85 3dd83b0b bea06110 be80332a 3e7ab471 c0114590 3fe9f718 3eaae729 3da681df bf56c40f be4ebffe 3bfeb09d bec2ba7a bf08ec63 bee46094 3d183e13 be34ae80 3f60806a 3d94dd32 beb9b4dd bf2b3d7c beb5a562 3e5c34c2 bfef07c8 3ff7fde7 3e6c19ce bd80aa49 bb59fd4a bde689cf bdcc86da bed3de59 be14e898 be4f8a4b bccc3dca 3e1e4edb 3f871b9a 3e4c17c3 3e8c43ac be2d7ca3 be5f056e be574d2a bf52d577 bfca4d9d bf02e1ff bdc85603
subgraph.layer_seq.glp_0.shortcut.0.bias 64  bb0f1e31 3d059baa 3fafd88e bef97e59 3ec5c058 bf434b1f 3ed2c982 3e9b37f1 bfd149e3 beaf8403 3e52fe57 bdb5fb37 bfa0ecdd bf95ca1a 3f87f2a7 bf0de045 3e6ebb04 be8162f6 bfb8e749 3e9797d6 bf4729bf 3e9db3fd 3ea0dafb bdcea661 3db1f07f be56ca5b 3e75d713 bd6a0f6e 3de40cee 3e9d68b3 3e33f48e 3e871d0a 3cf03aa3 3f1dd0bd 3e8e458e bdd47350 3e799411 bf327a65 be04afa3 bf44cb8d bf19c347 bf01443c bc5d0a4e 3f00ac0f bf5d0bd3 bf573d85 3f42f688 3e49554c 3efc64d0 3f3c939a bf303447 3e2dfd7f bf73add0 401421da bda9f6fe 3fb75d27 bedea62e bf3b8b59 3e346545 be691038 be2682c5 3d6f87cd bc90a91a 3fa0afd3
subgraph.layer_seq.glp_0.shortcut.1.weight 64  3f218aaa 3f235b34 3f2dc18e 3f2bf2db 3ebf0f57 3eb668bb 3ed9f831 3f8ae36f 3f6bb231 3f0194af 3f44f30f 3fb7916f 3f6803b4 3f735d98 3f211680 3f69fdb6 3ec3c4ab 3ecd183a 3f09e242 3ea92650 3eea08ee 3f87da03 3f666077 3f845fff 3ed39aad 3eac03af 3f4b1c3d 3f46e5b1 3f34e2ba 3f34be4f 3e8abcb6 3eedc3e4 3f78824d 3f3de209 3f29275f 3e599753 3f16dbfe 3ebf9b6f 3f01f9c5 3f19b58e 3e9bfed7 3ea64d98 3eb0638e bd3877be 3ec2b105 3fa1eeab 3f288597 3edfd0fa 3f37b578 3f887231 3ee1708f 3fac0912 3f714470 3fe2f7fb 3eb302d2 3f72bd60 3f14ed89 3f3cad9c 3f29e493 3e96839b 3f1b6608 3eec3cb0 3eee3daa 3f28773e
subgraph.layer_seq.glp_0.shortcut.1.bias 64  be22c39e be684b72 be08a554 bc822e97 bdeb9077 be484822 be9b3ea4 be530a53 bd973369 be95ce1d be1945a0 bd3eaf0d 3e005096 3d7c8ec7 be315fe8 be2b93de bd62ca23 be17b509 be0ebfc3 be221067 bd9f349b bdd464c1 3cc21fff be010442 be15714e be4dbeca be743c91 be378897 be5fe73b bd5c87c3 be58181b bdd16c42 be0c423d be2c0189 be5241ca beb44f1f 39247a19 bd883f0a be00bdeb bdbd0157 beadfb2e bdafba13 be96f4b8 be815b8f bdac53c3 be017dbd bd896669 be940a1a be917b75 bed07df0 be255ebd be4e9bc0 bda90b18 3ce85e6a be07284d be6706fd be10612c be22e6b0 bed1e4f4 bdbfe4ae be595d70 bde8f026 be0cf701 beb5f45f
subgraph.layer_seq.glp_1.linear1.weight 8192  3c9fba81 3d2d6550 bd340043 bd8b418d 3cf585b3 3d053c21 3c1b31fb be2fb18a be99afab 3e0f884f 3f438c78 3d514c38 bea4eed9 be8b3629 bd71200a 3e26ca6f bbcbd148 bdd506bf be06b7ab be120840 bcd42ec2 3ebb37ef 3dd5aeb9 3dd193d2 bd94d43c bc9928f5 3eb58654 be2b19ae 3de5b42a 3e935480 3e6ac406 3c15dacd be3be5b9 be2574f2 bda8583b bdfff626 3dcf9e40 ba36899a bd3aad41 3dcd1616 3df38efa 3d67862e 3d91c976 bd281d8e 3c2add17 3d4ab787 3ee5fc44 bd3bf754 3e07171c 3e088b68 bc27fd47 3e127c3b 3dea7d55 3debfb6c 3ea4c2d3 3e4a49ca 3d81ae4e bf40b0d3 3f27770c bcb8f3f3 bdedbde0 be414517 3d48afd0 3d720bc3 3dd58e4e 3d9a9390 3cbee55c be4a9f2d bd4f2da4 be1c6454 bd1ce873 be08cdc5 be54d7c1 3d543487 3e1f904c bd63e75c be8072d3 be9d5898 3ded6221 be042b2d 3c917916 bd1e1077 3d7c07a0 3d554e2c bca0982e bdcffaa9 bd3c5ec7 3d933f55 3d2314a3 bd56c9b7 bd70a8f8 3dd7556b be936675 bca76a85 bcdc1ab6 bd8df09b 3df3d33c 3dccfcd9 bdeea91f bdd4fb05 bca0a6d4 bd10a0b5 bd8a3932 beb673f6 bdb8f1da be07a7ea 3d46d05b bd4b19fc 3d3858e5 bea26faa 3ddfbd0a 3dfdd18f 3eebaa46 bd084088 3ca43769 bc876f74 beb986fc bd551243 3db8c78a 3ec7556f bcd30128 be0e1650 3e974679 39f50882 3f11f7f8 be29fabb 3cf6a874 3dbacd50 3d34e434 3d4cba62 3dedfdb4 beadeb0f be63f1ad 3d4d083d bd7b1203 3f039dd0 3ea67a8d 3cc62f2c be98c63d bf41c584 3ddacc56 3e86e11e 3e1ca74c be1977ff 3dc07387 be263c11 3eb7b233 bdde60c0 3e1e4aab 3cbf9f20 bea1df1c 3a1cb1c6 3de355ed bd4a0952 3ee5efc4 3f257e1d bde331d1 bdc4e070 bc284213 bd577761 be696d37 3ea25af4 be013fd2 bd68b05a bd06b799 bd75c0b9 bd251a27 be7d38bf 3dee954f 3e0235ba be0cac75 be17c096 bc569fa3 bd88556c beb15db1 bd4a5e1e 3d7aa9df be047eca 3d3ad596 bdc1b49a 3e0327bd bde0d86d bd5af2f8 be737684 3dc97014 3dfb9c87 3da621a9 3e801350 bede9813 3d8f117b 3dddda9f 3e2f6309 bb02a2f6 3cab3e6d 3d47db29 3d7b88b2 be4ba64f 3d0f6990 3d729857 bf054950 3e1c8b8d bc36c4b8 3e7a960c bf76919d 3eb8431f 3e0378cf bc4a2354 bd9b5c34 3b251749 bd975869 3dc87144 be1f04dd 3db3cd6d 3e00d4ec be2b8791 bd2ad574 3d043911 bd3ad5ad 3ea7f675 3f347eee 3e89e8ac be53720d bcba4ac6 be2cac71 beb93f6e 3d147b0f be5c78f4 3ddeb3a1 bd9307f7 3e11f8ba 3db8119d 3ddc8ab5 3d38f15a 3d98a5cc 3db697a6 bd15fa5a 3df21d7a bd183604 3d7392bb 3dd01436 3eb6a87d be026b91 bce28b5b 3e6beadb be26876f be5a73ce 3d1b8d9d 3e68fcf3 bd65fdd6 bde99710 bde08cb5 3d4135c5 3e9ff8d5 bd947fc9 3e0a1951 3ea7125d 3e23b3ae bc999bd4 be56a0a9 3d8beeea 3cb036ba bdd5a59e 3d94c1e2 bd67974c bdeb1ebf 3c9b1414 3f1924e4 beaa17d0 be90af0a 3e2e16f7 be774bcb be2fb718 3cec7873 3dc58d7e bd9eae3d bbd96a23 3dda4b73 bf39de2f 3e4e74ff bcbad10e 3de3cf4b 3d801c7b 3de16ba5 3e4e286f 3c7e3896 3ea3161b 3dac04d9 3dbed357 be56a1b9 3e0c9c42 3db40983 bc9ac4a2 3d020c4b 3d019e32 bc8a6a26 be883f5c 3dd15767 bd764b63 bcdf3a95 be16d4be 3e0926c3 bcdf7124 3c352559 3ccce517 3c8fe376 be86d8f5 be120357 be9f93b3 bebd2877 be30c484 3d675903 bdbdf57e 3dfa78a0 3f227422 bdb419cd be50e1b4 bb68eab6 3dd4f64d 3cce0867 bd192b59 bca5e928 bdc44ac8 3da0e2e5 3eaf7725 bdc66d4d bd9e2dc1 bd6bf37b bdc07307 bea6b016 bd396cee 3f0be747 be603497 baab5823 3d36bd5b 3e66d81b bd3bba32 bda0dfad 3dc0d415 bd84a788 bd2e40cb bd8fc150 bec69c63 3dd94a39 be150d3b 3e0bbc6c 3d3693d8 3e3b1ab8 bd1dcd01 3e8182c2 3e1952e1 3d034cbf 3c8e837e bec55c08 3e04aa61 3e420d6d bda833b6 3e2f5bda 3e0a1206 bdc4b8d2 3dc33e44 bc4a2835 bca2983f bc97790d bd88ab08 3ce88665 be1f1703 3eac1830 bf0ddcc5 beb9959b be87efa0 bde3f2f7 3e959b2c be8fbf1f bd060303 3eb4cc87 be5dffb0 bd8be6b7 3d359627 3e9bc5ee bca26fc3 3e81b7b9 be395df4 3d13b305 bde5991b bdfa956c 3d184dc6 3dbd978a be25d799 be1d8000 be021e1d 3d47bf53 bdc5773d bea38123 3db84c30 3f1b99a6 bdd4e2e6 be642be3 bef86ac0 3e0dde5c bbdad14a 3c801b99 3d229d04 be484154 3e0aa902 bd867bc4 3ea4767b bc9ccb1b 3de1215c bdb47f59 3d1c3527 3de07c74 3df1929b 3e9ea45e 3e18873e be0d9e31 3e1c59d2 bb4c84bc bda9b8d3 bc0445a3 bdad945b 3d0717fd 3d2059df bd098129 3e173832 bd1c730f be2857c4 3b9613ec bc95f921 bd3dd0d8 bdaef3e8 3f294b51 bd667f1d 3f06061e 3e51879b bddd8861 3e800058 bc8a231b bd806e5c 3e992cf5 3c2316c2 bcea960a be1caf62 3eccc573 bcdfe4c7 be0e0ae1 bde06149 3d6d15a3 3e4de563 3cf96873 3e06b1c2 3dd3e770 beff859e 3d47e656 3c84ced8 3cbfacf7 be942997 bdb59a0e 3e027754 3bb69aec bd9ad83f beb56131 be4cc1bd 3d6122fe bdb31495 bd238e11 bc1dbcb9 3aa1c02f 3da426ee bd88ce4f 3dd4b65e 3d747964 bc54c9f1 bd7816d3 3d26bfa8 befd96da 3e18534e 3f0c05cd 3d8bbbc9 bd99ca65 bd2c8f5e 3dc644ae 3b0a8961 bdf430f8 3dd187c1 3daeec56 bd3c240d bd8051fb bda374ea bdb89f34 bd047a4c 3c46727b be048b52 3ce434c2 be82ebb7 3e4e3b9b 3f2ec70e 3f133a75 3c8abadc 3c78a4d9 3e959a48 3d0b3f6d bc51adb7 bdfbbf01 3dcc71db bda17efe 3e0f209c 3ec79d0f 3ce56615 3f1fb773 bdb82717 bc81113b 3e008efa 3d9608aa 3cc6ea12 bd94e365 3bb8f28d bd03d0ed 3cf91f57 3c8dbfd1 be03b729 bea2c854 3dc07b75 3f537aab bcf2d2b9 bd23136a becf894c 3e6e332c 3e1ff50e 3da41117 3d48be3b be144a57 3bb8637a 3d096aae 3e2616c7 bbca22d5 3daa7dc1 3d3b4a37 bd97c62a 3ef2d9bd bce55596 3de3cd64 3e3fb632 be362e5d bc0f87f5 be1a677e be1d9cb3 bdb64ad2 be4a40ab 3d235729 3d7c93fd be5c795d 3e227e14 3a8bec6f bbf79f66 bcf1b4c9 bd5ba613 bd4df513 bd3b1baf 3f0161a0 bdd595c5 3d95f51e be220692 3da6b33f 3e4e6599 3e0849a0 3dc25215 3e73676d bc64c951 ba02b6d3 bf3733ac 3ec59695 3d0b2bfd be867be2 3da23f98 3c8ee2aa 3e9d246e 3e2d8eaa bc3a489a 3ddfcf1d beab5d48 3dac12ee bc8df5a4 bd0cce50 bd2cc492 be57a72f bd982c40 3e10edb7 bd334058 be1dbe80 bdbeeb65 3e21e4f1 bda72f78 bd998c67 3dd9852f be055f93 3d8e9d8c 3ce3a1bd 3d882775 be2bec0f 3d976558 bc5e1bb9 bd843fe9 3c30eaef 3e589f5c be261a3d 3dff21be bcb26023 bd5d8726 babcb8a3 bda0922c bd2b5288 3db99e9b bd1559d0 3d8f5201 bde6653c be464307 bd0cca41 bc572049 3b4418cc 3d8bc960 be255750 be7669ec bbac8f13 3e3ad0d6 3eed9094 3d1c9b83 bcce34be 3da75afc be0936e4 3e0a75e8 bdb7ef2b 3ec697e1 3d5ef3f8 3d50818d 3f0e60ca 3cb422c9 3f3640e0 3d98804c bc1f2cd0 3cbb8c69 3c01b5f3 3e199c3a bdc7b9bc be8e3f87 3e50c11a be8b577b 3dfe1628 be69dda7 bef2707a bd35a2d6 3f2a2a64 bea71b4b be91c004 3a91721e 3d670a6a be59ec8c bd74e8ef bd117e71 beb692fc bcee3152 bdf67ac8 be2638fe 3e3ccb5c 3e09bd76 bc3e935a 3da7d990 3e8fdc49 3cbebab6 3e205aa7 3ebf052f 3d82e029 3dfcb6d2 3f1b7b86 3e05cf7a 3eab9ea8 be458947 3db36952 be0d7965 bdc1962a be9066f8 3d9ec4e6 be5dea07 bbf581ab bd8bbaf6 bdf1b311 be2a94c3 3e13c02f 3e6406fd bcb9187b bcd49207 3d1bef48 3efcf41a 3db35619 3cb84b07 3e906784 bea79247 3d1c45dd bd8d6a29 bec1ec60 be05de0b 3ac914ec 392a02ef be156ebc bf2670a5 3d83cbb2 3dfcace6 3e324934 be995ce6 3e076616 be5ccd5a 3c684ebd bf283db3 beee3cc6 bd0403c6 3e8f6da3 bf50fb41 be4de437 be34e157 bddce7d1 be0b99b6 bdddbf96 bcb8a8fc be7ee7e8 bda70463 be09abc4 bf688945 3e192213 3d28148b bd37a7e6 3df1fd65 3e461dfd bd5a938e 3e4c79e5 3d5a4a3b 3d851294 3e128ece be31aeb0 3e981b09 3e4be6b7 be5d7f87 3cb93e9a bdb67776 bc8b483f be73be3c b9edb261 bdb8aab0 3c33d276 bd5f4fe6 be055094 be8d17c6 3e13c524 3ec15de8 3e6803f6 be098883 3d8d0a86 bcb51ab3 be3200f0 3e18bd8c 3eb0406c be62275d 3d16801d 3d9cf30c bf193bec bd99b165 3f6e63ab bd716ff8 bcf2857a bf40fa0f bd255728 3e8b1f42 be4ea346 bc4ef6fb 3daeb006 bce736e0 bdfefd1a 3e6db64a be9086a0 3e2cebe9 3e21b1d9 3cc34069 bdf27b0e bef38d4f 3c556124 3c949ef0 3e4ef310 3c51d3e9 be891727 3e83f9b9 bdc0c243 3eabab76 be3a085d 3d425d01 be389e3b 3c6cecfb bca0dc61 3e9f0639 be4551a7 3ca4a530 bbfc0f1c be398721 bd8f90bc bed6dae9 be434401 3e0e5c79 3d71b173 3e239847 3e29a594 3e361f5a 3c3984b0 3d4accdd be1f4ff4 3d4686aa 3d404d6e 3e71c71e 3d5eb918 3e6d2f3f 3f0f15bc 3eff0b1f 3c934d2a bbe8a4ca 3df5bbb3 3d2bacce 3e98ef9b 3e969ec2 3d4ba3a5 bf03ffe4 be5d46b4 bd9028ef bf3eed02 bb4cb1ac 3d378a5c 3ed490df 3d4de4b7 3e9d0385 be80723a bec43f28 be3dff60 be2697af 3e0f112b 3e482455 be4b1b5c be3b6e0c beae6918 3d0f5fe4 3da325ce 3c4af2c7 3dbbec88 be25e81e be34f7a4 3d4cb161 bda8d107 bd0c7755 be92f65a 3ecd7de2 be54a9d5 3df40154 bd9e3eb8 be43b2f1 bf026b69 3f1e0b7a bdc689d8 bdd9b963 bdea1774 be1ecacc bed2d068 bec9fd4b bebfcad7 3e93cba1 be361734 bde9b386 3e1adb8f beb8bb01 bcd22a41 be8d09aa bd11dbc2 bd0f004c b7f75678 3d12bbf9 be72c563 3f371c30 3ec0b1f0 3f732d20 3dbb6f19 bd02e65b bb632a25 3f0c23b4 bd44dc9d 3f58799e bc808d20 3e4b52af bc5f2b41 bec123cc 3f7b906d bc3a17e7 bcf74ab0 beb32623 bca7ccff 3d86f607 bb4c3a8c be520e38 3d9a8fcf be810b8e 3de50a02 bd9920e1 befec371 3de07e81 3ef2388b 3e29c0c6 bf01a18b be0610bb 3c784cac be020b7a bdd0819a 3c1c9e03 be485711 be12a988 bce6c27f bf15719d 3c5aecd3 bc4be91d bc36499d 3c8d70fa 3e216bdc 3c7bf955 3e2cddff 3ee97cab bd765ba9 3dda1395 bec8b999 bda4d5d0 3e6d5cc4 bd76642a bcb608f9 bd0a9f91 3cba6a0f bee6ab2e 3d91877b be198164 bda473d5 be25b0f8 3d1b8951 bca667fd 3d2aa829 3e072e6c 3d5376c0 be830dbd bdc774b2 3d517e75 bee010ea 3cf06d75 3e578745 be91aaf5 3dd02399 3e473594 be843bbc bdb61d56 be6aa854 3c287d31 bdc1eff7 bdb301f7 bd17d43b 3d00c6de 3e08a538 3e5df20b 3d2370f4 bcfe360d 3d5b7257 bdc18d28 bea85509 3d4e2982 3f14187d bd972495 be7a23f6 bdd7d1b5 3cdbb49c be129a82 3d7cd15e 3c410fbb bdd96c32 bd6d6fd9 bbd715ed be322606 3dc44b94 3c94cbf9 3d866ee2 3c5cf583 3eacde02 3e6455fc 3e8fd348 3dc62f85 3aa20ea4 3d9cc912 be9d895d 3e3889b2 3e0034c3 bda0b22c 3d323e54 3c77b21e bd8450f3 3c8f64a9 3de075f7 bd575bc3 3e1e00bf be3fbe16 bc1c2ba4 3d85c75f 3e8867a2 be24dbc6 3daa4a56 be7eb679 bd97c16e 3ed481af be1c0c01 be149845 3e6a050a bec3778a 3bb9f90f 3ee41e69 3e7110c7 bd0b999a 3f092cda bc675a53 bd008bfe 3e82a995 bdd92e2c bf674c24 be43249a bdd005e8 beba1f99 bd6729d7 bf316508 be399942 be2d2d45 be2252ad bf34285c bdc4df89 bf2990cb becaa141 be464d94 3f2e3893 bc79de6b 3cecf36b 3e6d154a 3d75a489 be95e751 3e8830fa be43e847 beaf3851 be923715 3d3260b8 bd0cc276 3e3f84e4 bc3542d9 bf68cca6 bddf439f be3387bd bf8978cd 3d3b23c9 be809261 bffb34e6 3d726ced bbe9b784 bf6ba4ae 3ed9319b bdca63c0 be1f916a bdd679e3 bea10a91 bdd373d0 bd9ccaec befb6ac8 be413344 bf4c2895 3ef31d46 3e2e6499 3d137d05 3ed6abf1 3f5da808 3e96cb35 3ff5e2a7 be62ab8a c010a661 3f971459 bd350791 bf8e978e be954a28 bd978832 3e921894 3f04ba75 be2b6571 bee6ec82 bf02d305 bc4ca99e be862b37 bda6740c 3f45cc6e bed4eb6e bf18f3c1 bf7862b7 3d863be1 bf170e97 bea185cd bb3ac65a 3eed3999 be37912c bda2b9ee 3cc480d1 be0d6b27 be9377fd 3fa1f2a0 bda4ffe5 3e078b7b bc0a6f22 bd979950 bf0120b9 3ef57efb bf26ba5b be392435 3e2dd805 3dfd2924 be9ef9cf bd2bc24d bd92a49b bf80a8ec be01d210 be4b71b4 be0d721e be8fe4fd bcaf854b be7f9e27 390a02ac 3de00a31 bd34cfcc 3f011f97 bed4db82 3e6c81d3 3fc09fba 3f1b6f38 3d48e715 bf69036c 3c55ef35 3f8abaf2 3e5410f8 402121d7 bca63a7e befcc9a8 3f96f9be be7cd21d bef3db29 3de509c2 be0b550c 3f9a9cbf bdf1e47f bf3decfb 3ce11c4f bf2dab3b 3da95ff5 3e3e3409 bead4f9b 3cbc035b 3f024865 bea11ed9 3ee4f571 3e0da24b 3ea2b430 3e933e08 3f290349 be1785a1 3bb6172e bce5bfe3 3ee7e924 3d6f39b0 3e3a319b 3e22e403 bf97aae5 3eb4ce07 3bd97278 bd6ab6cb bc2e1d51 3e8a5067 bf4d089a beb13cba 3e319114 bf1ea188 be2dda31 3e591078 be223752 bd5a5b83 bf268ce7 be3e72c4 beb3b1c5 be0187f6 bd4b771e 3ddbd8ce bd17f523 bef7644d bd018b8c be71e1b2 3b9521cc bf8aafb4 bf205a47 bec6e3d2 3e1c9b56 bd06f1ab 3f19d4f2 bf1fb08e 3d9b1788 bdb7b981 be881c6d be816b81 bf00f893 3dad01fa bf0efb18 3d051039 3d8b6682 bf0a9aa5 bdd417bc be563430 3d9d6266 3dea68cc 3ecef91e 3e2bd3af be0f31bf bdfe909d 3ed1984b 3ef8dfde 3e8713cb 3ede0a94 3e7765eb 3e157657 3ce8ae16 be66b278 bd17d4d0 3d66c459 3e8ec5d5 3e624e56 3dd6d82d 3f3ad37a bed8536b 3e955934 be33e521 3c3db6a9 3e460291 3f350099 bf2fd256 3e70047e 3cd8cffa bdf9d0de be088e66 3e7c67f1 3f0b077c be0da51f be0cf6ed 3ad92b33 bf0883c5 3e6997b9 bd8861d0 3e0ef06d be16a947 bdd38789 bd09cd78 bbe02a28 bd90faa5 beffa0ba 3e74a473 3e5f9bd6 3ca61114 3f26c0b4 3cfba0f6 bf2cdb42 3e80f687 3f5bfd1b bd8164f5 3f48d395 be9b061b 3e474884 3e036655 be00aaa1 bd235501 be1e48fa bda32829 3c7cedd6 be617c9d bd8e6dfc bd81845e bdac2fd6 bd0b7b34 be902cb6 beb02931 3e36d846 3f4aded7 3ee0aeed be34dd50 bead004c bdb248a1 3e59f9aa 3d9648f5 3d639dc4 be62c8ef 3d57384c ba91f17d 3ef7cdce 3e959bc1 3d76d2df 3dbfb290 3d32cc70 3dc60356 be7dbef6 be88f4dc 3e853a48 be2f724e 3e2a6ec2 bed6d9b1 bed1075d bdf8c0b8 bdaaa697 3e05f6e8 bb5a1a36 be9c8e3c 3c445fb0 3d47623d 3ce38efb 3c57200e 3cf9d2dd be8fe9cd bd6d4c2d 3f041cb5 bca98278 bd27020d be6da866 bdc8c201 be4dcc28 3d8c8c3e 3df320d2 3e1aedfc 3f050c6b 3e4914de bf16b207 3e832070 be641003 be395d65 3e1748ab bdc16eff 3c27a456 3e4c7dd1 3daa7c57 bd4ecc34 bec30cf4 3df259d6 be0a51de 3cdb9f17 bc95729c bda9a0c1 3d16f2e2 3c0e01a1 3f48175e bcd62c6e bde61d2e 3e83bb2e bd22c6fa 3da10866 3e2bc25d bde731ea 3e0e5866 bdc96c89 3cbe7640 be1e2030 bd81a854 3dbaffd6 3cf3ab7f bd9e6e9a 3e245a36 be20cf2d bd3b5f8a 3d1cc889 3c4ee876 3d6547a2 3bf530aa bd9afdc7 3e4410a0 be80d7d4 bda817c1 bf0333d0 beb33be7 3e08c682 bd4dd31f 3dc2338f b8a2dfc8 be3b5953 bd7e2154 bdcc885e bea28c8e 3e745450 bd2334f9 3d9e9591 be3ac3d7 bdd6ae97 3de81e73 bce2b3da 3eec0c99 3db7ab84 be3e435c 3deb94e3 bde5c93c 3f73a86a 3b5c1c07 bde3cf07 bea79fb3 bd7d595a 3df72a27 3dc520d9 be855a3f 3db2567d be591c0c bd5c0cee be6c3eb4 be43437a be8d7405 3ede14d0 bebb9d04 bf1964ef bd9d9b15 3e2bb0f7 bea24806 bd856bcd 3d06e10f bd4e2c5f be18b67a be5b342c bd2c28c3 3e8aa1a6 3deee0e1 be1b62d5 39a2ab2e 3d919bd3 be3bcbb1 3e1acd2b 3ecab900 3cbb27af bcc6462a be5d6a40 3eaaec0b 3d527b50 be53ac74 be1a1f2c bdc3a999 bdf4eb94 bebf0094 bdc31646 3d3ee2ce 3d3e9ab5 bd2604e9 3d95b60f be4bfc7a 3eb286d0 3d170d92 be41bb97 bf2305de 3db0d3fb be0edc40 be06ed3c 3a411fb1 3e3ecc9d be977cb2 3dad77bf 3f2fed72 becd3bc3 be035ac0 3e3834d5 bd7ba6a7 bd8a97ea bbf96980 bd2cf9b5 3d9a71e0 3e841ca6 3e86c614 3d83205c be15221e bd8ac701 3c8f9905 be4299f3 bcb79094 3e868c51 be7f6b19 be296e59 bd85e48a bd393412 be402432 3ccaefb3 3c9e975c bdf7317e bdddae5d be3ca6a2 bf4b4f61 3e0cadf0 3df0dfe3 3d0cf46e bc30ab32 3e7f2e13 bec64c1a 3dbaca24 3ddf7c0a 3cf7aabd 3e577ecc bf14965e 3ec00def 3e21e1eb be8a7da0 bdaa905c bde0dc74 bd1778b3 3dc48bdd 3a2b3dc8 bdcd9386 bccc1a3b be78036a be02e218 bf07e754 3e84f825 bf2c20a4 bf0f6297 bf47d55f bda8a2be 3e61789e be4a28d0 3edce86a 3eb15852 beeaf53b 3e997633 3dc43b61 be6c0830 3e398f9c 3ea72341 bdc51656 bd010f1d be2676ba bdaff623 bdca0044 bd3edd24 be90efc6 bd6a0cd1 bdd0d4c2 3d38d30c 3e4481b8 bec14d98 bc2a7208 3f647d0b 3f15f327 bdb12ed4 bef00bf9 bd0e20bf 3dbb3d79 bd6041ab 3d38d6a4 be0e29b5 bce105bb 3d1208f0 3dc0c037 3e9e737c bd4dc200 bc45047b be0143a3 be64a5fe bad47435 3e19b8e6 3e7af752 be00b649 3e9203ad bf1617c8 bec823d7 3e596d00 bd8b13b4 3cf1b5f8 bb5b7e09 bd680a6e bdfbb90d 3d89003c bdfb017e bdf75c74 3c2b7e63 3d27f4e9 bc071fe3 3f0ea8e7 3ac09687 bd38dc54 bdac3c9e bd01be12 3e492963 3e316b1a bdcdbc9e bdd36926 3eacc071 bda591a9 bf66d8a5 3f159f7f be89df7f be35c98a be1959b4 3d1aae76 3f3dd4c0 3d5555ed be292eb7 3e08f635 3d1a55ea 3dd4108e be10b56c bc809b88 3d9b0023 be25710c bdf9886b 3de6ccd5 3f26278e 3eaebbdc bd8ecd81 3dbe2dea be1d7d55 bd6b6ce9 baec6908 be0ac586 bce9b1c1 be82388d 3d0094a9 bcebfbad 3d5d1c6e 3dea3783 3d329187 3cc29574 3e824179 3cca8387 3e9715a2 bd0bc949 bd5c486c 3eae75f6 bc096659 3d38ce83 3e3e089b be0db213 be407ba2 bea100f8 be99537e 3d2d0d3b be5c808d bd7403b2 bdee1ba1 be3c44bd bec31040 3e1df63a be1ab4bf 3ea079b8 bec93607 bdb03860 be9eebbe be609d3c 3e2c92ef be5fa72a 3eedc2d9 bceff30d bdaf0788 3e9ecb91 bd0e113c 3f88f173 be57683d bce31fe8 3e46cf28 bdbee8d5 3dd3b17f bdecf780 bca1ad7c 3c41f32e bd6609b6 3d41a88f 3e6d05d1 be818a48 3e4bdc3e 3f675753 bda16059 be006d61 be9f4343 3e919d9a 3e1b4dbf 3dcf5d11 bd994b80 3b9227ee bc8c0e87 bd2d37fb 3eef935b 3e0dae83 3ef5a2a6 bde066f9 bd341f51 3be71f7e 3e9ebf92 3e8d3979 3e5d22c6 3e09755e 3e12d5f2 be385641 be617733 bd6f7a9b bdde766e 3e01f00d bdb4431e bda6df7b 3dea8c80 bd13eed2 3c2fb4ec 3cc8f30b 3c458063 bbaf0c41 3b02aedc 3f16e5a2 3eba9881 bd518032 3d974a82 bded8311 3eb42682 3e442e0f be057647 3f0e5db5 bd5fe307 3d84a897 bf586b28 3f15b371 bd374c18 bed8acca be06f6d4 3d851309 3f0af7f4 3e23d389 3c9b6787 3dc03ffd beb3195c bcdff171 bd166df0 bbe5e74b 3e5646a5 bdb4903c be14602d bd5929d0 3dfa30d1 be7911ed be3d633f 3e4299ce be151cc1 3da7d22b 3dda45c3 bc230ee5 3d565954 3ca141ad 3e8346b6 bd7528e3 3f010f2f bc77d195 bc884b6e bddf1aa2 3f1a7e20 3e7ea212 3c4b1aa7 3c6f3b8e 3c19ca05 3ce434f6 3d558e30 bd02e20f 3bda97be bd83abfe bdaeaf78 be6e9e88 beb79262 be0c133e be669f7b bcc0231b ba3ba7d2 3d1537ba be9ab29c bd872567 3f2fa687 3f9f37be 3d901763 bd3277d1 3e661cd0 be3d8c85 3e0c7f1a 3e1861dd bec9f834 3c5908b9 be32ab1c 3ea5e6b6 bcd4c1f2 3f778ffe bdd97201 3d1247f3 3e4c3e45 3dc5e6b5 3ec85d8e bfc21b0e 3f8eba94 3e2ea312 bd7cacb7 3d8b1805 3e84297d 3f2f5021 3f18ae77 3e0561ab 3e3de6fa be0f72bb 3daff999 be8ed922 3eb7ed2d 3d24c03d bdae792c bea1d385 bd89fbfc 3e03f3d7 3f486243 3c799831 3e5e3113 be659307 bdb2d8ed c01a1deb bf14bd47 bdfa377a 3e3d5cd9 3b6fe645 bc2d677c 3ed21634 bfdbde7b 3ec3590a 3d8af97c 3e8d542d 3e4e58f2 3ed59ebc 3f1e1da5 3c82d5ca bd1bb71a 3cfb78b7 3ef224cc 3ea33109 3ec9e369 bd9a1e0c 3ef3c5b4 be80e899 3d882a10 be0a4514 bde05972 bfd07573 bdd6b3ef 3ddec210 3fda022e be8a8a6a 3f3904ed 3ef62c28 bec0f4e0 3df9912e 3e436d89 bd51445b 3f2e3b48 beafe5a1 3f051560 be09433b 3f1c3ae8 3d5ffb6f 3c929eaf bd78cb3c 3f237f38 bd2ebe6d bf1c0c42 3ebe98a0 3ed292d2 bdb8c81a bccbc9cd 3eb3bfb2 3ef04a02 3dbd608d beac9727 bd9697ed bd301e98 3caf1880 bf0ca9a6 3e01e2ee bda2a027 bd3d97d2 3d36d877 3f070a9c beac18c7 3eecf80c bca315f8 3e38840b 3d206399 3f7259d1 be1dc65b 3e2f49e7 be4103f5 3dcf785e 3d885039 3e9d9717 3e01b3f6 3cbed1d1 3ad93fd3 bd9b7196 3e830ad4 3d9d68ea 3ef10f59 3ec42c74 be82bd81 bf1e85f5 3f0254ca be92d0b6 bd6d3c8b bc073126 be84e4c0 bd9b5bdf be9a4ae5 bddec0ca bf651f43 be0956b9 3d092531 beaadd48 3f2c07eb bd3e126c 3e34d422 3dabd4b0 be5a2896 3e8b7bc7 bef23554 be9ab0cd 3d6015e4 bd09c96c 3e954dec 3e98ffdc bc46e4db 3e544190 be3ab6e1 3e42a807 3e3a7853 3efc2122 be15d751 bd7b12d2 3cdea5bc 3e99eb1d be632993 3e2d9edd befff84c bece6732 3f0eaee7 3e140609 bd8927d3 be3eda6e 3dc4e743 bf30433a 3e369536 3d168d61 be47d26d bf3cde64 3e9fc198 bd87dc22 be487e30 bf098a72 be828636 be12516e bdec4ba2 3c996f85 3de08880 bd7f3c05 3d934261 be538a27 bd874e08 bd39dd9e be18f1a9 3e9e38a6 bd63ab52 baf06423 beee42f6 3eb69b45 bedacde0 3e095ac9 bed41e25 3df5f8bb bea8deda 3ce08b1b 3e0ef661 bd04c58b 3dfbf7ae bc0c46ae be7f5fc3 bdee808b bea1a425 3e495aed 3e0539f2 3db38b34 bdc10da6 bda90c22 beebbd6a 3e429393 3e5f8a4d be88e68a 3dc112b2 3e13acca 3d77a85b 3da2954d bcb451ee bed05a04 bd2b95e5 3e0c6d52 be7b0ec3 3d084608 3e4f8673 beaf7b0c 3ee62f6e 3de42b9c bb8918d2 3e32f20e 3d8299be bef4a92c bec11db7 ba0f81f9 3c234a03 be7bcd09 3d91d8e6 bc3df2ff be19213a be9d606c bb169ae6 be672f2d bdd5ed12 3d7b0ebd bd328f76 3cc92522 bdaf44c8 3b9eebfe be4d29b7 3dbcd253 be79b927 3ea5fbcd 3c229637 bd1d17d6 bbee40e8 3d2c4b2f be2c6b12 3dd4ce68 3e57ed48 3c576fdd be333060 3d0b4f99 3e1ace29 be5ed954 bd3f1b2c bcb46b23 3c448fbd 3c885d24 3de9fe2a bd789d63 bd7a5a5c be214b8e 3c970eb4 3d637c92 3a6395f6 3e5a330d 3ed89e48 3f214ebf bd82666c 3d8bba4b bdcc12ad bdadc070 3d801afd 3dc5e31b bcce157f bd9dd622 3d6c4065 bdbe3474 3ec7ad46 3c83e897 3e3f3788 3d9623df 3de65440 3b3f20d1 be251ad9 3c476ec4 baa34d53 3d333ece 3d37f280 be6ea99d bdec5d90 be3530aa 3d6e3459 3e986b02 baf0e6e8 3d677faa 3dd7ab9a bd6676d1 be2dce63 3d9a9002 3e2612a2 be530a46 3c93e184 3dbe8394 3eace107 3eccd94e bbe7377f 3b8248dd 3e0de585 bdc7cff5 bedb279d 3f0e51fd 3e5fbe27 3ce366fa be60a3a8 3de077e8 bd4e211f bd93d235 3e09a363 3df9eeb6 bbf64a88 3e70edc8 3e360956 bd62e0d2 be6e793b bdf09f3d bdb480d8 3d21a622 be345192 3e1a5576 3e266b35 3d4623f6 3d9d5434 3cf77d47 bdf96d32 3e0d6bbc bd7fde60 bd15ae26 bc740a85 bda04da6 3d849843 3d0c81ff be02b29b be37175b 3dd27571 bca09268 bc44ce75 3cce38bc bd3450b8 bafe7a7e be4d757c bd5b33e5 bd9623c0 3e9d6dc8 3d5093e4 bda5c244 bd8e6b67 3d0360e6 bd20996f 3e45fc84 be032540 bd344a7b bd8a5256 bb0edf1a 3e06bbec 3d24a184 3d8fad83 bdbeb0cc 3e06d725 3e4b1591 3eaed162 bdf1ecea bca7e268 bd667324 be8dfcbc 3dd970fa bde4fc97 3ca29b99 be37cf80 3e8ef69d bcccc464 3e88a31a 3e5af5c9 bdd3685d 3d51a18d bd644010 3e317758 bd1ed53f bcfc4dcc bda20b31 bd36df5d bc8718aa 3ece8939 be790c57 3e55c016 3f822638 3d81a8cb b839027f beec65e6 3e85483c 3e0375b5 3e68e3e5 bd63a594 bd7bc0b3 bdac0833 3d83bd2d 3eeb19e2 3e44d86d 3ea9f5aa bd995177 3db2ee21 3cf0150b 3dc8c7f8 3efdcc33 3e8696f9 3e922922 bb828bab be142592 be1f5955 3cde4829 be7197d2 3e56083e bbe52717 bd1ff8cf 3d748aa8 bd8104ef bd1304c5 3db65c17 bdc3b802 bc0bf182 398f8d4e 3f0fc781 3eeb47a1 3e2ceb23 bbe2681d bd70e5cb 3ee2510e 3d429188 3c0e3b8f 3efc6e57 be02c52d 3d956094 bf4d71ed 3f17d4e2 bcb9fce3 bef4e948 bde54f68 3e110703 3eb2f4e9 3dcb8973 ba3aab01 3e169dff bebc51d0 bd87351e bd3e099d 3c7147bb 3e353426 be1f40e3 3d3bec12 3bfa6f9f 3d7311f6 be176f2c bd779f51 3e2b2b0f bdc5569e bb3f62da bd5b60cc bd435c9e bca66e5c bc41cf3a 3e07b437 bd9f7774 3ee17465 bca99d14 3c3254b0 bd139bd2 3f0b6727 3e9e406b bd1db02f 3b8e2020 bd2d9c31 3dc61cde bc952791 be34c8c0 3cbf7289 3d482984 bde460b7 be31f2f1 beb9364b be1800a8 be5c301a bc0de896 3d022bf7 bdc94393 becc0d1d 3e0b0f92 3f181814 3f9174ad 3daf5a68 ba9b50a5 3e81e00a be38c893 3bf75194 3e4842fe beb9af79 3daddd4a be290704 3e9abb1a bc4c4c85 3f67172c be7e2acc bd47168b 3eb1eadc bdcd99c7 3e1d5008 be1720d4 bd1c3bba 3c0161de 3c4bee48 3c012777 3eba303a be4f5e29 3e82bd1e 3f7a5765 3d47a325 bc19da6f bea1c6b1 3e31c570 3e0c38b1 3e19ca87 3c8d1bb9 be23a115 bd97e418 3c897041 3f0221f0 3e0152ec 3eb30665 bd528820 bd66fa91 3e25d152 3e9aa680 3ecbfac1 3e90f5e0 3e27660c bb5899c7 be01bca5 be7c8572 bd8c3ad1 be1f7451 3dda3bb6 bcdc88ae bcb7dd17 3db83739 3d650b0e 3cd6c498 3ccc35a6 bc265122 bdd76b25 3af209f1 3f37f1fd 3e9158af 3b052b5a 3d96012e 3d1ca19c 3e15092d 3df53cba bd88f8ff 3ee88c76 be27fd03 3e20f690 bf5f27ac 3f34519a 3d90d534 beda7a92 bd25e8a1 bcd01699 3ef5d654 3e8cca2c bc38619e 3e5adde3 be9f977a 3cf488cf bdf03fe1 bda13135 3e624de3 be20ef00 3d6c821d 3cf52041 bd8629d3 be81b7ca be56d0c1 3dc61cdb bdb040d3 3ca6c1f2 bd75c80d bd838bc1 bce79dd0 bdc11aa9 3e7d9d6e bdcc2f0c 3ecddb5a 3d4fbe87 bd7f3c25 bd21656b 3f38f90e 3e4d8f12 bc123787 3c0070b1 bbe748c4 3e1659f6 3d87503c bd08dec1 3d721e8a 39d50c8e 3c16a090 bdc2c0d0 be646b32 3d956846 bddb21f1 3d9ec85b bd9d741a bdb12989 bea56023 3ca76b8e 3f1d1f2e 3f702241 3d4c4895 3d49f3af 3e95e8d0 bdc8f8a7 3e45a7df 3de657b1 3cd49901 3e0a4e3d be8786b6 3ee70cb5 3ac116c0 3f82a623 be0c1989 be0db94a 3ed2835a be039a16 bee8b5d7 3e2ee7b6 3d928594 bc800867 bdda6617 3d536637 bf0e1cf7 3db57940 bdc20eb2 3e452172 bd9dccfa 3e659aa4 bddaed0f bf35e1e5 be43b4cf 3e59e487 bd8790c0 becdcd09 3e25caf1 bde841e3 be665c6b bd746a7e bdc89c3e 3e0a9dae 3bc81e0d 3e1e2539 3c7b1a31 beba854f 3dc3817a bcfbd662 be0a0d86 3e171f25 be2562e9 bd001cfb be1273c8 3e9a4b54 3e6b9a83 3c12aab7 bed12fa8 3dc8bded be909323 bd73116c be8214fa 3d36a0c8 be8fc99a 3de7120a be4e001c be9fcdef 3f501b39 bd9ac55e bc85efe8 b860a0d5 3ebc4a1b bf914a72 3e0b07be 3d9d19c0 bcc92468 bec0d4b0 3e6e3e2e be917a8e be233974 3e633598 bea3ef6c be287031 3be37a9f 3deda61f 3d812d55 be265e58 bdc787b7 3e8dd37c bf05a5b1 3ce127ef 3c36dff3 bf2f495d bec668ca 3e1884b0 3b272cf1 befb726b be67b576 bcf34478 bdc7041e bf07588c 3d1e10d0 be9cfc08 be061812 bdf15e4c 3dcd4c02 3e7e4f60 3da29002 be88e3c1 3e80e80c bc94b45c be2ff928 be0fda06 bea602f6 3e2b4618 beab7bf6 bd052ce5 be92b225 3db6b581 3c2f935a bd9de1e8 bebf02fc 3d7d1f5c be979375 bd8c77b2 bd5a855e bcf3e23a bdc2ae2a bd6ba43a 3d685daf be535703 3f444b3b 3d8fc578 3e2d19a1 bdc2f108 3f051b7e bfa56002 3dcccdbd 3e9626c2 3eaf54e0 bee4a9c1 bd70f867 3f210d93 be6670cb 3ddad708 bea39de8 bcd1308f be2723a1 bd9e24e5 bd075e82 3d7e539c 3c841c8f 3d3f4631 3ea60a94 be8b1faf 3de3cf87 3f827265 bd7c3791 be7c4b4f bf091607 3e53a8ed 3e49bdf1 3e047603 bbc6f965 bdd58fc0 bd9675e6 bd265252 3e5d4876 3e40bf9b 3e15b95f bd5e7c53 3dab5751 3cc77e44 3dada50a bb1b4db4 3ea29f5a 3e3328f6 3d3e8c5a be3440de be2f2cc4 bd4c3da5 bdcbb297 3d830047 3d9327b2 bea21bfd 3b93c4fe be3557e6 bcd6e97d 3c554557 bc00eb31 bdaaf746 bd7bb080 3f2370bd bd03c3db be0838b7 be817889 3d285104 3e81d254 3dd4077d 3d083f7c 3e86e00d bdc91411 3ddbb041 bf3124d9 3edd498d bd93bed1 bee6bc03 bd9a4b21 3e0f4009 3ed990af 3db6a66f be8d27bc 3e042556 bee2b30f 3e3b6d24 bca0d2ef be44f7f9 3d2d9648 be246a6f 3d4a30b6 3cce1288 bd9b1ad8 bdedf2b1 be3b789e 3e28bb0c bc9b6d12 bc17507d be0160a0 be3d76fd 3d85e62e bd2c3933 bd8c90c6 be1bd3c8 3dd6f960 bd61f3ed bd9b0dd2 be37c7d8 3ed9defa be1f7479 3e22baba 3cc7db34 bccb1aff 3d77939f 3b37a982 bd59026f be09a2d9 3c5fdd3d bd05c284 bead624e be7571ad 3d73316d be072c4e 3d0bd223 be0e000e 3d8d1097 bef5ebe2 3debd094 3dfa0eae 3f3c82d2 3c47e25c 3e1fc493 bcc12916 be134054 3e865103 be051ea8 bd14b324 be2f929b bda99052 3f0f5e15 bd0530f2 3f5ba19e bdd80ace 3c508ea3 3e9c7db7 be455521 3d672bbf be137f83 bddf9942 be019fe7 bdf69424 3d10a138 be2004de be51c64d 3c700db6 3f45b741 3da32bfc be14f3ab bf0278af bd5140ad bbe55883 3d97633e bb80c624 be05b047 bd0f7939 be267737 3e09d6b0 bd10a756 3e1b32fc 3d1c3c9d bd9fdcd0 3e537df0 bc9e83d3 3e1c9bbe 3e421084 3e8a8c4f 3d0e6491 be8e9e56 bdbb4676 3dc806f1 bdd09cd3 3d26a6d5 bc743523 bd5070b6 3e1d60fe 3d77a432 3b57c088 3d9b17b8 3e6347b8 bcc7ce25 bd9e72f1 3ef77ecd 3c230cf7 bd70f6cb be1746a5 3c17d883 3df7ac05 3d4b1011 3d4063bd 3e457531 3e152bd6 bdfc1e8d bf1717b6 3eefc1f0 bcf08ffd be34f941 bdf24c30 3d19e46c bd326c32 3bdac0f5 bd4ace91 bc4da0bf be83bb97 3e3d2bd0 bdb2a08f 3db91c6e be51223a be3ee0f8 bd41732c 3d99c8e6 bccec1d0 be1ced16 be8f7690 3dc26f01 bd553fbe bd561bca 3d55f36c bd6a6332 3cee77f8 3d69bbaa 3dcdc22c bd4df27b bcb575eb 3d555a1b bd9ab8ae bdee255a 3e1938af be81c246 3d289af9 3dfe853b bd8d1c42 3d0d3cba 3c511e86 bdb5c4d5 be11e395 3c52e670 bcd11347 bc4b3d1e beabc0e7 bd80c383 bd5cb455 3d7d9c5a 3c0d1c19 bd6145da be5bc3f8 3dd0f69d 3e14316d 3e747e0c bd5fd352 bd6b2736 3d7867af be4ab917 3e2f63c3 3db390e9 3e5c014b bda39354 bda6d326 3f0467a5 bddc6f1e 3ef64d90 bb697b35 3d7a3270 3e271b7f 3d65acec beb5d13c 3e8066e2 3e42b32e be56b1ef bda59a1a bd5b8560 bee33f73 be974334 beb173f5 bea3a0fd 3f009754 bf7afdf8 be58cb8e 3de97938 bde2717b be804d41 bcdef34d 3c101a5d bddaa87a 3d13ef36 beac72db bd17ef86 3da46492 bd7fbbeb 3d98e8be 3e01b2fd 3cc06672 bf5c3e6b bdd1f0cd bd76a1e5 bde87f5e 3cf9deeb 3db87eb9 bde23c75 be36508b be1e5ecd bda71167 be28beeb 3d5f9502 3ccb4c73 3cb2ead3 3d80503f bde5669c bd9ec83d be7c25cb 3e910443 bfa1c69d bfdc2a75 bf4d5c56 bdcf67f4 be244639 bd7abef7 3f99b0ca 3e63f98f 3f399bea bd3f5394 3dad2d6d bdef8d13 bc8f685c bee5a0e6 bdba4a8c be242b2d bf60d46a 3d8cd13f bece6d14 3ea30990 bd347522 bcf87acb 3d016d65 bdb10fa0 3e1b28a1 be6de1e5 bd97237d 3ddf07c8 bccf84da bf6c0d03 3e0872ed bc7fd8cf 3d21ef7a bd3b489f bce6aa64 3ccd1d02 bb669fd9 3db4adb8 be74e1d8 3c551cc8 3e4b48c7 bdcff7fd bd74c4d0 be2e5ef8 bef8a078 bffad06c 3e8ff20c 3e00cc75 bd03da93 bd388a5f 3d014c36 3d507340 bd93c5c6 bdb84f8b 3ce87ed0 3dbb0244 3e0e7c8f bc9b995f bd4ece54 3d1a4484 3d6828a6 bdd991e6 be856f67 bc4cd45f bf96610c bf5d5ddf bebae2ce 3d1d452b bfd935c1 3e09c386 3f8e77d8 3d06aa94 3f4f2770 bdac4346 3d1e66e7 3ec9cae4 3ccaa8fa bf1183c9 be0f8aea 3ca85a48 be729190 be127c7d be0e804e be04890e 3e0b462c be38db96 bdf66862 3cea69be bd8f7e79 be9446cc bd54caf0 3f2c6863 bdc485f1 be2e98ec bebeb02f 3e5b0e79 bd6116e4 bd06f182 3c212873 be6b134c 3c5f470d bce8b109 3e5c45bc bcd916d2 3dc98fe4 3c772736 bd90cdb9 3e7e8a23 bc7e3380 3e157ed3 3e4e3b65 bc80543b 3c051464 be7145c0 be23d5ee be237889 bdb468f1 bd74972d 3dae90bb 3d116061 3e0e0132 bd92ca1a 3ba1b2a9 bd008d77 bde04a61 bcaf7d04 bd305794 3ef096d4 3cac43cf be2531be be3a969d bdabb5f7 3de9adf0 bae1a20f bd416f3a 3e9ab65f 3ddba32f bcdfee5d be24ac62 3e701de5 bc6121c3 bdc09347 bd522fcf bd5885af 3d0b058e bd5af325 bdfc9f82 3e2c74a0 bcdd19dd bd3fd21a be07a742 bd564ed9 be27e40e bd7a271d bd1e4153 3e6dc54c bd655260 bd055b6f be578eed 3d687c81 3d329eab bd88b117 bdc2b971 bd8ad21c 3d8f4202 ba8affef bd00ea46 3cbe85ea 3e0ee743 bd865940 bc3831c3 3d541718 3e173cd8 be56b362 3cb09653 3c1b0117 bd3f3bea 3ccdc697 3ad0472a 3c2f220e bd685acd bd048f95 3dbd13ee bd40e092 be6e96c2 3df394c8 bdae996c 3caaf526 bd9ba63d bde3f26f bdbe1b06 3d9c0c26 3dd5adb4 3ecacd91 3da8139f bdb36933 3c4185a3 be3025ed 3e348820 3ca20643 3ea19c60 3c3a6656 bd1393f3 3f1618a8 bcedf57a 3eca1ed7 bcb6a86c bd9bcfb8 3cf32c5c 3ce8a88d be38f56f 3e720504 bde18dee 3d0af69d 3dc129cf be2a72f1 3f5c7ca5 3eb6eddb 3c50a779 be04b97c 3ef4047d bd1734ee 3ecd0b3c 3f01b6c4 bdb36b5a 3db17418 bca66583 3e952271 3dda4024 3d81e1ca 3e344c09 bf334915 be1f0559 3dbe7ac7 3d907efc 3e7207f9 3e930d2e 3bc89499 bf27da20 3d958978 be232731 bcdc7461 3db196cf bd5c129b 3e5d0a6b bee4a7d2 bedfb708 3e3efc43 bd94948c 3e15eb2a 3e27bf77 bc937749 3d545760 beb36378 bbbbe3cd bf0f9847 becd5043 be63ca2e 3dc4a2c8 3d7b5395 bce1b1aa 3e87360f be8db03d 3ed0beaa 3eb85611 ba8a296f be6172f0 3dea67c8 3e926d83 bd7d8ca7 3dcf4bcd 3db7dc68 3c6f3ca7 3dee9a6b be847a39 bd0a8adc bd4f8beb 3e370cd5 3e0b47be be590b2a 3e0da7eb 3e5126ab 3dfebb3b be5786cd 3edd0a11 bdc10587 3de7f12a bdba9fe4 be4b7f72 3ca33508 bd2bcd5d 3e1cd9b5 3df59d36 bc386e86 3e6018b3 be8288ae bdd1b25b bc3b3595 3ce1b0d0 3ea3fae3 3ec1ebd5 be903144 be78bc8f 3d09e609 bcbe9af3 3d6f9988 3d2c5fdb 3e7b3a57 3e4cffb2 be764236 3d2ffbfb bd8f4198 be4c3a26 3d0521f6 bdc42064 bda2e380 3d6fe667 bdc86d4c 3dbb1850 bbc68a58 bed91ea2 3dc4e672 3df8d195 3cb3a736 3ea1727d 3d61e022 be7c4746 3e12b874 3f4ae24a bd3fdfe0 be45572f 3dc7a0e4 bd130abf bd8c9029 3c59c177 3c1b9b00 3e52f101 3e00dc9f 3cf937bf be764f81 3f49df9c 3e068d93 bdb4e557 3d698f48 bf09fe2d bec0c2a6 bcd31e08 3fd73472 be82bb57 3fd58856 3e4dd085 bea802fb bdd4cce5 3d91a82d bcf10c4b bec2c6de bcff5d06 bc2e2a24 be494265 3e9095d7 3e21d064 bdb81eb1 bd11fd1a 3e8873e6 be228224 3d8d9e43 3f03f90f 3dc75da5 3e51d247 3f7c2a3b 3e1bf079 3e9471b9 bd63d662 3e0014cf bc018f4f bd512014 3f256ae0 3d0e4f19 39c554bc 3c6e8de1 3c5e7076 3df41e70 bd6639c1 3f502c01 bd470b32 3e0ea4a6 be0a8be0 bd7795c2 3e4a4268 3e79ddb4 bea8c907 3e2bded8 3d3e432a 3d9171a2 3f0b978b 3e832d21 bcf05aed be3034ef bde1d966 bcd12d80 be1692c4 bd008e70 bcaafdea 3b8f8d02 bd3e76e8 bdba9098 3de97c6b bdab49a7 be0b06dc 3e42d9c3 be9b3507 bd9c59ad beada9f6 be3e319f bd91635d 3dd0a8ff bd680be0 3e02fb8a 3d2ef07c 3e37796e bdf1d6a7 3cb3860f bed6fc8a 3bb01e73 3dce55d7 be4cdb44 3d4b8eae bf093198 beb58b26 3e94150d be297143 3d4333a4 bd5aec7c 3f2797ee be977492 bf24bb7d bcdb5ec2 bddca3d1 3c0acf74 bdb6b8eb 3d4de4e9 bd9e9887 bd488988 3d19a497 be9a1895 3b9fcddc bc8c6e63 bd3d323f 3ee8e087 3ea6ad30 bf06a19e 3c4df1c6 bf1e3f88 3ee6fe57 3dff8b03 3dfa7c3c 3cf60f37 bc76a9d4 bf8ea850 bf87b601 bd959574 bf6f1c17 3c9fa05f 3ddec3d9 beac5a01 be3f3822 befa9a9c be15afe9 bf3333ab be0a3aa9 3d0c0291 be93755c 3cc7adef 3e7fafbe bdcf234e bf0d00bf 3e04548c 3f3ccf1d bef171fa 3e970508 bd13bf84 3dae901a bdc107c5 be9e7a6b bd3988be be55ad16 3dda5175 be1ec6bc 3f0cde0b 3d7b7462 be0bc73d bec6c7da 3f1bc70c bf8fddb3 beb34a00 bd5d4f90 beb1ea9f be99cefb bef3d1c0 bf0c90ab bdcc8af5 bd3651a1 3daba636 bebf4797 bd2d4f99 bd355aa5 be689d86 3d223054 bdc83aa1 be0306a9 bdb7ad4f be13f40b 3f0d3989 3dc1e76f 3e010a1b 3cc74a69 bee1641b be538cae 3f458c23 3e20e7f9 3f53ddef 3e9ccfe7 bf2816a5 3e50d3c6 bea3e305 bf268821 3ec42eb7 3e50104b bdb87a70 3c343fa3 be6e4a2f be8c5da2 be95c619 be6d5b4c bd770e2e be3645bd 3ef4fd9c 3e89bbef bdc2edfc bf20c90e bec1739d 3f0f9afb beed4f15 bd381f41 be15b347 be2bbd83 bd96ea22 bd916426 be164c33 bea7ef9f 3effe94e bedb49ac 3f34f74a bdd8edd9 3cf439eb be5741f9 3f04d286 bf96ea21 bec11682 bd9d3fe6 be68368b bf19e114 bee92d16 becb9fdf be8da25e be053f39 bc6f598a bd89b6cb beb60b8a be1ddaf4 bef8c93d bd2b88a0 beaa5f00 be3b9696 396e9405 beb0f123 3f4b2774 3ee49bed 3d8aab67 381b4226 bbb53268 bda9eb87 3f3a926f beb4f553 3f4d37fa 3d7c266e 3f0eaf50 3cbde3c3 bec07846 3e29ef86 3d54b6e7 3d53add6 3eeddbd7 3d7a2c7b 3e8f2a5b be59b29f 3e06d181 be127af5 be3eff78 3d85a9b1 be0f3bc1 bdeab386 3e86ab4a 3eb45c31 beef7faf be631b9a 3e649e01 be16aea3 be20f355 be1d327f bdb596f4 be1863d0 be6c8b13 3d2da080 bd9669e1 3e8f81f4 3e2a30de be30d3d0 3d7ea7eb bdc8b500 3db2436c 3f44fd4a 3eb7ac2b be000f4a 3de86767 bebc6bc7 bc07cf7d 3e8fecdb bdf09ac8 3d25a597 3dc79303 bd038de2 bebe4403 3d055302 bd158cd2 bcc0c678 3d0fb9ad 3dd6ee27 3e0dd82b 3dff9cbe 3e52c41a 3d43b215 be762611 be56444b bb6ec7dc be3c1cb7 be73f9ea 3cc1b81d be56235e 3d95cdbf 3f41440d be320abd be278925 3ed9bce2 3ad782ee be1ab495 be027ff2 bcd928b5 bdbd4858 3e0174eb 3e2ef8d0 3d922352 bd5023ef 3e5d58d0 be49919c be8f7370 3cb7fb56 3ef22701 be27d8f3 3d4514c4 3e0b50ca 3e8bc9d6 3c107b2f bd71fe92 3cd58a50 bd900f8f bdc643e3 3d041b03 beddada4 3e851792 bcb60a31 3d5c05e3 bcec6676 3eb82167 be8c2b33 3ee2b412 3e0d31f7 bdd0ed18 3e906238 bed003f1 3e61ac23 3e97322e bd93c37d 3e732a20 3e29de32 be93a491 3dc18eac 3d9612fe bd2db1bf 3d12a841 be867a7d 3c832c9f be8a21a9 3e74e859 beeff080 bedfae82 bd36836c 3d714461 3ea8a03c bd92f80d bd51b491 3ed8027b be904773 3de62531 bd122885 3d92dcc6 3ce3c645 3e872fcb bd9deadf 3d8f5246 bec8f868 3d6394eb bc8805e9 bea1d744 3e8073e8 3de604eb bd9949f0 bd24f0e2 3d81d32e beb959f4 bda4444c bd98b357 bdf18ed8 be52c574 bed0ffba bf1639ce 3e911c71 3e116bc9 3d31edb0 beebd903 3e11da02 3b334ce3 3f1dd38d 3eb14dfe bd628513 3e3ef401 3dfa9113 bf77cc4c be924525 3e15ff40 badb30b1 be1d0077 3e315517 be604be1 bf1c196f 3d7bf4a9 be0a2e00 3e145657 3e831250 bd95fcba 3e3b8050 3d7e54f3 3dd88f16 3d089d68 bdd6d3c1 3ddd0709 3e2beb18 3e94536f be3c7a1b bddfc8cf 3d78ab2f 3cf91d0a bd3325c1 bdb23bd6 3e168372 bea3e0e6 3f669920 3d5cf41b 3f78d032 be7a5c64 bea9451a 3f1ed4ab bde16934 3e4791cd 3e2e513a 3c993e13 bdfc898c 3dd59c1c 3eb73f38 be129670 be108e88 3bb5ce20 beda86e7 bd8d36cd be69486d 3da5096e 3d22b945 bdb2597b b958a664 be04d6f3 3e35f7f1 3dccec0b 3e2496ca bdd241f5 3e1baa69 bd8ed6c5 bea40f66 3e3fa854 bebb7403 3d802188 3da5f91f 3e63f8d9 3e461ddb be2380da bdadd81d bd94b67a 3d82350a bda455af 3de32f24 be92d3fb bd891873 3d7605d7 3d8bfb59 bbadb8e6 3e14a38b bcb108fa bdd58d69 3b1c3b8b bbe5e78f 3d8d6744 bdc20d91 bd4caded be9f60e9 3ed53d1e bdbe7895 bb4154f9 3c723a51 bdfc7ce9 be25b715 be733f29 bdc1ff83 be23b197 be661b60 3f09b6a2 bd0cce15 bed3ef68 be20c0bd 3dba5ddf 3cb12c17 3d173521 3d673998 be4d7ad1 3daa7b77 3d21df5e bd5dc2df bda115d3 3f63d85a be70a737 bd990a93 3f248774 3d2935c3 3d0c32e4 be8519d5 3d97f44b 3da3dfbb 3df54460 3c0bb66c be4ed8d1 3e9fd2ea 3bd251e6 3f015a28 3dcc3cf3 be548fba bdabed64 bd236bd5 3e59ce7a 3e8a2012 3e91da99 3e948f36 3c8c1f25 3c094672 bda6a1ba be0eb491 bd7e020d 3d92ac7e 3cfc7bcf bd9a3540 3f1a8c69 3e314485 3ada9474 bc8605a0 bcdbe3e5 3c01cfcf bced60ea bda7f604 3f01bc03 3ea7e3a1 bee65c52 3bcae34b 3d2248aa 3f08d8ce 3dfa064e be94324e 3d890911 3dfaa1c9 bc6994ce be936435 3ea20ccd bd87d36f be1c92f4 bdf3a34a bd639ba3 3e193906 3dd6e180 3d24989d 3d4b0ea5 be15f270 3e05e7cf bdfe8c93 bb374e56 3f5c15bd be4be5ef bbca32d3 3dfce5e6 3e3cd3b5 be9c7dd2 bd997aa4 3e474915 3d84de83 bd81db5b 3dc35cb9 bd4df99c 3e8dd731 be36d4e2 be60819c 3cecba17 be4d73cf bd38c232 be741183 bea89cf6 3dd4ae2c 3e4ad82d 3de115e1 3dfbc611 bd31f7a6 3eb739ba 3c42a882 bdfa8a8c 3dd0a0df 3d96c849 3d7b6d2e 3ec3ec81 beb4cecc be07180e bd495a79 3b7ae26b 3cbf72d3 3d820f6d 3d1b6d6c 3e0ba770 3e08a7e0 3e182165 bd9c026a bdc9d978 3e10d3e8 bdb1cd49 bbf2031d 3b1f352b 3eabac5c bdc9fc49 beb4b92a be94b7d0 be3c563e 3ee94aad 3df70194 3cea7c07 3e4d70cd be0f0049 3e194225 3d072d6f 3e0eaa39 bdd7c22d bbd0932a 3aaa4d0f bd8a8292 3e501f75 3ddcf9cf 3ed99f35 3e095399 3e933eaa 3e8b4c2c bea008ef 3e53f861 3e101314 3e183678 3d2f619f 3df69910 3d7095bf be78d312 bdb050d2 3d10ed8a bd237763 bd735664 3ee9ec35 bdd21faf 3cfb4125 3e3dd8b3 3da53de0 bc1d476b beb7a439 3e12e823 be05b8ab bcf7e18a bc3c415b bd4192fa bdaa9005 3e1bda0f bda0f5e2 be3e3946 bc1e7c8a 3e072436 be402fc3 3e35a221 3c9f3107 3d1be759 3c882d59 bd88fe1c 3beba67d 3e7f0b17 3e163b3c beac657f bca47a6f bf06a14b bce45de4 be959e49 3e9c9014 3cd6e4d1 be1888b8 3c66faef 3a7138ee 3dc007aa 3c6aac3a badbae74 bdee2df3 bdb39bda 3c6232bb bbecfc13 3d42d733 bdd24781 3d7c4072 3e26006f be5b2326 bbaa6f86 3e21aa20 bc9f0e52 be8081f8 3dbaea21 bc692ed9 3d500ab2 bcff7031 bd3f88b1 3d619a0b ba22efc0 bdd04d76 bdb40e4f bcfa0665 3cfab5fe bc6540c8 baee4496 beb2d94c be305b8a 3cd74dc3 be047760 3eb87311 bd255b99 be9b649d 3d91ba5e 3e4b9731 bd86cff2 3bc76a50 bd06a92c 3dcf0ae7 bc926730 3cf31262 3cfa3595 3e0346ad 3da0fa7a 3ccb6c40 3eeb0347 3e6f8891 3d687cb5 bda141cc bda70524 bd815860 be907555 be864522 be2405d4 bca7a634 beafcec5 3e77ae85 3c86d4a3 3ebdc98f 3ceba5ce bcb98198 bcc6003c 3db89a01 3e6acef8 3eccb41a 3e3eddae bc9679f2 39281445 bde554c3 3e4804ab 3eafaf9e 395aee3f 3f37747f 3e7115a9 3f3b5f0d 3ee633f4 3ece9094 3e03e1d1 3e425367 3cae8667 3dfa6d48 bea0af04 bd4a78fd bd821011 beb658c2 3e07a033 3cc8dc52 3ca6060a bdb3d048 3d6d9383 3dbe424f 3f163ba1 bdeb7ee8 3d3e64e0 be893e5c 3f1079a0 bc2e139d 3de705f1 be17303e bdeac1bf 3d8a07a7 3e19010a bd86625d 3d683963 bd3df4a0 3ba6b50f bd895c3f bd218f2b be1ddbcb bdf3a250 3eb81ff6 3f105860 3cd2530e bd15cb30 3ecf4f52 be531355 3e6ea771 bef7cbe6 3e9abf22 be0f0e58 3e3d005a 3db53071 3d7f0402 bccd6481 3e11000c 3f045ebb bcacc109 3d07dd32 3d0fe7bc 3cf280d0 3c5e8be3 bd1d287c bd9e2fd4 be005461 3e6de684 3e7d8842 bcbb65e2 3ec7fe2c 3e9f4839 bd1dc3c8 bdc01657 3dbeb1ca be2323db bd6c278c bdd3901e bec18a21 bd9a4d96 3e8ff65e be2bc23c bda5e127 bccf63f6 3e91e881 3d011a6c 3e176da7 be07acc6 bebc65e7 bc8cfc48 3d4ab372 bec9f120 3e922385 3e15da1a 3d797c3e be268f53 3bd3cbb7 bd633cbf 3b90ec34 3e165263 3da37212 bc7c74e1 bc7cead8 3da3c5f8 bdf2147e 3dfe2efa bee90847 3dbe887d 3ed7fd35 3e412a6d 3e71012d 3d7be728 bee5cffe be43b55f bd9d74db bc479c80 be072b0f 3dfe72a1 3dc9aeaf be14a4bb 3cb95d74 3dd7c9f6 3f456e02 bdf6f9e9 be084180 bb516b1a 3c70a453 bd1a587b bd48ff74 be53f719 bdc23485 be9ef2ad 3c734dcd 3f2cd574 bda845d6 be86e36c be98ff49 3e1919b5 bdb1c9b6 3df61707 bba937ac be0bf3b6 bc1db2d2 bcdd9ed2 3eafd6f0 3dbce2d5 3ef74eee be667f26 3c726bdd 3e8fb45f 3e44473d 3cb93a54 3e3d61c3 3df140fe b9db7c3d be38705f be21dfea bc1ecfdd be7c7560 3dcb3021 bd2062c4 3c018c81 3e102d1f 3c734e33 bb84f719 bd5b1fcd 3cc389d5 bd40230b bd97fee7 3f2d6ab4 3d4910a5 3e8640ef 3cb94896 3d006d74 3ea4703e 3d812d46 3cc2a025 3e6aaae1 bdd69a35 3db69d93 bf1153df 3ee473bb bd768103 be8c175c 3cb369b2 ba59c039 3dff3afc bbbbaf3c 3e6ffef7 3e1e2027 be66d458 3e42d8c4 bd821def 3d9d8fcd be8e3bd4 bdff69d8 bdceef85 3e20433a be383097 be842ebe be8c5a31 3e054755 bd177099 3ba785f3 3c96b705 be63cd5d 3e376c44 be08d6ef 3dfd54a9 3da4a29b 3f0577e5 bd6e1127 bd027562 be24ab1e 3eed333f be5c6e63 3d551dcc 396fa6bc bcbe0120 bce9164c 3d8f43e2 bb5299c6 be64d51e 3da44ca8 3bac0d64 bcd6b319 be1b1f16 bb8543bc be20be9c 3c68832b 3db6854f 3c3db8e0 be29a7c9 3c03b783 3e2f80da 3f328b15 3e9f3f48 bd716805 3ddd9632 be49d907 3db6e9b0 bdb7d1a4 3d863760 3d258ff9 be10e44e 3efc27a9 be1d833a 3f574ab6 bb791f4f bd3b1e22 3e37c64d bdc0ee7a 3e360af5 3e319100 bda6c5b8 3e1a8884 bdca912a 3de51760 be42be1e beb2646c be0ecfcb 3e7f089c 3ae72aab bdbf6bf6 be191576 3e9124c5 bda9a0a5 3aaddb2e bd652b41 bea67006 bdb7d360 bd5bfdb1 3e2f3c3a bdb0f896 3e286b0e bd8b19a3 3e07225a 3da8b361 3e180e9c 3daac40c 3d83aa05 3c14635b bd9b246a be8c93ef bea34411 be792964 3e9f22ba bea0f7f2 be4070f9 be14632f 3d5aa501 bd10de78 bdd8d52f bdf56704 bb4b2eaa be360781 bce3bd2c 3f2daf15 3cd22768 3f496e56 3d5a8dc7 3c391269 bbcc2013 bd1d5bf1 bda39229 3e00d016 3f0be4a7 bc9ec448 be4b4f96 3ea2fd72 3dd151f1 bc0e8be3 3de015a4 be0d054c 3f0096f0 3d807395 3e6cb8dc 3e3b8019 be4a9f3d 3eb4b51c bd6edb09 3db4f23c be117eb1 3d34906c bde5d32d 3e295339 3c467fde bda7e8c8 bd984191 3ec7a27b be21f8e6 3e2a1ba7 bccf2da6 bdbb6b78 3d9ea89c bbbaabfa 3e56046b beb2806b 3e518154 3e696227 3e178dbc 3d307626 3f0b857c 3c33b801 3d235b14 3e1d23b9 3d8610e0 bd517d07 bdf434e0 3d6eb5bb 3f05eb90 bc124f30 be0914e8 3d8b1719 be8967b6 bd10363e bde8a2a1 bdf039b7 3e16ec4b 3d89e872 bdb325f9 3d92e66c 3e1cda5f 3f6cb246 3c5af890 bde459fb bd624130 be15a70b bd801e32 be17b9ae 3f117c02 bd48498a 3dc3ae55 3e59e2a3 3dc79cee 3f031484 bb99f4a6 bd5c89f4 3f1ba12c bd054797 3cb734e9 3e21d5bc be14b2f0 be81c66f be705e30 bc5b68f6 bd21e0bb be704693 3c32403b 3ee441d1 3f51ef0d bd4adcaf be92a7a5 3e1200b8 3cff9e34 bdbba61a 3cfc81d1 3e0733ec bded2991 bdc08520 bdd3d7ee 3e11223d be23fd7d 3cd97b5f 3e2ac374 be1d3377 bdc6b767 becd26c1 3e9c7fd7 bc85b1a9 3ea339ee bf7ebe5e 3dc3f599 3ead0009 bdd74a53 be12077c 3dd9a6ac bee238f6 bdf557be bd7b0911 bd84055a 3ba65631 3c034636 3d9a1fea 3d340371 3f1d62a7 be63b1b5 bec1c324 be3123f6 bd5af165 be0aceb8 3ebb8f07 bd97f345 3dd47f53 3eae34fe 3be43a76 bf09a0f1 3f0bb961 bdcf8e41 bdfb7fc6 bcc68579 bdd040d2 bdeceddd bd80a426 bdcaa604 3e09b343 be9a26f8 3e5a267d bd3af47c 3c5ad5b2 3bd34763 bdf583d0 be9b74b7 3cbcbe65 3f5ea1e9 bd86a8f0 be54685a 3e972864 3cf84883 bc29cfec bd4b86de be3204c9 3e840cc8 bd7ee530 3e11c367 bca53868 be06974a 3ded0cb3 3cc88b6e 3d0b182a 3d502182 be681021 3c9aa733 3d2757f6 3e017cc5 3ec6440e 3d9bc0b0 bdda79a0 bdbace5b bd200539 bdec97ad bf1e77e7 bdceb90e bd0ffbc7 bbf6581e bc74a2e5 be2ccebc be19684f bd1e2dbd 3bb86352 3c07f677 3f14a062 3e2faee2 3d7e1dc4 be842f2e be207c4b ba1baeec be89999c 3f160322 bdde372b 3e454fb1 3ecffe3e bda4763d 3f4ab1c0 3cde06c6 3cee6ab6 be3a365f 3da9de4e 3c9b53f1 3cc6b53e 3a8d182c bca04629 bd8727ad bd911761 3d43425a be817529 3e39de60 3f0c34b4 be4d0833 be851eb1 beb43503 3decb208 bcada9cc 3cf84e99 3cf75622 be3f83ed 3dd91843 3dc500cc 3e77800a 3e086b6a 3e11c49d 3d2279eb 3dac3876 3e9856c2 bd04bdc8 3e8d32b9 3db3bd9d 3c692c9a 3c1d1d77 be685a6a be473d89 3c0e6dca 3d11e3fd 3ce8bd27 be3663ff 3e8203bd 3da37d7b 3d896162 bd822942 3dd621e3 3b95455a bd3e8cc2 bca79818 3ec8f5fb 3ded10bb 3d9d9505 bc3cec15 bd4d6691 3ed6bee1 3db92c4e bd0df405 3e39d3c5 3ef40a4c bc04db00 bf605ff3 3ec2fc08 be0972bc bddc02a6 3cd67bcc bdbda5bc 3e8fe5e2 bd1a9f22 3dd3c6e2 3cc3fa6a bebb363a 3d861af4 be2503c9 be8361d0 bd652612 bde0f597 be3423a1 3e252b4d 3a36343e be4d0028 bdb73787 bd3398de bdb2c46e bd05235c bda1124b bd343251 3e150f08 bdb763b3 3d82a1b4 be012785 3e2d2afc 3b9d169b bb96f827 bd9d7c44 3e8ebf80 bdd8e47d 3deb11d4 3d9a2fee 3d3f20a9 bdc89560 3d2d50bd 3e031b34 3dbeedd8 3c9d9664 bd63af30 3ee3472b be9cf2be 3bac4e01 bcea3b3d bd547ec6 3ddda8c5 be5e78e9 be861161 bcb2c7a3 bd3cc5ba 3f1f4216 3d6d53e0 3da2ef36 3d472dc4 be45f2ee 3e0d1647 bdd0cd83 3eb532b9 bbcd2f38 bcb0db90 3efdb3f0 bc67d787 3f2a9d72 bc911409 b9d4dede 3eb7fa95 3d483844 bd023783 3ead773a 3dd2b725 be188ae3 bd65644f bc7164f7 3e649813 3e9021b0 3d050a61 3e8876c3 be578627 3f20a730 3e988212 3f1ae2ac 3cce8c69 3dcf07ae be35c1d6 3e5278c2 be412d3b 3dcd00a5 be6893ea be8c2187 3e8b42dc bd025591 bc343ddd 3ceae141 be23e7da beae3de0 3f352ca3 bc494f4d 3de422e4 bec7ba86 3ea052e3 bd34d590 bde100bb be7c99ac bde17537 bdc90433 3e847158 bdd76e37 3de7f67e 3df06d37 3d4bee3c be87c022 bd7e7ff0 3ccc173b 3dcefe23 3e767d22 bdbee98b 3cdae237 beaddbde 3ee201aa be8767f2 3d8de606 bf257409 3c49ae4c be58daa6 3e0e269d 3e02ad29 be185c1f 3db3c817 be0f78fb bda417e6 3d69482c be0fab4f 3c296f3a 3e17543a bc5a85e5 bbc80bb2 bd731a3e be143e14 3e0f6674 3e9affea bd9ac692 3d78eabb 3d2ddfd9 3d25e872 bd5ff596 bd869ae2 be24e860 bdec7389 3cc53de8 be2788dd 3d40d34d 3c1731af be59b6f8 3e120e2b 3cabbc15 bd27b323 3e9591ac bd339264 be46649a be9c276c bd397a43 3e026a4a bd7972e8 3e207704 3cfc1203 3bfc14d8 be147f16 3ded9020 bdfe6fa1 bddaa29b bc268098 3b37ba35 3c7b9b48 bd663287 3ba3bcaf be9154ce 3e4bd43b bd4f6670 3e645a4e bcd6ade0 bddde4dc 3e8548f7 bcf01b0e be922c89 bd03adad be9fce52 bc4d008c be97b127 3da08b38 3e47326c bcb92226 bd61da87 bdd05d34 3daaf4a6 bd0f30b6 bdbac70c 3de4b665 3e29204d 3e3f5570 3e6f97e6 bc40d046 3f0bc454 3ec1fe69 3e3c4ea4 3f03eb83 3e8dcbd6 3ef41227 3f15a1f8 bead6a3c bd8a32c5 3e12f1a1 3af2ea70 3ea6ed7e 3d378c30 3e3eb5c6 3dfa1b77 3bd181ac be72b28e 3d1fcb45 3de1d4e6 3e89ffd4 3ed576ee beadc3d6 3ee30504 3d225bb1 3ea37f9f 3e92eed8 3ea8e462 3e167074 3e9a5b1b 3e546b02 3e4c860f 3e0de0fd 3c0dee31 3bd1adff 3e683f0e 3e144393 3ddbe292 3e217c55 3e64c544 be41f311 bcaed1c9 3e1371fb 3dbf642c bc84d1d3 bd1bbe19 bd30ef87 be28554b 3cdeb78e be0bee2f bddf0f03 3db7eb35 be58fdc0 3e82ba16 be4834ff be16e971 3e54b22f 3ecbcb21 bd2dcae1 be034116 3d1c03eb 3e2ead20 bd0cad60 3d62853f bda99d08 bf1530e8 bbeef663 3dd26aa7 3e0f739e 3e3ccea7 3e3ec2b0 3e7cc3d7 beeea6a6 bd7dc899 3cc77c78 bcf77693 b9409b35 3e27ed87 3e3aa3eb 3d5cc776 bce12f8c be9d26d8 bd07547b 3d245e31 3e068a33 3ef8384f bea61871 be1221d0 be074fcf bd26668a bd95f91a 3c4be67a be042772 bb9de971 3e1974a3 3d467044 3dc49499 3e862b23 3d2a0772 3e59d44b bcebf247 3dede767 3e15de04 3e13b7f2 bde85592 be888c69 bd7e7661 3b9b4814 bda28a9e 3ef557e9 bd89ac98 bed059b0 befabbe6 bd9f5900 be4fe665 be572439 be37ac89 3d074ad8 beaedaae bd500d55 3d76ad7d 3ed82c0f bd7c418a bf3ab919 3ea6e738 3e2223bc be6aa95c 3d524111 bf1050f8 3df9e721 be9196b1 beb21dbb bf26ed40 be01320a bf9a79bf bf3a852b 3e80b8d8 3e166810 bea6356c bdd910b4 bd5d686e bc1fd7e3 bd2d1040 be668fa7 be35cc96 3da84300 be86bf71 bd8baa2d 3e4e9dbb 3d95a041 be713597 bee815a8 3df5c633 be1a82f2 bcd94dc4 bd8fec03 be967f3f be28f1f8 be1d6449 3cec3c9c bead2f70 3d9c9703 bdbc7344 bcb53b4c bc888ec7 be483cd5 bd6b1250 beb7b231 3ca7cc2c bf9fda59 c00d616e bf3bdde8 be3198ad 3e2c1990 be436523 3f7eafcb 3e98c65b 3f9093d6 bd192cf8 bdb0dc57 3e2f2ca1 bc3cb485 bdadfbdb bdfad96f bd72c9c6 bf3943a5 bd051d68 bee5353d 3dd0bece be7b8c08 bdabc72d 3dae4861 be8fa3ca 3f38c986 be39c0b7 bcdb0852 bea2e54a beecb6a9 bf36bc4d be4c4645 bc1d52d7 3cd7f0bb bcb7f1f7 bdedb52e 3ca829c0 be00609a 3d6e38dd 3d9252fb bd32812b 3e08cd3f bdf3c50a be2198ee bea94909 bebf2717 bf5bb5cc 3dbf5391 3dcac4a0 bd0cc8bf be9392d6 bd8bdd0d be0b873f bd1312b4 bd749f2a 3c58dac3 be455fc3 3c82cfb6 3de14423 3bab7127 3d08392f 3defa7de 3d78f174 3e0e24b9 bd4fb87f becf0a1f bf78b382 bea64039 3d1cab6f bfa8e0bc be0ea401 3f648340 3dc9eb7d 3fa1fd50 bd4abf42 3e175da4 3f02fd06 bd32fc7c bd8f4e55 bde8687f bd9e60f2 3ebe4819 bde37e2e 3ec0c398 bf12e989 bd1dcbe7 bcc2842b be3b81b0 3e49270c 3eaffb49 bddd7aca 3e4def8f 3ef6dd54 3f089b71 3da6c072 beaa350e 3d896fa5 3e6270c0 3e0c31aa 3c8a2958 be6e3b23 bd5c15a1 be81478c 3f9a640a bda79620 3e86e0d2 be4cf7cd 3e042bf6 bf22f8c6 bc4e5d13 3de958dc 3c2758a9 bc92633d 3dc7beb8 bde92791 bf05a213 3cc0be5a 3e406c15 bb359cf4 3b380a55 3e676cb9 3e8230aa 3d5cc134 be180b1f 3dd06599 3ec4367d be7dbe65 bd478644 be02a211 bd55baa2 3f8d2048 3cac7795 bcecc920 3e3bf804 3d3380cd be881043 3ebb0e17 3fa41511 3d617feb 3eefca4d 3f051eab bea52285 3e918f6c 3e41c318 3dec334b bd84a0be 3d69f634 3e98785b be4ba58a be96efb0 3e5f0dc7 be064aff 3e98e560 3e72a59d 3df9c259 bd43dbd7 3ecda718 3f103405 3cd56791 bde15279 3c0ac293 3e641252 3b37a6e1 3d011900 bd763f9e bc8e6d36 bdee8dcd 3eaadb62 be482d31 3e56b996 bdde2d95 3e13e2ff be5882cc 3e68a3ba be0fea6c bd36e195 3dea16cb 3d4c6364 3e1c47d1 be44ae30 3e27f310 3d294d0b bc9c0bc4 bdfc8230 3e8271a7 be016467 3d242c5f be1b07f5 3d8c7291 3e249ea4 be084664 3d93eaa7 bd816ff5 3da0df8c 3f3948fd 3ee4db47 be411e2c 3d902da9 be2c6811 be47faa1 3eb98030 3e560564 bc9668b6 be0ed21e 3f1395a9 be1d46f3 3dbd3c8f 3de64bae bda3b6eb 3d8971b5 3ce26133 3d053672 be08b880 3daa9ed7 bd8e1841 3c186250 3c3b1e2c be77aa1d be4ae9ae be527a28 3f246dc8 3d9ab306 3e6e40f3 bd84f886 bdac00ce 3f51045a 3e10746b bd19fdad bea7cfde 3d263796 bcdb301b 3ed6433a 3e9b18ee 3e03d5a0 3d06f372 3df0eb7c bbd40e8e be314161 3e388a30 3da7ab6b 3d2d8fad 3d7b5340 3e852f47 bde1b2dc be2789de bd1a4fda 3c7ba9a4 3dd09b71 3d8665c7 3e37ac23 bd3d3bd0 3da56af6 3d89e261 3d087720 3e53acfc 3ea7dd25 3f08410d bd465b76 3ea42acf 3efa472e 3bb0af90 3da6365a 3e828ddd be8bb105 3f05b77d bdc08e7d 3c30ed2c bea897ef 3eda929e bdc61093 be8cd576 bd49a6da bdb8428b 3e201e63 bd31a009 bdc9010a bd802f85 be920445 be338fbb 3db591d5 bd127c77 be6b7065 3e9b6443 be72d520 bbffcaf9 3eae20ab 3de3e41d 3dd63b00 3d102649 3f22468a 3dc6188d 3d924371 3e563a09 3d56b304 3d0700cc 3e579841 bd87918d 3e069095 bdf01f1f bc87ef05 bee4f231 bdf29fba bee6dce6 bdb8fde3 bd630804 3dee59a4 be3b0c05 3d35deab be4e6697 3cdc3ba2 bd8a2b5d 3dc6f711 be8baf1d 3e47e47d bb5827e9 3d82d214 bd0ed381 3dd642d9 3d88fa32 3e5fbd58 bdae8e81 3e1111ab 3e9423a0 3e88e97a 3d1ec2b8 bed1ea2c 3e5b1508 be5da307 bd8a8b3e 3dd134de be33a1aa 3dc0ffe2 bdaf0a30 bc54e679 3d4db07d 3d345b72 3e692caf 3d8e431e 3d39dcca 3cc25285 b9871ec0 3c5e0e6e bcbd349a 3d35953d bda5fa91 be659a68 be839de9 3c95bcbd 3f1360b3 bdae4d51 bdf3dbd2 be8534c9 3e24a861 3dbb726c 3d76d680 3d8bf45f be7516b6 bcfb9cfa 3d689c47 3de86a87 3dcbfa54 3dfd9aae bd8cdcdb bc6a0ead 3e42ebe6 bdf557dc 3e22a5e6 3e93ef67 bbfbe7b5 3c8d0f4c be9bfef2 be84fbbf 3c54252b be0ecf2d 3cdb3273 3dbc4805 bdc04f34 3da5361d bd891e1e bde9f1d7 be09ba64 3cfd682d be1050e5 bd885355 3f016567 3d9571c1 bcaddbd2 be1be2db bd8b6737 3e200e41 3da13951 3d5e8d2b 3e43cb6d 3e850100 3d6f99c5 bf05f65a 3f401ab8 3d883cb0 beb1ddcc bc551d8a bcf985a5 bc652ea2 3d82886b bc1805f7 3e237309 be9b05c3 3d6fb40a bdae7f06 bd2d3f4e be69e6ec be459e93 bc41601b 3e0671ac 3d282b22 be0c3b1e be2817c3 3ded2adf bdaea1a4 3b9a142b 3cb0f1f0 bcd2b726 3e3a5732 bccb0a3d be58250c be174fd1 3df8570f bd6d072e 3d45aff6 be8275cf 3e15e44e be1babc0 3df731b2 bd16441f 3d6d7f5a 3dcc25e5 bdbebf03 bd7a6c27 bd850815 bd1618f8 bd6e000c be2b0021 be048b0f bd8020b1 bdf98bb6 bc16eaf8 3d033525 bd8f887a be5ebdb0 3daf1c13 3e9bbf47 3f21b989 3dbb28f4 bc233281 bc1923c2 be11fce9 3da748ac bcc176e0 3e713b34 bd08bc04 bde07dcb 3f0a2aa1 bd7d4cd5 3f45e312 3d02f7bf be03ab84 3e48be02 3e980041 bd028fe7 3eda9505 bd2b0258 bbae77ce bc0ec64e 3d895010 bcc496fa bf1c70f5 bf1cff2a 3f40c095 bfb1c6a8 bdfbbad1 bdb0df72 3e476c59 bee0177b be5a9455 bd1cfd29 bda064a3 be425091 3e031486 be8823aa bcf249ff bef15449 bd8d4839 3d094a7e 3e494009 3e94b8ef 3e415e00 3ea947da 3e196f2c bd680b48 be63de41 3cd49cf5 3e8228bf bd543fe6 bc97299f bdaf23a2 be572c57 bea65b94 3cb06794 3e57b194 be116f14 3cb6df68 3ef2dd1d 3d28fc3e 3f119927 be0131df bdcddb9b bfa1a793 beb55379 bd67723c bf1276af bbdd7c9d bdf932af bed63f84 bb6b0cec 3f554680 be9d5a35 3e36a50f 3eabb028 bd9d22b9 be43538f 3dfea24f bda9218e be6fc22a 3f0b9137 3e7dc3a7 bc57e8c9 bd4fcbe8 be09f604 be0ac7bc becfe658 be6eed85 3f59daf6 bfac9e11 3e243c7a 3e09789d 3e3a8d88 be960414 3dea9fa9 3d006055 bda2db15 be44f242 bd688c08 bf7623a4 3d3276a8 bea30120 bd45e191 bc6e271a 3e7daee4 be8b056c 3eed319c 3e4c5fff bda4b9f8 3db80936 bf01c8b7 3e7c1648 3d9c397f bda92679 3e0a213c bba516cd be680964 3e35c959 bcfe89f8 3cc45d82 bce7c970 bd0b38c7 bd729b8b bf050cf9 3ef5773b be5c7eff bf83b46d bfad7930 bd73da36 3eae2e4f bd0822f8 3e7f9da0 3ed80291 bf0073a3 3d787a64 3e116908 be441be5 3e5160c6 3e36d969 bdf81d42 bd3da5a7 3d680db4 3e0e714f bd908b67 be4ac932 3e6749f9 be187c96 3d243af9 be766bd5 3f49380c bebb7df8 3ec1bbb5 3f7c81a5 3f1bfaf1 3ef49993 bea8d377 3db7ce3b 3f3195e6 3d93a5ae bdb1a6b1 be1c93b8 be113b63 bce3e15e 3e8cd592 3d81bfa8 3ea614cf be8ad3bf be3832ac 39d9403e ba19462a 3c3bd742 3e1c1fd0 3e030d29 bdfcd86d 3ec41282 bea05d07 3c46958c 3f1a1683 bc7c108c bddc84a4 3e79afb8 3e62bf49 3db6eda6 bd43e2a5 3cc939dd 3f3ab5dd 3cfeb4ff 3f012f7d 3eccd39b 3e03bb7a 3ee40d96 3e916450 bcba79af bdb97a47 3dd41cc3 be18ed73 3e9ba504 3e6785af bd97b1ee bf349d27 3f18d557 bdaa1355 bf135abf 3e96c5ea bc9a26d3 3f875ab7 3e97886f bdbe2768 bdb2cd83 bdf1211a 3dcce557 be35ec3f be30e2e8 3f053f14 be4f3588 bd729667 bd9c26ad 3ee91cad bc8db8c4 bdaa6e25 bc854c6b 3f03e51f bda45e76 bcf42be8 3ca0be65 bdbd7559 be25173f 3e67b519 bdc150ba 3eb2585f bddb6f7c bd8632f2 bdd08f7d 3e973e81 3d070474 3d2d3776 3d58065b be342f1a 3e2b1602 3d29e694 bd8cac6d 3f03cdaf bde8bdef bdacd42d 3e0c40ca 