100
subgraph.layer_seq.glp_0.linear1.weight 384  3f0c026a be47e820 3ea5d9a6 3e8b1709 3e5a9d43 be302134 c02259b9 bc49c141 3f369dde beb7f8fb 3e402bd3 3fb2a610 3f9fdf44 beb9c06a 3e97aca5 bf09e31b 3ece09d9 3fd645de 3f8fa52d 3c4f4fbe bf0213d3 3ebd9486 3dc31dd3 3f4a3391 3e24f9f2 be478152 3f3bdd47 3f7ec256 bf02db4a bfb28d26 bf1df263 3fa61eee bebf8641 3f2eda59 3cd75c63 3efe0091 3eb9a33f bdba3533 3e39cdd0 bdcda24c 3e6784fc 3e938242 3f87524b bea778cf bf2ab301 3cf3a349 be934110 bf4a1c65 3ded5c26 3dfa83ad bf2e763c 3f85b8cc 3f109512 bf93ebaf 3eb8cc6b be1cd105 3ebb7182 3f0919ca 3e8098cf bd6530ea 3f0f0a40 bd591ccb 3d789454 3ee2b6af 3e7b2b1d bfc45bea bf1f2330 3f3ca462 3f372c91 bf73cffa 3ebd9311 3ec9869a 3fc862a3 be13318f bcb638c9 3eb3f00d 3e18655a bf341b6b 3fd79b72 be991ffb bec6feec bec8da1e be831de8 3df94289 bf888c1d be71e5f5 3fbf9196 bc4296f4 be2b4e29 3f5984d7 3e682c46 bde915dc 3da25c22 3f3016cb 3e0ff6ba bfca05be 3e7a7b30 3d9b11ce bf40fdad 3f99ddfe 3f23776a c0175aec bdbcb428 be89a2e1 3efecfc1 be96e30e 3e9828f6 bf66e82e 3d351d21 3f19bfac 3eda1487 bec62e8a 3ed6911a 3f41b8cc 3e789cd8 bc36030b bf8ca984 bd02fb28 3e237044 bf019081 bc5483f0 bd5bea0b 3e0233c9 3f7f630a 3ecdabbf bfb4547e be5e71ae bebe8976 bf31b8c0 3f403dd5 3d9cf532 bfba0b80 3eb777b5 3f848817 3fa0dd4c 3f33fee3 bda4cc15 bd6f912b bfc6581a 3e87f11f bf922b5f 3dedce2d 3e86f793 3fa5b3cd bdfbf855 baf311be bf5ba0db 3f9ba491 3edfb674 bf80031a 3ee0a098 bde5ce70 3e67c729 3eef13c4 3ea1fafc bf869641 3f4c7b17 bcf01751 beb50004 bf271b84 3dca2aa7 3fe2ad08 3eded1dc be7fb44a 3ea19feb 3e2cbbc3 3e98d2cc bf5e9366 3d7635a0 be69f77f 3f1f46ad 3e7dce78 bc903759 bfcfa55b be6adfd5 be026ffa 3f880771 be236d79 3e7155e2 bfd5b261 3f75bac3 bdf5b030 bdc8324f 3f578482 3e39093a bf9743f6 3e0fa4c8 bef870ef be6d7251 3e83b615 bd0af36e 3dfa7ec8 bd73c3b9 be0b7228 bf93fcdd 3f798aa8 3e9113bd 3cf5cfe1 be257905 3ea0edce 3f1f86b3 3ea3595b 3dc308ce bebf862e 3f83d39c 3eeb6e36 becf3d68 3eb9785b 3d6690e5 3f71e551 3f562c6c bec1fa8b be474a56 3f10d25d 3d3ba12c bc0a1189 3ec1cdad be145d83 3edbbbfd c014ba31 3ee86fc1 3e9f6c8d be9da365 bdc07ff7 3efb4fb0 3f813f0a be61e186 beb78d80 3f218803 bec0d76c 3f87c7dd bf98706e 3ece6042 3f7ff810 3fb99f42 be43083d bdfd4a4f 3f47eed4 bda5417a bf7f2ff1 3f518fe3 beae9b31 bdadf5c0 becf0bd8 3f0c293f 3f8bf37f bfaaf294 3f0f9da9 bef31083 3eed7469 3de26b73 bdf3a364 3ed24e33 be51e1a7 3f092b2c 3edd7746 3e8ba51a be153a0c 3f833f18 be70142c bf08c49c 3e93ca1b 3e9a44cf 3f671cc2 3c9bdbb3 3d3ada06 bda79203 3e8511f7 3f0594bb bf2435d6 be260825 3df696f7 bd69b626 3f525c93 3c7123e9 bf4cc79d bf88bef5 3e267b7c bea4c04c 3db45da2 be2adb37 3f6788da 3eb92a1f be001651 3f00ea2d 3ed17639 3e7c418c befce15f 3db82f5a be89b022 3ec7ac09 bc5f0ac1 3e28e866 bf770994 bed6b713 3cc5ba02 3f9897ae 3f99dd23 3e7a65fa bfb874b4 3ec2530a be0efed8 3f015200 3d2356ec 3eabd8d4 bf97296f 3e9ee53d be2b8cd8 3ef3f2ed 3ec73cbc 3e8c1702 bcd3d604 3f2188f4 bd3fc96b 3d92d476 3f299064 3eae475a bf7f1129 3ec03d21 bdf9b4ec 3f14a5aa 3ef8d59f 3e85182b bec17b8e 3ee3db40 be461cc3 3e7e45bd 3dfa0eb0 3eaf81a4 be2bae14 3cde9be9 bcb6217e be11fb48 3ecf745a 3ea31918 bf1b70ba 3f24cd4c be849db4 3e031e94 3f117605 3e8bae1a bd55d918 beab5374 bf186e38 3f564b13 3f00f8e8 bb853d23 3edf5e08 3e2de539 be06e0ef 3c7ff299 3dcd677d 3e31b7bd bfb8b4d2 3f661ada bd3bdbd1 bf63fbfb 3f161712 3e7c067b 3e759788 3e84e587 beb399af be80c6bf 3f0ab43e 3e262917 bf8daf6c 3ec582bb 3e2fee28 c001a368 3ee6c7c7 3d2a7c21 bf897893 3e62bc91 3db80b33 bf00d39f 3fd8c309 3eb212d4 bf677f0c bf15490a 3f4be463 3fa27e85 bf4363a3 3e9fff25 3f02692e
subgraph.layer_seq.glp_0.linear1.bias 64  3ddc2053 3c3dd251 bd8097d6 3d3618e1 3d81dc69 3db6c8e8 3dce9c99 3d28eae9 bde559c9 3de4c749 bd53215c 3ca7ec8a 3dc6c52b 3d6ddd40 3d87115a 3e00fb4c be7c6358 bcfae09b bd9834ec 3cdfb34b be25ecc6 3d35f6ed bb3aadf4 3d87b703 be3d6c82 bd69f63c bd816a61 3bb17ea2 3d82b714 3d465fc7 3d966f91 3e07a9ad 3e08e1f3 bb8513d9 3e0a6833 bd0ab76e be41cf82 3e7db4d8 3d499d4e be220974 bc81a2bb 3d72f2c7 3c9d31aa 3cfde137 be255564 3d2be397 be263431 3da998ec bb02a4cd bd4e1b2f 3de80aef bbb80cc8 bddafde6 3db8e2fd 3dd22f99 3e2e07db bcbe0068 bc976108 bceb5ad3 bde31ae0 3d8ce20d 3d1e9329 be1cc54d bda887b1
subgraph.layer_seq.glp_0.linear2.weight 4096  bce18c96 3eb76eaa bdd97186 bb243902 bf5e958f 3f8ebdc6 be2646cc be5c0875 be5d9f59 bdd2f38f 3ab734b8 beab723a be075ab6 be50c720 3e3ab60e be1eed4e be25c295 be3fc4b5 be1fdce3 bee2740a bdc69952 3e345059 3f600975 3d6ddcb9 bd2f5c92 be0f352d be021540 3e3233a0 bf224c05 be8c38ee beee654c be7816b7 be3a3079 3e475ea6 be44f61f bd0e289e be9e9dcf bf5ccb50 be0a3ed1 3e44e32b bee3802c 396220c1 bdd92088 bf013d48 bd6c8e4e 3e1b10ba 3f1989cb bdd288f1 bd36732b 3da317ce be467e4b bd9ac312 bca5b919 bdd7874a bd03f7d6 be083eca bb9cd42c 3eb75f0f bdfc302d bef9502c bd2d0cbb 3d9bf42e be7afe17 be553142 bd792d9a bebf31d6 be080b35 bd840d81 3f94822c 3d4fe86b 3cb3107f bdaeedb3 be94586d 3dc674bb bcceecbb be55e5cc 3dc53e92 bd46590b bd04e223 bc8ea813 be378de1 3b2d0dd0 3d3bc806 3e198f04 bcbde7c5 bd0cbfa4 3f7fc0c3 3e8d117c be82505e be153a5f be3fb826 bda533de bdac4994 bea38880 3e23b0df be49d3fc bd95d90b bdb8a1da bdce6333 3d400889 be13cc50 3ebd0674 bec890e7 be0256c6 be8d0d18 3da12404 be225c8c be97276f be7c961f 3e241648 3dd72085 3e8ac59b bdcd30a0 bd8b5385 bbb82902 3d7d8eb5 3d8694de 3d257a6b bdae8c4b bd0d57f7 bd88e274 bdd924dc be13620c 3bb9c8ba be2d0ea9 be3470b0 bea4854e bdacf649 bc574efc bda8361f 3e5e2548 3ea4f4c1 3cdfc8eb bf0dcc4e 3dc06e42 3e2adab3 3ee1f2cf 3cbcfbaa bc33e7e0 3ebd930b be9a4ec2 3e59d333 3e9dab49 3e597243 3f25d388 bdcff0b8 3f539bdb bb9d89bf 3df890e7 bd33276f be878ab1 3e49e903 3f1bd795 3cbe4ce8 b9bc4aec 3d9c90ca be5d9337 beb3c71a bdc22cf9 3c988e5b 3f5178f0 3ebb712b bddab2e6 bcf814c1 bec48cf0 3ec8d87a 3e00fba4 3d3d67a6 3ec0621e 3e060437 3e402293 3ecb2c42 3ee3d7d9 3db4dff3 3d1f6fe4 3e16e73d bd8dc83b be7a5a2b be9f6c2a 3ca8ef01 bba3ebd7 be291b49 3dfc7bf7 3de45bdc 3d93ee58 3e9cd7e4 be2fb7d5 be6dc86d bca87bcf be688225 3f445132 3e6591c2 3f14cbfd bd3825b4 3e6b57f9 3ef5a3aa 3f2a3db3 bf0b76bd 3e96d0bf 3f2f3ec8 be64d045 3ebb93b7 bdfd426d be3e1476 bd3d879f 3f095cd7 3f2738e5 bdde0230 be70825f 3e97dfd5 bf1d977c bef940f7 befe55a9 3e89e8a3 3e2f3803 bea3dfc7 bea02f7b 3cd89a20 3e12f7a3 3e717026 3e04f69a 3c68eaa8 3c99d0b0 3f03fc0a be0c3d20 bdb685e0 3e70024f 3e467870 be8a6722 3f19d22d 3f6944ff 3f1b2748 3f4871bb be3e1bbd bdade144 3f3bf026 bdf8be0f bd5aa08b be736820 be28d802 3e3e9e43 bd71f036 bd3954df bb65861f be30815b 3e8c4a4b 3e6015e8 bd33482f bc562fa7 3ec0a020 3e0bffbf 3e097904 3e2140a1 3e1d8fd2 beb6b2b6 3cadde31 3db663af 3f80c3ea 3e8ed1c7 3e6c5a64 beeacbda 3e4b7f83 bd0c2334 3d4451e1 be6b9791 3cb7ae73 bdb825b3 be8171d5 3e24ca66 3da80a11 3e3ff664 3d34d9d2 3defeb38 3c6624ae bddbb8cb 3e884d5c 3e86562a 3d8050b7 3ee8df27 3f4058ee 3e69baf1 3e0dff67 3e8f4203 be0e343d 3e82609b 3e609276 bdd83f50 3e2ac42c 3e8b256d 3e29cb29 3e1b9251 3e03a802 bedc2a6f bdf9dc25 3e96275d 3d9fa895 3eb47ba1 bdf16ed4 3c1b6496 3eb1519e 3d85e9ec 3e0f13a2 3f9a463f 3de2beda 3dc8993c 3eb136dc bd50528e bd8ffd48 3e277aad 3d303c26 3ca07798 bddd8dd8 bc4dbefe 3cd2d2e7 3bfcd783 3dc8fa05 3d6c5190 3e9a3226 3e7535a4 3d37e038 3e38f139 be13bfd3 bf07315a be923ca6 3e7436d3 3e8cf485 bda68ee7 be4de559 bdd37035 3e149042 bda27601 bebb308a be2aa9b9 be69f8ee bd9085a1 be02dc00 bce9322a 3d48b92a bf090509 3e150594 bd36c15e bd10ff28 be0833d2 3ee087ea bcba4b1b bc9123f2 bea83a8e bdab075a bd8839ca 3c72a883 3defecd8 bdd8d372 bda915fd be15c09c be86c92b bdc7316b bb60319d bdf8868a bec4406f be480e4a bf3eba72 3f0f6f33 3d5962d7 bf29c6c1 bde8ccfa beca1dbe 3ece4c4a be3c4fee 3c905482 be87d5c1 3cbe7125 bdb43c44 3ce291f9 bd949597 3d93b1e9 3d882cea bc9cd11e be73e13d bd15eaf7 bdad6eed 3d936e97 3e8d7551 be37bd2a bf501ed6 3e9298b2 bf532e02 bf00d95a bea228c4 3eec9b93 bf62cf2d 3e84be8e be84c1be 3ed7ac43 3c89d8c1 3db673a0 bf0cd113 3ded78ab be840013 3d93b5ce 3d903b4f 3e92e49a 3e11bdef becab77d 3deec26f 3e13c6cd 3d908230 bf4bfaf3 be666935 3e767610 3d3aa0a3 bf2892c0 3c33fd9d be225d19 3e31f9f1 be701f20 bdcb4340 bd69b795 beeedd92 bf0a6036 3cbc9b1c be36debf 3f55f493 be30dfd5 bde5ac0e bed4af6b bf2cb9f6 3d94b73f beb9b1fe 3d840bd7 bee6a69a bf03d8be beb8f415 3db19c7d 3e390f7a bca3cac4 3da343a6 3e3285e8 3e2ca515 3d9baba9 bdaa2e0c 3d57e7bd beaceaec 3e7e95ea be81afe3 3e10cb70 bd22ff3d 3e316edf bf18afb0 be24419f 3f1ea74c bd0dca3e bdfd569f bd8c6359 3d1a04ae 3df21b93 bebe37c9 3e0aed35 3dee262f bcf1e95b 3f39dfb3 3d9e274e be039919 be49135d bed2547c 3d013544 bdd90b2d 3f1cadb0 bf49508f bcceda5e 3d43d0d7 3e2def18 3e676116 3dcc6ee3 3dcbd24d 3d1bb112 bc2f1714 bab17386 3db41284 be8d4bb9 3bacf05e 3efb04ab 3f3afa32 be95c4e2 3e0b9e8d beb5db4a be493657 3e556e65 3d49ab62 3ec0f4c0 3ee41bab 3cf076d2 3cc61e98 3e622c56 bd57729f 3e2cdbdd 3e0943f5 bca11437 3ecb9829 3d7f8438 3cda747c 3d7454bd bdb02ec2 bda313c0 be5378a0 be11f650 3d0663d8 bd3962ae bf013035 3e0faac0 bf302cfb 3da3f8b6 3eed1f06 bbbd00a2 3f328ca1 3f5718e5 3d626d75 bd3e7c08 3ff35f3c 3eaacd97 3dec31cb bf2c37cd 3e32f8d0 bedef83d 3f22d91e 3ec42a80 3ebd1177 3e7ed4a7 3e763167 be7e89ad be9f87dc 3e91cb4f 3f7f3760 3de3b514 be842736 be47c996 3f78eb1e bec81c17 be788c8c 3f525faa bdf3c9da be3c1849 be3cc805 3e54c530 bda2b9f7 be59bdb3 3e98955e 3f2e91ec 3d8aa991 3f2eabe5 3e0895db 3eed4a47 bc9ce072 3f3ad727 3eeb291f bd1a4d43 3f30eb1a be7966c5 3f2d77c9 3f04d18e 3e914a0d be1291fd be2e5462 be3c2065 3d94fdb0 be3701ea 3d84c940 bccc5133 bb0ac234 be0692ce bd6b62b9 bea0f9bc 3eb8e384 be3843f0 3f002e7c beb5a74e 3e4bacb4 3d7e4410 3de9e214 3dd98a53 bcf507be 3f6956b3 be1efb51 3d45a485 3f34668f bea03ed1 3ddbde1b bc6e8f42 beb95e60 3e2cfb71 3ece1f0d 3eeefd29 beaccf00 be52feaa 3d71cdc6 bf047457 3dcc7f38 be87cccd 3e9cc56a 3ca44570 3c9f9f7c be979813 bbc66c5b 3e830cbf bcaee876 3e4284db 3e2b2231 3e5dba9c 3f122495 3d0d5e1c be8d449b 3e858839 3e2d80fa bda1b2e3 3edc3f15 3e0ec3cf 3eef3536 be4c4332 3d89678e 3d9c7730 bdd770df bcd2e1e6 bde5c08d be9b7b62 bdb1dd2b 3e35629a 3c890d49 3daaee78 3d4e5dde bd97ae37 3da16d4c 3df0e016 3d938c9f bd18c832 3ed1f5bc 3d1effa5 bd525635 3da9170a 3e03c918 be19bc66 be9eafd3 3c501534 bce6dd54 3dc270b7 3d66e86d bc01a3f6 be3aad15 3d3b1fb4 be0556dc 3eb9b012 3ded7d79 3ded01b3 3f444dc0 3d355482 be2823ab be32655d 3e7ce0b1 3f0d9046 bcd69775 3f36c87a be9e200b 3f6d9ceb bd9bb19d beb85795 bd606851 3f02072f 3dd74ceb 3d9e2734 be20ff7e bd461b66 be3db568 3df97eb5 bcac0455 3e0b23cc 3f2093dd 3eda24b6 bd8598ba bf1090b6 3d087169 bddd2083 be11b00a 3e1c52d9 bd20180f bdd1f051 3ea9e57c 3efc1d1c bed28d09 bf0af84a 3d96c57d bca18e91 3e33abe8 be34662a bcbbaa0a 3ee9ae02 bcd92c2b bd1a56e9 bd767f69 be097d3f 3db17af8 be5ab53c 3dfa1180 bd0850ef 3e2e2e78 3f2fa8c6 3f3db8e8 be2b3ae7 bdb60f25 3f15f7f7 3de3d928 3f68f0be bf2c8196 bb42ed01 3ecc68bf 3e5127f7 bc3b927f 3d8fd810 3f81d244 bd7cb9ed 3ed32ea1 3eec97a2 be02f891 3eb99805 3da53182 3f409562 beb34482 3e098515 3e4966c4 3eb6634d beefe807 3e62ce3e 3d44fce3 bd336e69 3caeb9ea 3e758818 3dfac246 be1fd1a7 3eca48e0 3eb63b61 3f850166 bdbbde19 3d5ef557 bdafba7f 3f0e830a 3f47f0fe 3ef42d73 3f570887 bf0471b4 3dd14257 3f109aba 3ed74206 bdbb4885 be7e82d4 be3509ed 3e3102bd 3db8ac90 3e0861ca bd0fca94 3e6c13a3 3d285a65 3df6ce73 bd15ac73 3d81eb75 3ea82375 3decbefc 3e2cd80a 3d93f2d5 3dd65c2b 3e6e5a41 3f391df0 3e041c2b bd0068c2 3ca4e02b be3dbf31 3d1138c7 be70f30a 3db282c7 3e7c3a86 be7d7653 3d7f92af bd91542b be7aac9c 3c71847d 3ec899e7 3aba3eca be90f176 be8f6f13 3e06ac3b befd2b99 be1e277c be72ae04 bd9c3c0c 3e7b21dd 3ee27ade be29872d 3c7c021a 3d9048d2 3b91e319 3d42d883 bb47c17b 3e8b6cfe 3e14d7a0 3bfd491e 3f38efff bf4802b6 3d24aba6 3e6e02a2 bec28abe 3efd75cb 3dddc855 3dc720a8 3e88e0eb 3e35392f bd9218f0 be06c382 bd13d84a bec6f66a 3e35c029 3d134899 becac36c 3d9c778f bccf2b9b bdb3b492 3d34dae3 3c9d654a 3aa38693 bb33c745 3ec8a059 3d094fdd 3e48cd24 3e8a75e4 bea95af6 beef1eac bf04d642 ba56621b 3ee9af06 3dbe0af9 3ef17b7c bf0eed4a 3ec48613 be1d4617 bf203e22 3e3dd7fc bdc8df6d 3e9c9ba5 3f3bf763 beaaf5d1 bf27a9b3 3da3813e 3eef32b2 3edbdf74 be911de2 3f412069 3ecc9d7b 3f012c85 be8602cc 3e68e43f 3ebb6d0a 3e90907f 3e1e0f55 3eeb20cc bda06ee4 be48092e bde76bd8 bf18734e bec94e47 3ecfcff7 3f49e2b2 bef5c8bd bea3e47f 3f3933d3 bf277bb7 3d8e5c5f bf35bde0 bc8fbf2a bfc84329 be8c8b63 be4fd543 3f1e64ac 3e126e47 3f1a1852 bdb5a46e be6cf50a 3dfdd8a4 3e89e466 bd7d53de 3edf9c8b be0b945d 3baf755f bdb947fe be0ff72b be79b61e becfef62 bc2b644b bead34ed be0fd27a 3e9d23ed 3f39043b 3e824e36 bfb1cdd6 be101222 bf85b625 bf8912b7 3ea0d440 bda5fe4d bf854270 3ed931f5 3e8a8e53 3ddcdd7d 3e991a0b be116009 bf46a9c0 bf588ea6 bec63d73 3f1ce261 3d1f822b 3f01be8f 3e7872ca 3e9c6d0d be409713 3ed74275 bdbba4ff 3efc120d 3e31eac5 bf06c2b0 3e18c02e be3e6e3a 3e171181 bd0800cd becf66d8 3d124757 3e90f118 bdaa4c03 be1b045b 3d7e94ab bf5bf0eb 3dfce791 bf18fb02 3d8ba7c2 3e016879 bd29747b 3d8bf2fa 3ea24f9a 3e827191 bdac6000 3d9649c3 be43d0d2 3e027096 3d9a4432 3da4fb9e 3dbae086 3a867279 3d10c225 3daf8e20 bd843016 bf02e3e7 3da394a1 bec0add8 bcae1aba 3f31aca8 3e5d6204 be603f1c 3e916202 bf393ef6 be9865d1 3ee3b73b 3fa8e6ba 3d8c06bf bc88a02f 3f19cb29 3e6212a5 3e0500c5 3e743396 bf67bad5 bd2da407 3f2d9e34 3e5fd6d4 3e8f29de 3e029ff8 3e0bcd9b bf009289 3dc23108 3dc6ac4b 3e452224 3f67b57f bf2ca2c7 3e2f5758 3e644384 3d8a8c39 3e515cd5 3d949488 3df5d8bd be9df6bb 3e22349b 3dee7b0e bec9fd8c bd80111d 3df30264 bdb45336 3f6be66d be2d47f2 3f99831c be255142 bf642be1 3d67a0c9 bdf2a2fc 3d128d48 bed0034c bf263b01 bcdc693d 3e5f4202 3ea21972 bc8320f7 3da5a381 3deba1bc 3e028b59 3e06902c 3de622f3 3e23a709 3ec93af7 3e752d0b 3e56683e 3ddf61e3 3f0eda67 3d9d99fa bf101810 bd943aa9 3f7ee786 3eee31d7 be6f84fd bf05b17a 3e98ba4d 3dd29d30 bf43b2fb bea8ebcd bcf0f775 be16832d 3c55d076 be02e465 bedbaeb9 be917dc8 3e4ee718 bef343fa 3d1606f1 3a92dc0a 3e04c7c7 be107961 3d9a6c13 3e15c26b 3f7bab1a bf23b837 bec4b29f 3d40c6d4 3d617bd1 3f2b02fb 3f1d211d be2df3a4 3e1ea86d bec3d63d be26a75e be59a6d0 bdddbc45 3ecfbb6e 3e1ce537 3f4be6ad bf3cebb2 3f2df657 3f84b3f1 bb9590be 3db5a8ec be5a4b73 3f07f47c bed984e1 3dcfb75e bdec3b28 be9140f5 3f09176d bd6a01be becdb188 3d870ae2 3d19a1d1 bd98525d bcf42d0e bc16d89e 3d3b11f9 bf2550b6 3d6df1ce 3da5926f bef3c537 3e0a7c7f bde14dbe 3ed73bf8 bcf73225 3ee41ab7 3f3c4a0f bdf8d448 bd9036ca 3f55c0b6 bf049ef1 3c644c89 bc824624 bd312556 3e18237b 3f6a1b23 3f06b4a5 bda27748 bee6b6bb bd891c7b beb755eb bd7f4c9e bea3f0b5 3e450189 3cb3c225 bd159765 bee2c0b2 be9daaca 3f1238f6 bd585332 3e81c621 3d520fb6 3e7d1c98 3ed864ee 3d9c18ff bda7f675 3f26aa8e 3e10a58f bdbd2f6a 3ec67155 bd86810a 3edfce5a be9a609f 3ec9f919 bc7a6fbb beca7186 be1198a4 be755ada 3e1c6eb7 3cb6297a 3de6cc3c 3beeb2cd bd4089e2 be30b0e4 be0e8620 bd4fda0b be4a2e4f bdf61da2 bdbe8906 3edca4ce 3d417d93 3ee6a94e 3e669401 3f081276 bf0804a6 bec1888c be123c8d be28f271 be313d0e be736b3e 3f33eb23 3ebd3dd5 be36f348 3e602057 be2f34bc bdf98a45 3c92e704 be2d63de be64264d 3cd7f26a 3e07f1ac 3e2e9494 bdf03569 be377fb2 be4aef8d 3df46307 3e08e4f8 be7fe2d8 3e5ec54a be7200e5 3e508061 bcaaa7a9 3e8cf692 bcac2245 be215225 bde43e00 be76faf8 3dbcb26e 3d324a5d 3d480269 be07ada8 3dbdb5ba bd5fbe94 3d86bf41 bda619fe bd69e76a bebb15fd bed0ff53 3df645b8 bf094f99 3e50980c bc8185f8 be264710 bd5bf070 be5b8f55 bde5589f 3b3e29f5 bd0df00b 3dadceb4 3de8adf2 bd409812 bd66f9b8 bd624f98 3d9541b8 be2233f7 3ce0166f bda621a5 be9910c0 3d4e571f bda8a642 3ca89978 3f13a62e bf4d6851 bec9ed15 bd506245 3e097052 bdb72fba bed81cfd be40deca bdcdd0e8 bdae514b bf25e7de be8d0c72 be964f99 3ca3dfe5 3dbc7ff6 bebd8229 bd0f593d bf4969a1 3e208c4b be27c28e bd9dc24c 3ec97878 3eca63e9 be08a9b5 bd9382ff bf6ad588 bdba8141 bea65463 be37c901 3e6f31eb be982609 bd1ca134 bf2e4d7f be8d4490 be6b122c be15e8bc be8503dc bf3f8432 be99a543 bf3e5977 3f8a1939 bc0055e7 bf08d75b be26ce86 bd081760 3f4e3a4a be2d3964 be17c313 be9ec244 bca6722b 3ca0f738 bda709a9 be4a000d bda81dc4 bceb0469 bd89d86b be9dc65a bd516bf8 3e37ecfb 3db2df33 3dc9a606 be09c8b0 bdb5cc5b bd91b959 3f2eda68 bf5f4e07 bc9eaef2 3f00e588 3eb935e2 3d61a9f0 3e507c11 bf04b0e2 3e35fde2 bde3244f beafd767 bd800491 3e428109 3ea35b8f bd8ee75c bf46a5bb be0111db bef1468f 3f07ada8 bf04af12 3e58f906 3e3a3a1e 3f0f4f29 beeada28 bdaed78e be4d4d2d be047bc1 3d6b42cf 3e0b6979 3c362394 3e0f3941 be77bdf3 bd98d44d 3da28ef8 3e281243 be8ff4c7 bdac82dc be036d4d 3d9520b8 bf6d52f2 3f7f50ad 3dd2ddc4 bf0b2ce3 bf079c10 be693e61 bdaadf2f bc33df79 3db55486 3a28a063 bd7942ca bd8e5a39 be902269 3d884d5f 3cf5cb9b be44c204 bd16eae8 3d9954d7 3c3e1054 3e71b41c 3d21f6b5 3e7e9fc1 bedb4266 beb2da24 be4a50b1 bf84e0e2 bd406f11 be9fd391 bdd98d32 becfbbd3 bdc0814c beedd574 3ec166dc 3d524e82 3da7436e 3edb820f 3e070b03 bf2f69b2 3e2208e3 bd4fe8a3 3ec2f5e8 be5e3e65 3f34b78e beebd748 3d415eb0 bd983489 bedfa60a beb33aa2 3f034b6e 3d1925cd beceae68 be4cfe3d be089f32 be39298f be98b619 bda33440 3e15ff32 3e0f5002 3e220245 be9a4589 3b6bde62 3f0e543a be02f568 bf4b357e bda7ae61 bf1bb4de bc098642 be5cba6e 3e50ecd5 3d6bde65 3ec3bf4a bd9808be be3e009a be4f6579 bcd69695 3dc388fa 3dbd10d4 bb514d94 bdeef6b3 be92edf1 bdba4ae6 bfbd6e10 bde48395 bea9e533 be30996a bf08cda7 3e405065 3dfac89d bdc67e51 3e3c74bb beb50494 bd9073e5 3e6a20ba 3ef00519 3e84c753 bdce5b32 bf07a2da 3d16d0ba be290674 bebafa14 bdc69b7d be406729 3e081eef 3df44515 bea2a640 bd50c899 bf08f4ee 3d767267 be58bded be36c143 bf3529a7 3ec7ba42 beedccbb bd83dfd3 bf1fa589 3d0ee323 3d987803 3e529ac7 3d84a402 3de0ac56 be11b5f1 beea243d 3ea13fc6 3d84a339 bed3f9bd 3e4b3f1a bf24ffad bca92fc2 bf969d02 3e4e6dfa bcc92cc4 3d011b8a be31ab5f 3d48cda7 3dd4eb00 bde87536 bcbd6dea 3d791c7a 3dccb6f1 bd9c5c3e bdda3e2e 3d562790 bdb41f37 bd929ae3 3d4ddcbe be855ca9 be17b43d 3e81b27a 3d50a3e4 3dc1cecb becd4ab3 bead12a5 be1af80f 3f36a223 bef5f06e bedc2725 3e90067c 3e9d5ecf bda8e460 bdee9b54 be18186c 3d6a2669 be938301 be979367 be90c135 bca5a311 3e7715bf be635676 beeffb88 bdf71658 bed3ad99 3ebfa531 befba0d7 3b68e6fa 3c39a541 3bbdf448 bd0d1c2c 3d4c65d3 3ea6b345 be1a1dc9 bd8b7c6f be3077fc beae9a5a 3dd5ddb5 3cf0f2e3 3ca1917a bed5a6de 3dc597a9 bdd1ee74 be9473f8 beb01de1 be2ce1c6 bf1db16b 3f3a8e57 b9bd83e6 bf14bf5c be889b7c be6cb514 3e59d669 bcad8206 3d533a5e be7f11e8 3e0b5b3a 3e1e1b51 be77ba24 be5a20cf 39c7cfd2 bde5e04c bd2fa6a1 3e81dc49 bc8f7372 3e8f8063 3d869644 be7a4f23 beb93eb9 beed94b3 3dc8300c 3e8f79a5 3e4f0379 bcbdb535 3e46edc6 3d297d04 bcd81da1 3ecef79b bec8f020 3e0c7794 3c969e57 be97dc5b 3f235224 3ef67940 3c1a6d96 bd22ebde bf105704 3df5c6f7 bef0872f 3efc3f92 bdd17d0a 3e477f06 be951fdc 3eb08266 beadf5db be6bc67e be39b765 bd451cf3 3f10a785 3e881e5f 3e5d359e 3e6c31f1 bcd940fd bee3f9fd 3e58b426 3e217df6 bf3ed7ba 3e7b6ed3 3df416ab 3e25927d 3e13d9b1 3f7e0239 bd2cfa5c 3e639314 bf00e8ea 3e2b35f5 3e6a53f3 3e395d95 3e833bd8 3d6c423e 3d813ab2 bd8249a5 bea4b662 3e3c1147 bc2bed29 be458658 3e593304 3e597168 3ebd3f1d 3e55607d 3e922d65 3f0753ac bf03abaa be2d8f17 bc01ef1f 3f5d152d bddf77dc 3f02db61 3f1259d6 3d183de2 3e3ac344 3edc5da3 be2fbc3b 3dcf167e 3d3619bb bf11cf34 3e2c6281 3e85cb87 3f2f1a72 3e4099ee be9c761c bd9c401a bf7c8b35 3e37cf1c bdd1fb8c 3e43a877 bdd564ae 3de0480c beb26961 be30fc06 3f4ac5e2 bddf4303 bd91ac31 bde81499 3e9d0027 3e959743 be87600f be630fb3 3f7c029f 3d8176d5 bda85337 3f132aa7 bedc96e4 bdc4f0f4 beb43ffb bdedcca6 3e6e4053 be0de13d bd5e3f09 be9ca08e 3ebd3b25 bcc262ea bd69c7a8 be0bf562 bdd565a8 3d124745 be0609d1 bdcaa9cd bdf21b1d bdafe845 bd1d4288 3e2c2040 be231e97 3fa60bb2 bd87a477 3f2caeb2 be35f486 becb2b0b bc9f54da bd43558f 3f0fd366 bc5abd25 3eb59b7c be615962 3e015fee 3ed43a94 3e92fb21 3c1d3bee 3dfc655d 3f707033 bddc7b93 3eb4d6f0 3e7f9ea1 be18cb83 3e9845f4 bda382a6 3f78901a bf3ba75b 3f069905 3d770549 3e379322 be9e48de 3ec33920 3db74214 bd476ac1 bc16dc32 3dd1a8c9 bd8b77f7 3a9f374c 3e4d8aa8 3e3a5bb8 3f1aa01c be378367 3d4ba8be 3e3d73ce 3e50242f 3f10762a 3e3e66fa 3f4127b8 bebb2b33 3d776ad7 3f3e3b23 3eef2984 3e70440f bdc76fef bd608649 bd69a8d5 3ec5193e bde482b4 bd6e2f94 3e5e673c 3e46315e 3e19be29 3d6486b6 bdf70738 3e8db2ed bdd82b6a 3e5e9ec4 bdb883bb bdb510c1 3e84bd85 3f3683bc 3d4366ad bec5edc8 be107a29 bd8a66de bf9412de 3e29904e 3b4024d9 bf2f5b1e 3ed86432 bd00d9c6 be1d7d81 3d793436 bf5d0c86 bf12d4d4 3e9cd3c3 bd8d6987 3e733b03 3c8f0135 3f0202e3 3dd62fb3 3e4b6419 bf05e30d be0a86b5 3f279096 3e8fb20c be055b60 be74551a bd33844a 3e1d70d7 bdc02de2 be28e8d5 bf13e6bc 3e32e0b7 3ed449f3 bedb1b8d be8ebefa be9e0709 bb8cf07a bd9b8f95 bf3fb7a5 3cc8a445 3f4aeea4 bc2b69fd bd824e92 3e51f4fb 3e1ade64 3eac3fa2 be0a8d11 3d8c5244 3e9006e3 3dac1c03 bdcd7d31 3d1ce3a0 3d5d55ff bbedf662 bdad7a4b 3bb4a62f bee7d7a9 3cff0f56 3d450b19 bc60c34d bf35194a 3ec72455 bd494d92 3d9f8bbf bf0c4422 bec58c97 be70453d 3f149269 bf639ea8 bd00f324 bd5c801a 3f0b2839 3e842ba5 bc61dc80 be8b5039 3dca8f58 be2bea1f bda177b3 3d9bc103 3f10464a 3d8acf36 bf01e629 3e2cc425 3e95d332 bdb9260d bf26e2ef bda986d1 3ef69ae1 3dab0cb2 bf051d9e bcd999dc be9018fb 3e01765d be1e65f7 be4ebfd6 3e8d0237 be366486 bedb2b7a bd9d6116 bd3ece56 3f4f6e6c beb451f4 3cd7f4af bdfed42c bf01436a bd00e384 be4084f4 3e185b8a bea9cafc beea9d1e 3d96266f bd3806a6 3dda8a30 3da7060c bd37764a 3e378189 3d2958b8 bdc4f427 3e1e3af0 3dd9c7ca bed06241 3dd9078e be03bab6 bd064e74 3e61e8bf 3e84a598 be8917b5 bda82704 3ecac2b6 3eb1cf76 be18eae0 3eb0b97f be1964ff 3d8890fb 3cf6e55d 3d150f37 3bcb2693 bc26b92e 3ec65e3b bbcb7e4b 3e11cb48 3ee9c9f4 bdc1c5d3 bcd48ad2 bd304ee6 3f3a20a0 bdafd4d8 bc9d12f7 3cb80837 3ebca1ce 3e624e8b 3d7d3368 bd4ac4a6 3e5ed1a3 baf42040 bde0af7b be9f3ebf 3b6d1955 3d0d0be1 bdb09374 3ed1fff9 beb17bcd bde9655e 3ce3dabb 3e13c26d 3d81e23d 3e0aba85 be522c70 3f5b8a46 3d78cc7f 3d6792f2 3d45409e 3d956a4e 3f1b428d 3a91971f be299c58 3e496c24 be277bd3 bd06d1cb bd7f9dc0 3d18baa9 3deaa567 be117b19 be1e6750 3e67fee8 bdedf04a bd05e591 bbe77e81 bd9b1965 bdbb5a66 3e2f69a5 be923696 3dc174ea 3f1ccf0c 3d2e8601 3ebd21df be3cc57e 3d883ab5 3ed35ef7 3e956c1e be0e00e8 bd21693b 3f22cef5 bc0d36e5 3ecc035f 3e87d9b0 be6c06ca 3e96f212 bd39f054 3f7b80da beb4d382 3dc18734 bb84ff49 3e5b2d7c bf02abc2 3eca2a90 bd1aeea1 3e26e10d bdbcd18a 3de3d9f1 bcddb09d 3d669b24 3e5f3277 3e88ae6b 3edd97f0 beb40ae9 bc5df7a9 3c609e50 3ea76c5a 3f264448 3d913b6d 3f3b1ec0 3d1b22da 3da9ac8a 3ee04155 3eee715e bdc53e51 3d4558d5 bc3654c7 bba0072b be3f740b 3c8c9bbb 3dc5bdd8 3d15744e be3a0a94 3d871cf1 bdb32f5e bc8aede4 3e303125 3de0a03e 3d4071bd 3d82c253 3dfe554b 3e6de78d 3f1ca372 bd1070a0 be05c16b 3f1abc1c 3de93483 3e602eff be994bf7 bd45020d 3ecd9f4b 3f00ffaf bd23394c 3b10f31e 3f2b9514 3c689ace 3e9a2491 3e6786e7 3e22bae6 3f3a38cd bcf69dc7 3f50c6bb bf453545 3f02c734 3ca349c4 3f172779 bef6b8cb 3f177b29 3dad1fd4 3e85fdd7 bd4a3d73 bdb51b0e be0f2f22 be4bb5e3 3e6be5b7 3f205121 3edd6a94 be3736d8 3dc180bb 3dbc250c 3e735ea8 3ed32e45 3e3be8c8 3f0e196f be70a700 3caba495 3f31d474 3f36ad35 3e2ba693 bdb0e596 3c7cf606 3d22e1b1 3b4834ab bc338dfb bdc0e992 3ec6aebf 3bb664ef bd28261c 3e3b9e9b be10e3da 3e116d23 be1bfdba 3e801e87 bd961c6d bed1b533 3f5471ef 3f5ca716 bc818eba beebe039 3d86ecc8 bda762b9 3ed22240 be23a24d bd1b3701 3e329399 3dca7135 bc918f51 bd99c602 3f844277 bea9eda7 3e78ed94 3e8d89f6 be45d93f 3d9820f9 be1abde1 3f48190a bda3858d bc251447 3c9f79e5 3e65244b bedc6af7 3bf8bb5f 3da8e4c2 3ea1d1ff bb44496a bd09e9fa be0a3f36 bf066178 3d8b49b4 bacbcf6b 3f25d128 bd0d30c4 be2d2659 bc6a1b25 3f086276 3edd883b 3e834d36 3f37f30b bf652398 3c347ced 3e598298 3d03efa3 3e8af0b0 be962a34 3e4c75ef bde2e6bd 3dd7204e 3cd24540 bdfb74c9 bc49a478 bd711127 be0ef6be bcdc380a bc9f9f41 3e6ff989 bdf20378 3ece87ed bb98a446 bf0d1be1 be00f0df 3f7b9d9f 3c9c84c9 beb1d81c be6d275c be2d3254 b9e23c7e 3ee9032a 3d41fe78 3e266f97 bc9acfca 3c369a7d bc2f90a2 3f186af5 3e818c11 3dc3ab56 bd230fc3 bd193311 3d74f95d bc52d2e0 3f2d637b 3e1b1f80 3d8f39dd bdfc173e bea2533b 3e35a808 bdb2ba66 bdc88165 3cec5dc1 bda8de18 bcd521b8 bbf7d3e9 3df6cfdc 3e36d302 3cc1ab60 3ee1d6c9 3dc83668 3de0afe6 3da7959a 3eb40c4d bdcee931 bdb940cf be3a7fcb bb6aafa1 3d90ab2d be9b6af1 3dcefe82 bdf1b5aa 3f57f6bf bd8e3918 3d45774a bd18ec93 bc5e9830 bd23f819 3da2e935 bdcec194 bc74d337 3dc7f608 3cb004ff bd36982c bdb08e9f bbc55349 3d64a247 3e3f3f81 3d80da06 3e8b950d bcd5084f be85f5bc bf050d5f becd8dbe bae98769 3f4de693 bdf152c7 bea9358a be0575ea 3b61a2e5 3ceb4cff be623425 be8787c6 bf0d17e8 bcbb2e9b 3e6c10ab be11603f bcb74379 be8a4ddf 3d7dfb00 bd9c59a4 be118d9c 3f23d6c9 bd1c447b be582395 bda00677 bd8e10bc be6841b2 be603b6b bd029ed3 be5dcfe8 be57ebcf bdf160bd 3d8077b2 3e1189c5 bddc4931 bd4624fc be0645da bec5f188 bede6dbd beedc0d7 3da7a51b bde86cfc bf006024 bdababe4 bcf47c77 3f03771a bd28d5fe bd7185be be5dde9d 3dc8d3c3 3d274446 3dad1d74 bd7dc616 bdbb60e9 3da67350 bda16293 bec8b05f bda6bfe0 bd925065 bd302ace be6188ba bd9f0b12 3d5a1202 3d96e281 3ead6953 bdccf0e0 bdffa471 3ed91c78 be0091ae 3e43725b 3e8628bf be990e5d 3d913f4a bd85629e be15b4de 3ed6c01b 3e0d21f2 3e28eb3f bc87c53f be831c53 3da3e7fb be7c89d1 bda1ddfa 3dd2fc8f 3e497fef 3ec8f8d1 bc47e2b2 be739295 bd22eb3f bd574b0c bd1e4c04 3e7c4674 3e0fa751 bd495e19 3e244907 bdcafd1a 3dd5645e 3e3c8355 3df45abb be0d739b 3de505c6 3e23d044 3d2c2a62 3d0b7199 3ee978ea bd41f634 3e7b1b87 be9dd702 bead97b4 bef6e217 3e05f9e0 3bdb7b08 3e1107d7 bd7257be be411378 3e15fbbd 3da655af 3d8d676a be0119b0 3e2b6837 3dfcf2c3 3d7ff50e 3e564b0b 3d79e5f4 be631799 be112cc1 bdc2d352 bd075b2a be32b5fe 3ee9264f 3df88be6 3e86ac2a beae8968 3e15cfc9 3f38bf66 3ebc32ae 3dcfaea4 3de57707 3f8ab2e4 bdedcb0d 3f013d0a 3e31d7df bc58b55d 3efee75f bdb9d980 3f30ebef bf111e74 3e0e0fa2 3d6466c6 3d6c0b0a bf30e83e 3eb3b3fb bd39f6f1 3e4784f2 3d8a88f9 be52e384 bec8b558 bde27fd9 3e103d69 3e50d173 3f2fde98 3d9fe9c5 bd62673e 3d5f3175 3ee7b27d 3f19927d 3e1139f6 3f1d59c2 bf34f422 bd2e2a86 3ee595ed 3efdc3d8 3d85ec67 bded312b 3d4b1ac2 bda297ef bdf526cb be3d898c bc581808 3e3ba2ba bd42a2e1 3dc86d5d 3e097ce7 bcde9b31 3e4c2f95 3d8761cf 3e86af54 3b82b50b becb379b 3ec02d94 3ef70244 3df3d9b1 3f53fead 3f273654 3e62b024 3f832f9a be2e7b71 3e1a25b9 3f234dd3 bea5b8ec bcba137a be5a5655 bd911a67 bf42bc86 3f1b6399 3f41dab1 3d83c174 be261af4 bdb623d2 bdd99c95 be4f4384 be29f840 3dc14957 3f93beab bd81f8cc bd752340 be255fa9 3f1f8a06 bd8e4ec3 3e104357 3ef3c9b1 3e586ec7 3e553460 bd2144cf be42a49c 3daec9ae bd2009f7 3e41db9d 3f2daecd 3f1ee630 3f6e4e86 3f24356d bea17ace 3d296266 3edfa692 3d5ece3e 3d738810 bf180e8e 3cdd6ec8 be0658ed bd69698e bd9fc983 be051717 3d1b5534 bd7e56d4 be30c437 3d0908a0 bd0f6f63 3eef35d4 bc00ef80 3e2dd861 bd944ad4 bea4ce71 be153e83 3e31b78e be74e196 3f253fff 3e9fb9bb 3ed66ad6 bf28aaa3 be2690f5 bc1bd3c6 3ed5fae5 be567805 3c9dafb3 3cf8e5ca bf135165 3f069c7b 3f0a9d20 3ec8fbb8 3e9bed6f bcb74d68 bcd07654 bf1fc33c be9e5583 be733d8e 3d077342 bee96fcb 3d1fff62 be0af334 be5b5b09 3f799a0d bdde823b 3f31f0d1 3f1196a0 3f3291df bda6ae92 bd5d18c7 3df916b8 3f4e49af be438c06 be750a22 3d2b3667 3edd4d43 be751af1 3e9afd99 beb83ba2 bd63b090 3e2012d8 be9a606b 3ac4b1db 3f0c865e 3e553984 3c904a5c be4e29a3 3e1ba972 bd8ed8ec bd943a57 3ca57ae8 bd2ae48a bd7bdff7 bdc9ab51 3e9b4136 bdf8e5cc 3f474992 bd7c9c2d 3eef72ff be14c1cb bef85b98 bdf26d6b 3e2215cf be827999 bd28a98b 3f262da6 3e592ece bdf26006 3e25f347 be900b85 3d84871c 3d4c8d14 be61698c 3d26b570 3eaf2f16 3eb10f87 bd603a24 be94cbf4 bd908803 be19da06 3daa91e4 be2a5ba5 3dca6437 3e9efe97 3cc3907f bed56550 bd0dd5a7 3dd4efb8 bd0d58ee 3dfa0669 3d89673c bd7593b5 3e024f15 be80764a 3d89c1d8 be07adf4 3e6ab3f1 be37954d 3dee8e35 3d2d4ac1 3e5947bb bec473f7 3deaef0a 3b00b374 bea1b423 be1faf12 bd304bdb bd95c8aa bc3d7b44 3d9b57ad 3d97890e 3c98df64 3d954ebe be4abc6d bd4b1ce5 3dab7dad 3d537e1c bd99208c 3e7781c8 3b5ae76c be30b6e3 3bc53286 3e2c70d3 be93973a be932565 bca83e26 3de6425f 3f3e8076 3e83cb11 3efc628a bf12854a 3d23e15f 3f3f4806 3e03feae 3e3fc506 3c849014 3f1b1e64 3e14c2c3 3f2b58a4 3eca2ade bd50ce1a 3e9b837f 3dd18d5e 3f0003a7 be81becc 3b9812bb 3e7fdb80 be6498e1 beb3e839 3e3a9872 3dc60c86 3e701e4c bcbcd63f 3e720cb8 3e27f350 3ebb5557 3f39f97f 3e31edba 3e4921bc 3e7319d0 3dd3e599 bd171bd3 3ec9f72c 3f1869af 3ed81ea9 3f73130e be10ba1c 3c95760e 3f4df360 3e3d1abb bc53a8d3 be815ce4 3d85b830 3e6a9b3d bd99da20 3e65d035 be0b65b9 bce9b274 bc8945a5 bdb59b7a bbc1673f 3d483eaa 3e94c433 3dccf074 3e4990a4 3eafa8e2 3dafd645 3e802ecd 3f4d35cc 3daa121d bf6634f4 bd756ec2 3ef85fca 3f985961 be5c69a0 3dba2b67 3f1e5dba 3e6d4920 3bf0a425 3d48f044 bd60502b 3f092cc1 3f25a7b9 be472ca8 3e95e2d2 3e417b7b 3e1176cd be65e9b8 bba1fb7d bde29634 3d56b4bf 3da7ef2c bed2e826 3ea1a6d6 3d65f140 3e44a601 3dd0bd94 bbae88d8 3e7c238c 3d8b31df be490eb7 3e3c4c4f be02d844 3f4b1449 3df0114c bf2745b3 3ec2bc61 bf1232da 3f8a692d be1a306a bfbce804 3dd036ee 3e418d4a bd7827bf bc5518e2 bf12b400 3d906401 3dc67d95 3f168731 3d3d2e51 3caef028 be22d80d 3bec7eb1 3d92eb74 3de661db 3cb62e73 3e8fc3dc 3e2af5e3 3ebf3cc9 bd32f65f 3f678211 3e329be3 3e6e9070 be248f2b 3ed4ac33 be8346b4 be46ddf1 3e957f34 be7210b0 bdb446bc bc2f7890 be6db660 bdbb4214 bdf0f85f be6c66b9 be811614 bdd94168 3e2bfc60 be86d1dc be197b76 bdf4aa6c bcc0f3b0 bee9058d bdae4aa1 bd1ebb20 3f4166d0 3f2d4fe7 3d3795d3 bdac9d1c 3cd624da bd27875b 3e39ba24 3df061bc be1693eb bdab28eb bd81e869 bf0682a7 bb585c79 3da81f18 bd59dd7a bca7bb47 bd28128f bcdfb9da be9b1d18 3f59f7f1 3d82c1f1 bf06610b 3d210a25 be650094 3f616942 3cf9de71 bd6ee970 3c811781 3dabb61a 3c934eff be126afd be253eab 3d4967a0 bbfa7e40 bd472df8 bca211b4 be13f0e7 3e1b5358 3d4594db bedcf32f be2fce39 bd9e5061 bdec3296 3b253f0d 3f2a3c7f 3dd23394 3eac6c1e bdfc3ff3 3cbcbb54 3e92b8f4 3e97d178 bd92b85f 3d5bad24 3f2f0bdc bc71b65d 3e5e71f8 3ed9483e bec2df6f 3ea5db08 be0e5271 3f50ce86 bea7003b 3e896f0b 3e3e78a4 3ee1d101 bf16bb97 3ead483f 3dcf817d 3db78ddc be22b748 bdad0072 3c761b64 3e1e977b 3e47cfc0 3e6831f7 3edf591b bf29edb2 3dcebd5c 3eca1c45 3e849b31 3eb04da5 3eab1c3c 3f74cbbe be9aaf77 3d923385 3f20bbac 3f0cfa92 bd36a5cb be9f4a3b 3e9659a4 bc4e553a bdd66bd6 bd007d8b bc255c05 3e17cc54 bd5cdacd 3d11a1bd 3c83f5e4 be040cf5 3ddb8e81 bcd0bcbf 3d3e5aca bd6d37f4 bd1300be 3e804b73 3f8f8bb3 3e3cdd5f bfa53e9b bf40fd24 bf1c8252 3ea584e9 bf9705da 3d48fb72 be857eb4 3f18c7d2 3d4de4bc 3e82b1fd bf0d97b2 3d33ff44 be86657a bd724496 bd0c5d72 3eed75fd 3e4c0ce5 be9942b2 bd64f835 3ea423cb 3e6b947f bfa949ac bd19493d 3ee7a345 3dfcce39 bf5f9fdb 3d94e61c bddf2ded 3e9500dc 3e297aa6 be2e1f1a 3dfd5d31 bed180a9 bef33e01 bdfd3fb7 bf07e30d 3f0b1239 bf0ab4b8 be14ebbc bf26a576 be7a7ad9 3ca7f7a4 bf1608ee 3e31514c bf11d515 bef81383 be28f973 3dcc8942 3dfb290a 3da243c0 3c309eb0 3e1e3550 3e2debbd 3eaf9327 3e6c3d05 3e2ce5cf becb6986 3ec85b59 be00d528 3d8726ff 3e8c9901 3f030b2b bf55c11d bd85297f 3c592e0f 3eb1a327 b8725765 3ea56410 be714619 3d3658ef 3ecc833d 3e893c7c bd95103d bd07f5a5 3f6748aa 3da41639 3e64c763 3e0e7063 be8eeaab 3e96a419 3a482122 3f82f5e9 bef8cfab 3e4d1738 3df1ec28 3da61fae be34afb1 3e80b590 bd80cd5b 3e060620 bdc9cf04 bcc93d9e bd89bebd 3da3250c 3e5c3b73 3edc0c3e 3f221fa3 3d54f521 3db7b33a bcd0fb51 3ebe5426 3eaa58b9 3e3e27f1 3ed4ccdf bee84afc bd0a5a8c 3f1178c1 3eeb05c4 3d8121e8 3cc479c9 bde1ce45 bddb6d39 3b2aa536 3d9eb325 be3427d1 3dad04f9 3c8f1146 bd6c46ea bdd97fb1 bcdae3b9 3e6bc0f7 3ca46acd 3e82bca2 bd9d76d5 bd60efcf 3dee2197 3f7dd263 3e8bb404 bf14beca bf2aa040 be4fc588 3ea22280 be1df89d be39dc00 3e14073c 3e2a54c5 bd0b89a3 3d8081a1 bef06d44 3ebeb2ef bd101159 3e59afdb 3bbd773a 3e341521 3e3b2dae bec2fee2 3e9bb454 bd86a63f 3e3b8013 bfd645ca be46b787 bcd8d512 bbf857f0 bf15054f 3d2c2eba 3e71b776 3e3b20f6 3c5893c2 3cf9dafa bd8de98c bf06b1f1 beea4a1a 3e375dbe be03fbe7 3f10e390 bed1b295 3e915419 bf6d8719 be87c613 bd07adac bf11943c be144b2d bedb53e3 bf2e9f3c be87c3b1 3e12d21b 3c6cbbfd 3db12888 bdaebb27 bda11d97 3d194911 bd026db5 3e385f6c 3db64a64 3d900aa3 3eb289d2 3d73f203 3e2814af 3dc2f124 3e31a0e0 bf978a7f bd285309 bba4b16a 3f69d57c 3e027546 3ec7b5a7 be96e083 3b7d985e 3ee77f0d 3de78a94 3e2bf8fe bc6af86e 3f44034d bd98ba84 3f004b46 3e7c6f5c be2a6ca2 3ebf80dd 3d19fb7b 3f77a7aa be656da2 3d5c871d 3e0fdc6a 3e652deb be89c138 3ef66c9b 3dfe1da8 3f15c58d 3d6e18dc 3d0127ce 3d7e5059 bd98e3cb 3dc0905a 3e4e297d 3eafa751 be1ec733 3d3349cc 3d8de2c3 3d011689 3fa4a1c7 3eb01167 3eed5cb5 bed116db bda4126e 3f4e3078 3ed3c042 3de00605 bd207518 3d3eff4a 3dc00e4e 3d8d8910 bd0f11e5 3cd54d5c 3d8d2a2f 3ceb38ed bcd167da 3c728880 3d44ff43 3e776437 bd7fa049 3dc94ff0 3e02fb8e bd8ffa13 3e753d57 3f66f2b8 bcea00c9 be753563 3ecb5e2f bcf7f66f bdb89414 3dc60e58 be290595 be2d6191 3d80febe bd17d6b4 bea96104 bf065a5f be59bb7d bcd2f6bd be10b80a 3dcd05ea 3eba5dc0 3c682b22 be0459e4 be35823a bb03e9c0 bd72c7be 3eb24c6a bef831a8 3ce0da5a 3d3ed242 3ef21238 bdd950e4 3e61c606 bd813229 bd30c200 3d0991f8 3e165bb0 3dccfc24 bee0cf73 bdbfe36b 3e9d9b58 bd9ba241 3ec7a3fd be085e74 3eb242bc be7f1f10 bdfaabf6 3eb107ff 3df81f03 be406ceb 3ccc3432 3f062e2f bc5c9bfc bec1a420 b92a740d be6009f4 bdb811f1 3d23fb92 bdbfac2c 3c1b244c be043aed be19fa69 be2992e6 be54e418 3d04930a 3e505f23 be4e65a3 bebfbc3a 3df7169d be14f9fe 3f329c0a 3ef2f56a 3e2f67be bec57fae bd021c01 3efa0253 3ded0120 bd746e05 bc323899 3f2e25d6 3ed23865 3ef590af 3dc9314d bd6d359f 3eb6e8c7 3d1a52c4 3f812319 bebf73ef 3e66c2b0 3e2f9c3e 3ec7d116 bf02b4e7 3e1eb839 be15cce0 3eecefd5 bdf99e88 3e810daa 3d66ce34 3d9ed8c7 3e96a942 3d8eabce 3f1419a8 3ebc9d02 3ea40414 bdc70ca6 3e9bf5ed 3e9e360b 3ed8e4f4 3f87695f bf435fba bd91a871 3f3c2afe 3e3c3103 3df016c0 be741e43 3cc6b10f 3f087039 3da12556 bdf747bc bd8fd0d1 bb3f24e5 3d89d9e7 3c160cd8 bdffcff8 bd3a88ab 3ea3ccff 3e7a7dfd 3e343200 3e303289 3e5d8395 3e48f1d7 3f883134 3f1e5d94 beab9328 3f09eea7 3eb4c7c8 3f193527 bf5dfdb8 3e65b109 3f37c4fd 3ea1100d 3df8a83f 3ea05bd4 3f0f7dd8 3e64e52c 3f16f1b9 3eabaed5 bd8b4182 3d10e18b 3de3b386 3e5ff5e6 bf3b9e33 3e116cdd 3eb54999 bdc99f77 bf2a1068 3e225722 3e7cb984 bc95140b 3e9fa754 3e3a906c 3e1af693 3dfadf92 3f0b55ef 3e09a88c be23d01b 3e599ef4 3e00ede9 bc360164 3f16657e 3f804afd 3f0d1eab 3f87677f beca2e65 bc907874 3f4d4612 3ddad91e bc870d70 be98d899 bd18fca1 3e1b4f62 3d19811e 3df7e138 bc9195c7 3e3b118c 3e8f9d5f 3e84f85b 3bedb89e 3e14ff0d 3e8c8038 3e5f66a7 3cbaf998 3e1892c4 3e2ccf15 3e855985 3f1b304f bc0f2b23 bd6f382e be660cf3 bdb4a17d 3f2cb5ca 3ec73d45 3db3db05 3ccfa78e beaa6080 3e7d39b7 bdceea8e bdc8e018 bdf14df0 bb331a82 3e4c4cd0 be8521b2 be223b9b bc22d85d be821db6 3d19d201 be20828c 3b074750 3e292524 3e040fe4 be213582 3ca2debb bd66caa5 3c39143d bd8b098c be3a8285 be2897d4 3e09d532 3db04312 3d0e4e0d bddfa657 bda5bef1 bda25070 bd60c3d0 be30a178 3d9adec6 be848a67 3de92e67 bd341b2b bed4c910 be3bc7cd bd374c7e 3dcf485c bdedd117 3c3ec26f bd313161 bd2251df 3dc1a1c9 bd9097a1 bc038b55 bd13a145 3d957359 bbf689b4 3d9babeb be027e12 bcc44ae2 be018e16 be1da1e7 bdeb7030 bdba4e21 bdb8eda1 3e7bf7cf 3f31fd86 3e8ab36e 3ee458e4 bf3f770b 3dab3fe5 3eed790b 3dd8b60d 3d028eba 3e0e2655 3e9990b2 3ce8814d 3f0562cf 3f140b40 3ebc6020 3d2a2b80 bd0fa578 3d6c11ed bf259e27 3e479a24 3e5768bb bd238d61 be122180 bbd72f97 3daddf55 3f06ca81 3e0e7427 3e37b9a5 be14d71a 3ea41d0b 3e90b6c7 3e7f175b 3ecb1e70 3e9ac6fa 3e4face4 bdc6844f 3f04acd5 3f196172 3f171ad3 3f555a50 bdc76ff2 bcca99ce 3f415f05 3e51f3bd bd746180 3e7f3ee4 3d44a010 bcca8c9d 3e2f484f bd8b35cc bd8c7371 3da1f9c1 3d58b9da bdff6e52 3d2168a2 3def4da5 3edf070d 3dc890b8 3e22bd45 3d6b8a33 3e551dfa 3e89f834 3efd6042 3e495e5e 3f1d1af1 bd225b9c be999d26 3ee08d7e 3e062ae2 3b6e8871 3e9b733d be615d5d bdd379d1 bd3681f2 3cfb1488 3ce14f6d 3e82ec47 3ec01936 bec157ef bf354a27 bcbf7544 bda775a7 be9b3080 be05517f 3e982986 3dc56fd1 bd82ede6 bebf05c3 be11c0f0 bdf6b59e be30d925 3ebc7545 bdc420b4 bdc8ec7c 3ea0ccd7 bed3953b 3ec5340f 3df7a75d 3e0e3dc4 be12c3f4 3dee6dbf 3e90e44e 3eec1183 bdab3906 3d8b28ab bd832f33 be46c60f be935814 3dc6d11d 3cc42ebe 3bc9be66 3dcf9bc5 3e294e87 bd451be8 be31e223 be235a6f 3d3e8c3d 3d16a4cf bea43446 3dd71cae 3f2b9f04 3e0c25bb bc5c6525 3e65dba5 be7c933a bf19ff65 be618a3d bdc62848 bdf6e8ed bda86d00 bc5d4200 be1cd741 bb84d529 bd943544 be152035 3d9ae9ea 3dc251d8 bd8fd1f6 bd3041c6 3e32ef17 bd71c6a7 3b85a1ec 3c1cc539 3e26d274 3d8a2bd7 be16baf3 bf6e0588 be94fa7e bea07ba2 3e235669 befe2dcc bd01ee64 3e18e613 3d56f0ca bd040ea7 3e3b6968 bc1d246c 3dd1b435 3e02bc63 be0509b9 3f123b49 bdaaeeb2 3d6b566f 3f3ad34f bca64f2f 3d88f25f 3cf07ed1 3e017612 be3d6536 bdc8bac4 3d91aaf6 3ebdf4d7 3c9ec51a 3daa9cba bde16809 bce2e2ed bf3b276e 3e5b71f4 3e4b3630 3c6db654 bda8b6af bc03a19a be9e8a87 bd821e6d 3e64a44c 3d2329c3 3e6c70c7 bd071899 be9ab6bd bf53f139 beb4acea bd299bae 3f0f0a91 3f4f5361 3df6c600 be58af9d 3c39c4b9 3d4f3e71 be3c1fdf bd9a0681 be0ce0bc 3adf9326 3eefd3aa bf83e2ac be11be72 be38f663 3c57fd50 3d336bab bc1fd9d2 3f647dd0 be13a3de bd45ab91 bcf8d34a 3f1cc458 bef01a8f bd2cdc64 be0a29f0 3e9853bc 3db60446 3e59e2d0 be378c61 be8245cb bdc67b42 3c41a200 3ed624ed bf0e64ff bdd6586a 3e51ca75 bf6ba5fc 3f513551 bd93cb1f 3f7ba359 bf0d14de 3c922148 3f40da8c bd2a22b6 be970e95 3f2a569f 3dd3ae07 bd324acc bf0ae89b be3a26d1 be41c930 3d264af7 be1ec763 3ca99348 bcb4cc0a be7b88f9 3e198da8 bd9e9170 be13be31 bcb7003d 3fd63bb9 be28c830 3f2cfd21 bd1ffdd0 3c3a88ff 3e092d9c bdc0ba72 beb22b89 3f16ac11 3d13cfa2 beaf8c18 3d117e95 bdea45bc 3d1863d3 3ed73adb bc858fb3 be40221d bed835c3 be40b8d3 bdd56a91 3d48cc34 3e8f1c83 3e49c0e0 3e7dab8a be15ec0a 3f1dd640 3ef63c2e beece5d2 bd8d5341 3d8b4cf9 3da9bd06 3d53d0ec 3e210b45 befc4cd5 be3f55ad 3dc9498d 3e2a3552 bf2300ba bb3bbc8a bd6b8b19 be8ae6e8 3e8a4a64 bdfa637c 3f138698 be5fbc9d 3ddcaef8 be5d83d9 3edbe50e bd9ea0d7 3d03d774 3daca9d2 bd33b82e bd881b5c 3e343e56 3c28f672 bd599b10 3d28daae 3ddea039 3d4ec158 3daa9cde 3c48b2e8 bd9ec6f7 bf309de4 bd57018f bcd2098a 3d15409f 3ef8ebe0 bd88717c 3da32111 3db3e83e 3d24ae3d 3f254938 be4d1953 bc3e4cf7 3e859cf2 3e100e1d bd651128 bda5de1e 3e9be75d be599479 3e9b8ed8 3ede74ab be979e97 bdeb8a3e be7d8b99 3e8df8d5 bf371da4 bcc3bc65 3ea0dcec 3e61d637 be2065f4 3d686dbe bd5d2231 3d8b2a12 bde18da8 be826f34 be859b42 3c224054 3dc18fea 3e00ca6a 3f1dbfe1 3f26f425 3d7827c3 bc34cd33 3dca2e12 3e50d27d 3ed28439 3e765c1a 3d438992 3cb2b3b3 3e3b782b bd0bee5f 3d70afa7 bde10f71 bc835e0a be15b601 be095266 bd828f16 3e84ba55 3c9e478e bcc5417a bbcc6bb7 be22b73a bc0bd213 be4def9e be185fbd 3e170e88 bdb4d0f9 be2ffc32 3d135cae 3da392f6 bd706165 be75efd4 3ec89364 3eb4877f bf1af62a 3f8c9e14 3bef8ccb be9925b3 bed097c1 3e91b5f4 be83fb0b bdd99c18 be04ba98 be865009 bf1e560d bd3e8c03 bee7f24f 3c34d9b8 bedf7f67 3f5be22a 3daf5dc7 be0b6499 be292578 be8221fd bf051789 be798284 3e5f895f 3dabb76a bda9fadf be353b18 bdcc7cf2 beca745f be1fba77 be9f2d8e 3d45747d be271374 3fbc3ca4 bf08c48e 3ead6826 bec97de1 3e30aff1 3ea334c8 3e1616d9 3c3374a8 bdd5a886 3d82c475 3e263391 3dfb89cd bd9a116a bf888efe 3dd6d3a2 3d804a6b be58ee5b bd419fcd 3d3cc7ae bd9c111e bdd2539c bdf54b60 bd973d8b 3d74c4c1 bc42a0b2 3fafda3d bf4ac3f6 be080beb bcda175f bde88d49 3f629efa 3e8c711a 3ec9da61 bea670c7 3de2a626 3ed31dd0 3e695140 3da59d2c 3dcc7a7e 3ebcab44 3d6a8ddf 3ead409a 3e4d3885 bd94b3df 3e28e2af bd37de9c 3f1f347d bf37c5a5 3e0b3d27 3de0eab8 3e9c0523 bee5aae0 3e4253df bd9476d6 3e645079 bd22e4d8 3d693b20 3a9b00db 3d6b1c5a 3e255ecb 3defeede 3ebf29ae bd17f828 3e4919fb 3b0f0a37 3ead12f4 3f16d02b 3ea4c62e 3f801633 be970fc4 3dd6bb8e 3f36e477 3e980a19 3d437442 bd97d355 bd32edc9 3d9c60eb 3d8a0267 bd95fe6e 3d4375a1 3e5303ab 3d1fb4e4 3d62a319 3cec4c4a 3e340cac 3ebbb9cd 3e8ebe83 3de7c835 b9ef5610 bdb755c7 3e5a0e3e 3f7b5a8c be505519 3e961bb4 be06ced4 bce4ab80 3f499452 3e86ba38 bc512bdd 3e2e7901 bf0a0d20 3e2f56d7 3b2f19da be6f82c0 3d3d7bfb 3e888bb0 3ddc00c7 be4b9078 bebfabe3 bbb6b365 be99e56e 3e901dd8 bf27f4cb bd0cce83 3ede227b 3d9edceb bf03290a be031159 3e178bd6 3d5f9ede 3dedf152 bc4ee1f2 3e2f36c9 3e79fc20 befa50eb bdf6935f 3e68c9b9 3d984f20 be0e82b2 3dfe0981 bd059daa 3e7622c0 bf188ff4 3eb2229e 3c0529a8 bf193a07 be846122 bc6afe7e 3e4334e7 bd2d013c bd91a258 3c140b24 bd8bb640 3df555ab bec800de bdba10a5 bce65179 bdfb142b 3cf5340f 3ea0810d 3cb0ff6e 3e1254dd 3c8d8b19 3db6702b beca2e12 bd07ec5e bd636ae9 be56be1e 3f2799f5 3edd779c 3ee1295b bda9df23 3c933acf 3f3623da 3f1292ed bd8e0c1e 3d7c0dbd 3f82c158 3dd70d08 3f0b2fbb bfaf06f5 3e70503e 3f527a5a bd86da8c 3f3ca2d0 bedf6062 3f1effdc be47964f c04908fe 3f0958ff 3f00e869 3df93669 3f04c8a7 3cd38efa bf0fc480 bf15eac9 3e39cb3b 3f005b9f 3edcde5f bf67e217 3f0f47c6 3e19a8f3 3ef7cb47 be81eef3 3ea8f27d bd7f0ff0 3f3af23b 3f451dd5 3afd4d5c 3f82f5c9 3f07a04f 3ec8e96f bfe218f4 3dbd3d23 3db3ed21 bc087f37 3e184738 3ae62c5c 3eec95ed be2e5ed6 bddf4bd3 bdda84ff bb555c4b bf1a9325 bdba3f62 beadf765 be0e6fcc bf611927 3f1e2167 3f5c2d02 bdf35c81 bde23f59 3d24c7e0 3d8a5d46 3f01d600 bdea3f72 3dc2ac71 3e6702c1 bd76d569 3bebeefb bc38f313 3ee04914 3e0ff2e3 3d7c8b4b 3e075fb3 3dff64cb 3c843c05 3c51377a 3e810c23 3db61150 3d55a6e6 3cac6a86 be0582e2 bd93bbb4 bd7b072b 3d2b7771 3eab14b3 bd4c4a43 3ca83e73 bd37bc98 3c02699d 3e0fe498 bd02ff76 3f1ec988 bed9e53f 3d1e7891 bcceedaf 3de34faa 3c383279 bc82c4e9 3d82eb33 3e3d559e 3df98067 3e1c99d5 3df95dae 3d573b22 3d0caf77 3d3ab9f7 3e04db11 bd246cc8 3cd8d615 3dc6d6a9 3e2f6ecf 3d5a3db1 3e01acd1 bd4da0d8 3d9aa4c0 3d950b18 bc5beeb4 bd5062f3 3de255e9 3d8397f2 3dbc0e8a 3ebe78b8 bdbafb65 be9089e4 bf45229b bf098e98 3e681380 3f371222 be83c040 be71fabf beac2e67 bde0f6cc be4b5dff bef9483c bda8aeca bebe35c7 3b0aeece 3d174cb8 be706295 bde52480 befdfc92 3f27893a bed39c64 bdd98608 3f3ae328 bacc273f be7f0429 be95ee23 bc48ec59 3df21bb5 be801b92 be26848f bd952cf2 be6d137b bd2f77b9 bd9d517c 3d6faa91 3df81f2b bca75727 bd638d5a beb1d63e be19820c bf67d879 be07e9e5 3df9d5e6 bf6ca7da bdbf2271 3c1ef3db be134936 3e1ec755 3dc7acba be8cedb9 bc21e23e 3dda66aa be616499 be5b1fac be1aa3ea 3d092bd5 bd387e5e bd7a4851 be164172 bd257e4a be16dba0 3c989fc2 be89f819 be29e7da
subgraph.layer_seq.glp_0.linear2.bias 64  be4025d7 be97ae23 3e5f80a4 3e8c034c 3dc824ae be65e1dd 3e2084cc bd30b9f9 3dabacf2 bdb0690e 3dc3862a 3eb90fc0 bbf7d604 3e76c805 3e0a2028 3e03e17b 3d8c0491 be1f8e61 bd64ed70 bedd3125 be675e04 bda4cfb9 be8f5755 be53835d 3e305fe2 beab0207 3e7a9798 3c3229d6 bc064ef3 bc2b537c 3e7861ff 3ef1b5d6 3d3be14d bd265ae6 be3b78f9 3dccee53 3ecedbb4 3e9431d9 3d52b0c1 bd9d2be0 3f31aab3 3e19eb82 be39eb0b 3ea9f002 3e84bfca 3e6feabc 3db538b1 3eb2f19f be000795 3f178584 3efd4b9c be1407b9 3f257601 3c263c79 bdd5609f 3e5cfd01 ba839e9b 3d8cb582 be106094 3edc59c6 bea25fa5 3d93f68f 3c95d324 bea14829
subgraph.layer_seq.glp_0.norm1.weight 64  3da7e473 3fbd86f9 3f8b6889 3ec616af 3fbe8812 4006057e 3e3263eb 3f3fc861 3f467d57 3e20dd0a 3e8bbcf8 3f8aaa8e 3ee787c7 3f7dad68 3f7be10a 3e0c7c96 3f4874c8 3e40be7a 3f825871 3f348e99 3f02c319 3e9cca5f 400635aa 3f4ca54d 3f1761c0 3e98bb76 3efcdbca 3e1c7717 3e9a1429 3e892dab 3e8c9792 3ec7ff90 3ec8d2b0 3f41e2b3 3f1e921c 3e7607d3 3f7f8d68 3f2e0c6e 3f22631b 3f2521be 3f921932 3fd82234 3e2e4d8f 3f48d1ed 3ee917a8 3f1cf31b 4002db60 3e7f4cfe 3dd10be7 3f1ae3a6 3e87f55c 3e67bdb7 3ea1e4d0 3e38394c 3e4ee75f bde08d50 3d293b9f 3edc657f 3ec492c4 3f0f03ff 3e242873 3f02ab6e 3f1e8beb 3f4cc821
subgraph.layer_seq.glp_0.norm1.bias 64  bdff110b bdb16219 3ec40f85 be784e23 3d8a2a48 3eaa923d be5f4fb8 be804e20 bda7a581 be844f65 be63cc56 3e52551b beb59205 be8a8130 bd8c95d1 be85f95c bd1a1cd3 be653374 3edf9d3c be907711 bd9b07be be74709e bdda5ae7 bda54076 3c01368c be3ea78c 3c309055 be504f37 bee729c3 be8e907b befab5a0 be9951b6 bd954981 bd22e302 bb823cc5 be93c979 3e03f18b bb976f43 3e444276 be06b05c 3f13d79e bd6e74f4 be574d1e 3f203a24 bc75445e be8e7a6d bc817a9d bea3df95 be8c1f71 bd9a58ba be2c8794 be56befc be226037 be80f1b7 be95e318 be559000 bea45772 be338075 be07fb28 beeb2ef7 bea6ae7b bec116d4 bd42f328 3ec492ae
subgraph.layer_seq.glp_0.norm2.weight 64  3fd72319 3f853f8e 3ebba2e4 3dbfee2f 3ebd77a8 3ec3bea3 3f2647b6 3d6f5c38 3fb20c3f 3e682b47 3e8c0665 3d836c1a 3d4d4ba3 3f1b8b95 3f1c73cb 3ef1d336 3ee33b8b 3e3578da 3eb1e6af 3f5ceb3f 3e39d2e1 3f355020 3f7944ec 3e55a235 3eb730e0 3eed4282 3e5c00d5 3ed581d0 3ee1023a 3e0463ce 3c15b666 3e1d2fa6 3dec6ca0 3eb01983 3f0c2aee bde72f72 3ec748a5 bf45c4d8 3f51d227 3e7324cf 3e235ad5 3f05f430 3f1e017b 3e4ae352 3f2638a5 be01ed19 3f07184a 3c59b80d 3f07526d 3e4dd611 3cd6515b 3efac4be 3e102713 3c7666d0 3e8f9e4c 3ee49473 3ef6591c 3e83342c 3f4e3a17 bb9393a3 3e7bdaa3 3f1777fb 3e2fdd8f 3f54a9f3
subgraph.layer_seq.glp_0.norm2.bias 64  3e273bba bec61fce be8276d0 beb9427c 3d176f91 be20d6f3 3df0a6ff 3e340ba1 3f11d8df be413ccf bdd9da83 bebc77af bcbb319f 3ea60dd2 3e15c05b 3e063088 be8f2c76 be4d152c be6faab8 be3cce55 be3b886e be35b4fc be001493 bdefb959 bd8e6efb be771fb0 be9f6b48 bd56c8c7 bd5b3d46 be9799a2 be9faf5e beb3cf0c be865d24 be3a3b36 bd905947 bd94cde7 bebca570 be54259a bdc07e2c bea3b300 be94eef8 3deed7c2 be8f5161 beb97943 3e24fdda bdf10e67 3de75867 be0619cf be2fb425 bd3da83c be77afe9 be5d57b7 be647edb be078c6d bd994d30 be70523d bdb36b4e be215be8 bead257a be8fb04d be6c0189 be9fa376 be90603c beb4b0ac
subgraph.layer_seq.glp_0.shortcut.0.weight 384  bd8d5771 be27d502 3cb2c2c5 bfe49289 3df2a9a9 be6c1ecb be8444ac bda75c0b c0178207 bf8458ed 3c9c0841 bf74c768 3efad06d bdc34ed0 c068a6da bf8bd543 3dd78dd3 3f208ff6 bd613022 bd383079 3e062e4e be2686c7 3dc3503e bfee4046 3d8faf5c be2de2de 3fb1960a bf1427bf 3e34c7d8 404e3128 be3c7e51 be14e4e8 bf626dd6 bfd37921 3df1eec6 bfddfc5e 3d9c7c7d 3eb26742 be80a81c 3ff6a75b 3e94d7ab bfbf1a49 be6973e8 bee2e2be bf2a47e9 3fca8db9 3e127c3c 3f1e0ec1 3efa6862 3ee28f0c bf9ab5c5 3fa884de bde4ef3f 3fcb283e 3c5a0347 bd031921 3ddadce7 bc0f9b54 3c591dc4 3ec4706b beeef7bd bd8023b2 3f18045a 3fa927a6 bdfeb7a2 bfafe005 3ecc723e bde07c17 406aeced bf2ca9a1 3d9a50d6 bfc5c190 3bb3a39a be6c9937 beba0c3e c0526d92 3e0339e2 befccb36 3e09807e be65fe78 3de2cd09 c0841e8d 3eaca15c 3ed615a9 3df4dbdc be0c9f9d be95955e bfb754f8 3ed9dbbf bfbdd87c 3ee43061 3f01439c 402ef77b 40548c7d 3e2029f4 bfa2c4d6 be664d7e be2f3106 3f2a83da c0177331 3d86409d 3ec03948 be046265 bd33e06f be2f0b33 be76b827 3cbbf971 bfa12537 be34c2b8 bd6ab2bb bf305021 beac7c80 3d897717 bf134c70 bd91955c be3c4904 bf76d80a c008e18b 3e326827 bf954645 be3b4a00 bcb5cd44 bf861d55 3d68ca10 bbca451d bfeb3f5b 3fb698a2 bdebbdba c00fe375 bfec4fba 3e41a3c5 be9dcd7f 3e037548 3d880e9f 3e2a9e2f 3f8a0ba3 bd9c575e be8a73d6 bf917c39 bde862bf bed275b2 bf6a8825 3ce022cd 3f3cdf38 bc3cf773 bd72ad46 bfd1b787 bef3f948 3c9d8965 bee51548 be2aaade 3dc59858 c0218957 3f884462 bc82a706 bfada321 be97dbcb bda10290 bf2f3fcf bf66176e 3cf653fa bec0955a 3f862a27 3e19cb57 3f9eadb5 400182ba 3dae8ecb 3e66ed82 be746d6f 3df4834d 3f001722 3fb030b4 3eb60ec9 bfe58479 beb442eb bd704dd5 3f49a8c1 bf1017c6 bc9b188c bf557fac 3dbc803f be7d773b be495a4e c02cf26c 3e36f9aa bf1b3502 be6b1896 bd599f33 bffe3fdb bf132a44 3b180c85 bf87d569 be6b05ae bd4178bb bff362a3 bea7b418 3b9f64da bfbd9a45 bc83fbaf 3d8820c5 3ff4fcba bf626671 3d4e104d 3fdbaa6f bcff171e be545c0c bfbaaa8e c0191a88 3e55a85f bfc4aa1e bf25f3f8 bd3d1854 bf30f5d9 3f9f480c bddf824e bfeb76b3 bcfc5b7d 3c44e708 bedc8ccf 3fbd1fee be9f5c94 bf93350c 3e325d3d 3dc36e09 408449cd bf2fd967 3d39c8c5 3f1a6bb3 becd337c baa93334 bf52a397 3f4d35d4 3b926915 bf710185 be7e3da5 bc060fd4 bfde8adf be259da8 bd81d10e bf06000a bc879312 3d54c1c0 3f741316 3f82cfb1 3d442c00 bf3e920a be31d993 3dc9aef8 3e6b28c3 3fe3cfdb 3d4ea74c bf99d2ac bf892b05 bd5ee6ff 3ff6b0cf bedcf1ba 3d001577 3fc72396 bf08e9f7 be2812ee 3e59ee01 bf99e894 3db36d3a bfc86bb0 3ed41e48 3eecc59e bffb8618 401c84bc 3e830264 bfeb4d0f bf2980a0 bd9e8028 3edba1e1 bf40e022 3d536876 be47a3d9 3e79a852 3e7ef56d bfa3c5a4 3feff6d8 3e36e6e1 bfc2c7a5 be46b93d bcfaaf8f c02dedfb bd944918 3b4c11c2 bc5ea231 bdcacb69 bda0693d bf1d10be bf6fcf98 3d9678a1 bf07bd02 3fd0fb0d 3db0f8cb 3f079fc3 3f9e9fc0 bda37855 3e871174 bd92ace7 bcfdb745 3e0c3b40 3baa91be 3db7d668 bff6fbbb bdd15252 bd9c7bd4 3f6da9e2 bf2bd2bf 3d10e03c bfda47d3 bdb124f2 be52cffa bf419e08 c0168b38 3e368013 be0be324 3e054f48 bd734e4d bfb42534 400f93f9 bea65290 bf6b7821 3e128115 be28ae67 bf23ddff bfff2196 3e809a44 bf88eaf6 be10bfa6 be5ed02a bf5fe6ac c01ae934 3de5e502 bfaa7ee7 3e86380f bcb6d0fd 3da52d4e bfa7d0e2 3d599563 3fa29676 3f6c7e98 be296c35 bef80f38 bf08cb63 3e029a93 bf89c073 3e8d0a95 be871072 3ec88530 c06e72ac 3ed166fe bda47f56 be291caa bd132500 bfd5cff5 bee7a9fa bcd01773 beab6e6f be59ca25 bd9b79df c00dea87 bf5f196b 3cbfc0c0 bfe9af2d bf170c35 3eda533f bf43e3f5 401cb25e be14b98b 3f8c3700 3f82f824 bdb9473a 3c934a00 bf8439d4 3d83b9c2 3d389a83 beb788a3 be2ff142 3f5551a1 bff7c82f 3df1513c be889125
subgraph.layer_seq.glp_0.shortcut.0.bias 64  3e7d29e9 3f372740 3e929bfa bf1dd7db 3f2c0ddf 3eb4bb9a bfc475ed bf042ab7 3f855bf8 bf043f88 3d5f741e 3e3e03da 3eb24c0a bf201ae0 bf539f4c bf5da668 3f58a19a beac8020 bf3571b1 3ed4b524 bed57fb5 3eca4fba 3e49d138 3ea7ff62 be6a90ab bf027729 3f057af6 3d8baac7 bf7cbc4b 3f89f80b 3f2f8e71 3eaf6c31 bea408e6 3e6ca49b 3e0cf9f7 3ea44d22 bc387306 3e823e07 bf0bb2b9 3fa295c8 bf16b17b be4a3fcd 3ea32ee5 bda2558e bf9628a0 bd08e2d0 bf51c71d 3e824dc9 bf395510 be175df2 bf150e00 3e4154f6 3f1d6832 3f09221b bcd39c91 3e6eac5e 3f8ecddd bf22c416 3ef9a2be 3f5fa38d 3ea5697d 3e7be772 3eb0c136 3f1fc587
subgraph.layer_seq.glp_0.shortcut.1.weight 64  3ccff872 bc049270 3f6fc007 3e67436a 3fdd2a32 3ead359f 3f663d1d 3f3dd958 3f66f753 3f349a0c 3f4b49e4 3fa9fa4c 3fd32d65 3f9bf74b 3f22bf12 3f878672 3f82dbac 3e95950a 3ea1743d 3e88072d 3ed3e0f3 3f24faad 3e5363ef 3f5f849c 3db4b886 3fad6f55 3ea24d24 3f943e3f 3f98c181 3e135b0a 3e6ee337 3e3851d3 3ed1eff4 3f28dbb2 3e8f6e05 3f66706e 3e79dfb1 3f87d536 be957bb2 3e3acd45 3e65dff6 3f57a049 3f2bfd1e 3d9bafdd 3fb3e49d 3e8ca1f2 3f827d86 3f75b81b 3ed5e4a8 3fbe8df0 3e941cb2 3e80f5ad bd290405 3f6dfaa3 3f4abdd6 3f49ca90 3f1d9234 3f48a966 3f92bd5a 3dab75b5 3e88fbae 40026f27 3edb12e0 3e89662f
subgraph.layer_seq.glp_0.shortcut.1.bias 64  3e273bba bec61fce be8276d0 beb9427c 3d176f91 be20d6f3 3df0a6ff 3e340ba1 3f11d8df be413ccf bdd9da83 bebc77af bcbb319f 3ea60dd2 3e15c05b 3e063088 be8f2c76 be4d152c be6faab8 be3cce55 be3b886e be35b4fc be001493 bdefb959 bd8e6efb be771fb0 be9f6b48 bd56c8c7 bd5b3d46 be9799a2 be9faf5e beb3cf0c be865d24 be3a3b36 bd905947 bd94cde7 bebca570 be54259a bdc07e2c bea3b300 be94eef8 3deed7c2 be8f5161 beb97943 3e24fdda bdf10e67 3de75867 be0619cf be2fb425 bd3da83c be77afe9 be5d57b7 be647edb be078c6d bd994d30 be70523d bdb36b4e be215be8 bead257a be8fb04d be6c0189 be9fa376 be90603c beb4b0ac
subgraph.layer_seq.glp_1.linear1.weight 8192  3e58c5b8 3d27afcc bee1697b 3e1f67a2 3e446f62 bd3e35a2 3d003c1e be38aaf3 3e24ec6e 3de9a99b babe2ab7 3db6e5fa 3e8bb2e7 3f136571 3e476bf8 3da4f754 3e3f2e39 3d151c3b be39bc90 3e2381f3 3d108c2c 3db5f7f6 3d96cbd4 be4e9806 bc8f488a be129cf0 3d644f93 3ce14c81 3d94168f 3e1cfb18 3ce6b48a 3d321b19 bc629b21 3e3693ee bd0c4a9d 3e0510a9 bd61abac bdd3cb34 3f46d758 3d834052 3c79e5ce 3cd95723 3db98b6e 3dff4770 3ced4c46 3c97a96a be72843d be8e59c5 3c9b2a87 3dbfb693 bc46f54f bd801182 3b62b891 3d786076 3d04b0ad 3e127a59 3e4186bb be2cbd8c 3e2ac6b3 3d1b5dd3 3c9d6aef 3de920e9 3e2ff254 bec10569 3eb371d2 bd387909 bdc45200 3e0c1c2b 3d510ee0 3de44559 3c870e7d bd4d5ff7 3d1f5cbc 3db1b3d7 3c83f816 3d2e4566 3d86ce7c bec7bed2 3da023d2 3d27aaad 3e65802c 3db80480 bda90b8d 3e1d2307 bcf61c89 bdbdbf8a 3cf5c71a be9a689e 3e2378ff 3d368473 3ba0594e 3c7ad576 3d1d2508 3d84b361 3ddc0c4a 3d1b824c bcc0dbcb 3df1bce1 bc02b73f 3cb4dcbc 3db4aa0b 3dcc1cd7 3dd032e3 3d1bd293 3d8eab18 3d4bee87 3d528d7e 3d92f7fd 3ddd47e4 3e0a5234 3c85eec1 bb46093f 3d49ddaf be027db5 3d3c1c11 3cdd403c 3afa5a55 be70b2da 3e0f09a8 3e117ff8 3d8eb542 be91ea3f 3e189dd4 3dd8d783 3bb0638c 3ebe063d 3e123c03 bec87044 be6c7c01 bdec7316 bd6e6b16 bd0f4e5c 3dc3c97b bc675dcb 3c7357dc 3e94fd6c 3e9fb5e0 3d8e080d bd61744d bbbd2c25 3df3d5cc 3f1cac56 3e0f06af 3e2580c4 3ed9cf0c bd8f5836 3e035187 bc3333df bc6a9c71 3ebb8b9b 3dd1c3f1 bec9f636 bcf73f34 3ea78ecc bc2e1001 bdc160d1 3dd38e98 be08c55c bd08adf1 3cfbd304 bd9cd311 be4942c2 3e09f248 be562603 bbe1f272 be899341 3f63f78f bd85b41e 3d9a8948 bc8af70c 3ec932e4 bd774bea 3e172b28 3cf2d928 3cc56751 be2cd814 bd85bc86 bbf7d3d5 bd9c8cf6 bd90b20a be1ce27a bebff58b 3b324496 3e72bb99 3dbce662 be4d1619 3c1a83c0 3d085fe6 3c939a32 3e8aa7b6 bb8dd50c 3d9d6dba 3e4533c9 bd2dcbae beeafef0 3d1ff970 3b242c42 bd8a5dc1 bd0a8563 3ee5815c 3e306993 bdefe9f0 be146dbe 3ce9f220 3d17b859 beabb45a bdcc2909 bbcd0d50 3dff6799 bdef9220 3dee0a7b 3cf1d6bb 3c101e2b bed2813c bd32d16e bf00749e 3d8ff844 be3d83b1 be089b0d 3dc8c773 bdc01b5a be248134 3b8cfb77 bdd06c9c 3c33fe84 be99ee7a 3bddd2d2 bcde6095 bddd2be8 bee304a4 3d1e192e bdbc78a7 bdd0cc85 bdc1ffbc 3e69b195 bdb774d7 3d8da3f4 3da8f187 bb9be802 be9ec2d3 bd7fca40 be711182 3d7ab1b2 bd4b3a49 be15ad36 be175c2f 3e739de0 3e932a66 bdd82feb 3d68b789 3e17c973 bde552f2 bd240538 3f1a1e4c 3cf38341 bdd2c37f be3abd4d 3f19cbda 3e4c14c0 be66013e 3f1256a5 bdfa310b beee0bb9 3f251499 3fa0e09e 3f7a06fc 3dd01043 be76cee4 bf12be37 3ece3028 bf2b0584 3ee825e8 3e838c14 bcbf3d57 3e2b6141 beb562bf bded6d5c bf129416 3f875c19 3ce8d56a bcedd8df 3ec50283 3f1eee70 be8eba65 beb5d01c 3e9a5047 3e58c017 3e7c4d7b 3eee2d38 3fe6e29f 3ec20ea2 bedc5e01 3f5e432a 3fd257c9 bea5ce45 3d2ee3ec bd6be0a7 3d954171 3cabd9f5 bd90e00e bf0d8d1c 3e48957b 3e3499aa 3e91ee8b bf5ad8ac 3f13e9df bdcaf97a 3f17e140 bdf6e4d6 bf2af1b8 bfb540ed 3f3c8513 3eda9b81 3fa8b1eb 3f0066f5 bc8054c0 be1526d7 400b8d0f 3e911b37 3f412565 bf521764 3d683129 3f105a66 bd98fe77 3edb6cea be421abc bf8359df 3d25a352 3f359b4d 3ebe81f2 3fb983fd bf920def bef6f78e bc2145d5 bf442e4a be6ba423 be677e0e bda45eaa 3e8c76fb beeecac5 be833b09 be0f3ae3 bec3a204 bee5bb02 bed8fa02 3e48c095 3d2a321c 3fc1def8 bf409aa0 3e7a3207 bdc8d9fb 3f2ca311 3eaa2487 3fae9713 3cbd46c3 beb6086f 3dc9f8ea 3f6b2434 bea5d43a be9e655a be9cc750 bc115d0a 3e1c1983 bf067aff bf647d1b 3ee17ebb bf121c38 bea27bfe be568b2e 3e35c452 be6e88b9 befbf80a bdddb604 bf0d6298 befcf793 3d9e87c3 bc109157 3f86035e bea65206 bd84db0d be9b3c15 3fb2124d be29825a be7d7bc1 be0d0c84 3c11d76c bea2aeee bded885c 3da1936a 3b9cc780 3e0c8241 3ee129ac 3e03856a 3d0b3d22 3d9113b1 3d13f695 bef704f7 3f2ba829 bd5338c6 3df4f84f be2489e6 bdb5a0e5 3c5d5ece bdbc3ce1 3cee1798 bd911749 3cddd4a5 bd917b1f 3d399b75 bdd3fbca bd343939 be1eaf8d 3e2fad5b bd932ef5 bd0c8876 bb6ef919 bd96ad03 3e542f11 be18499b bd88939c bd9aa490 3f51d597 3f369af5 bdf27499 bb87e3af 3d18e014 3f380abc bd810b23 3d66b8a3 3dd435bc 3f12f78c bd468fdf be032f57 3dc71cc8 b98ccb92 bd8ccd18 3c12d3d6 bee4483a bdc29ac7 bdbefdd1 be255a83 bedf887e bdd21e03 3d896947 bda7bb40 3ed82f84 be180883 3f0642f1 3d26fdf1 be17d371 be2e9e10 bd39e105 be34ed63 3d63c645 3c3c400a 3e548724 3f16f5cb be01f80b be1e3823 bc330752 bdece9b0 bf2ab8db 3c2d46c7 3de30040 bd1bff62 bda36b77 3d97dde9 bdb63521 3dd8ed2c be32051b bd690825 3e39c069 3d8ec7a0 be1d4bb7 bd7a0239 3e1f6e22 bdead09b be06ab2a bdb27bc6 3d48e824 bc650442 bceec685 3b908dc9 bd756710 bde8a419 be20f7bb 3ed0c7a7 bdd8dfea bd890b0b bdfcce83 3f465994 bdcc6355 3e194a52 bdf37ea0 3deed5e3 3dc7c2da bc5cf5d1 be86188d 3dde13e6 bdb4429e bd9a4c07 be9a2438 bd239d43 3dfef9c3 be09e808 be8ad0d7 bcd7e4d7 bc9ecbb9 bd3dbf4a 3eb38c21 3c02c04e 3e5e772d becf5644 3d7d8f2a bd4741db bddf52d3 3edc2998 3c19fdf7 3e2ce6f1 3e8274cd 3e518085 bd1d92a4 be20903f bd5adc66 3cd2718d 3ead12c1 3d854d84 3e06799d 3f2f425c bd81687c 3dabcd13 bcd5b937 bcd89a16 3e83e058 bc3321ef bea86103 bcfb5689 3e0f2520 bc6ef09d bd8ac32c 3b76de74 3e0507e3 3c7d7371 be0bdde7 be560f7c 3cf1e84b bda4014b be94e4c0 3d90e3d9 be8ce399 3f0ecfaf bd9214c6 3d5ca6ed be807560 3f24859a bcf4282a bd926d8d bca4dc82 bde37cd6 bdc653af bdb7610d bdeaf3f5 bdeaa3f8 bdf059c5 bd27bc29 be9b4c58 bd95f6de 3e17d43a 3dd7b2ad bea5d092 bd22ee56 bd1c7361 bd337df6 3f209b44 3e748a5e 3e67c8aa 3e2df90c 3d5009ca beb0e4ae bc0ec225 3df5a1b5 3a9224b8 3dd9a9dd 3e148b59 3ec29c68 3d2a9c93 3cec24f2 3dd9a333 bc4ddfe3 bf41385e be0bc00a 3db0c717 3dc9559c bdaa19d9 3aa781f7 3c7e350d bcb340ba becdacf9 bdc022c5 bed0e1d5 bd882a95 ba554230 3acb9aa7 3e37d47d 3dc12587 bc92fca7 3d22e34e be2d889a bc871bd0 be22e791 bcbe18b3 bd7540c5 bcbc4bdd be58511a be703716 bc21a613 3b0b01a5 bdafa1b3 3f01b35e bd927b9b 3e03e6b2 3cbb2465 3dfdc4cb bdefe458 bbd59c3a be8bbd9b be0345e4 be1310c4 bd514ed5 bd519044 3e7ddb7d 3de02ec2 bbdc35ad 3d1441f2 3e1b2bd3 bd06886a bd411d81 3e144352 3cccc87f be26ce47 3d09e06f 3d656674 be23edcb 3d52bf0c bd96324a 3c9486ac be4d1863 3e7daea5 beb82a77 be101a18 3da15c6e 3e157cff bee056cb 3fb49a03 3e8a7f71 becf52cb bee9ff9d 3d7ec476 bd4ae2c6 3c5e9874 3d988b4f bd360fbe 3d91ac47 bdd569c0 bdf97fc5 3e65f2ee 3debf324 bd8d7a45 bea2ead8 bdac397d 3ceee4a2 3dbc8edd bd93f0de 3ba0ca52 bdce9eef 3d634846 3d8eb49d 3db1f76c bde920f0 3d6a32e2 3cfefcf3 bfadc1f3 3ef6e32a 3e065efe beaec706 3dde9fc2 3b0bcdf3 3ee1608e 3e29716b 3d827bf6 3ca6b12f bd2677d4 3db147bd 3e30723d 3ea24a5c 3d49456d beb1f2a1 be951821 be2ad8b7 3d47e591 3db06497 3e30ea7a 3ca0c3fc 3c9556ac 3f59ff0c bef27605 be81a38a 3c893e19 be227448 3cf3fc77 3e469e07 3d8ed8b2 bf161b9a 3d56f80c be2e0eb1 3e1aae4c 3ed56370 3f4a307a 3d986e43 3e09ccf8 bc3e16d7 3ddde258 bd5de7fc 3dbfd691 3d80c527 bd862b78 3dcf3457 3eb95481 bb6d39d7 bdec21f7 3e032751 3e6d9eb3 3e081eb7 3d1b0345 3d92a684 3de72b5e 3d9e0ea8 be0ead1e 3e74e2ef be27e989 bac8b07c bf0d9d57 3caa7d12 3e04d84e 3dd85441 3d6c2a8a 3e2d8aa6 3a26fc17 3e4de72c 3d750818 3ea148c0 3e331ae5 3e4e2b6a 3e54a786 3beeba68 3e0618c9 3d1881e6 bf3a6b31 3e92e6f0 3dafb5b4 bebd41a9 3e207555 bb6ed38a 3bc5d19f 3dcc4c52 bed71919 bd05f777 3f52c280 bdaab0ab 3d9da0eb bd108963 bd4d69cf bdb15305 babe9c48 3e1e6c08 bcfe241e 3dc128e7 3e5a309c 3d04023e 3c929325 bd8f3b27 3e98d890 3dd01205 bd893975 3d855273 3c954a9e bdad81db 3dccdffb 3bd0cc13 3e697552 3d1f6288 3bd4eff3 bda849f5 bdafa28f 3d939fc4 bc45b009 bd1ccd3f 3d11794e 3dd37379 3e225bc5 3cab41e5 bda22272 bc62b270 3dce364e 3e32eb5a beb4b675 3e956bb8 3d74d593 bccdd06f bd3ee093 be11d2f6 3c401c56 3cf2ffa8 3cee7d01 be832264 3c1075bd 3c29c3fb be087780 bd73bad6 bbe820f6 3dd543b2 3d4dd558 be13785e 3b1c411c 3cc5337d be5b22e5 bc88b2ea 3d2fcfe5 3e29889f 3daed5a7 3d7ed638 bbbd1250 3e061939 3dc7194a bde088de 3d15001f bd771692 3d194f4f 3e856329 bd45db81 3d10b067 3a3a5a1b bca4ec84 bc8269bf 3d9c9403 beae7e1c bd01d0d8 3e20ffaf 3e1785a2 3cedd4dc bd910cda 3d4722e6 3dd6b963 be21e761 3cad5983 be4a959d bd16b4d1 3d89e513 3c511d69 3e23c183 3e09ab1d 38c5e00a 3c94c610 3d91513e 3d166dcb bd6ef18c bdc8896c 3caa0c5e 3e088618 3c9a8b7a be0e7d6f bba20f2f 3df8d163 3e317f57 bd9c04dc 3d5507fb 3de5c6a2 bdd94c30 3e1f52e0 3d26f420 bc8bf82e bd97c3b8 3d3867ce bc31faca 3d4518bd be647385 3e8736ee 3d558ab2 bcd41ca5 bdd2d688 3e178807 3d760166 3e031135 3e95e3e4 bd9a50e9 bccfbbae bdb4c936 3db27d96 bc4315e4 3d968807 3ebda4c3 bc7bb1e9 bcb6df90 3f072dbe 3e49ad45 bdf9223a bc726867 3c134536 3d268f84 3ecefb0d 3d3cfdc6 bd4eebfb 3eeb6fd5 bcb22d93 bdbcfcd9 bd84399a 3c92abc8 3eaccf28 bd8c5f80 bc38b488 3ea2ff1a bcb4f7dc bd739266 bc9a8b26 bda18405 bd22569b bd3592a7 bd07ac20 bd993c67 be194fcc 3d1b7fae bdce45e3 bbfb306a be36682e 3f214c49 3c8f348e bdcd2d63 3b9536e0 3e9b0229 be43b7c1 3c5adac9 3e8abb3b 3ee3d827 bd89c11e 3cbce38c be6e5bfd bcd2d0d5 baca41e5 bd1b47cc beb9da06 bd75ae64 3d40dc6c 3e484824 bf927301 3d6ebe1f bdfc2620 bda09a62 3e35688a 3d91e152 3e8baf92 3d9d78d2 bd804a76 bead47ae 3d36ada9 3d549e4b be0adb52 3df2c10c 3e3a462d 3ec658ff 3acbf14c 3bb8455f bd4829d8 bc93dc28 bee051ed bdf1742a bca39a5b 3de4b43e bcb9adda bcbcef10 bdb94563 3cf59dd8 be672ad1 bd10b838 be81defc 3d8ae4b9 3cd65fde bdff272b 3c9a6cc2 bc93e82c bd91f3c3 bd229de3 3bd174a2 bd328d45 bcf50177 bdbd8d6b bd1b20d7 bdac29dc bdef7000 bd38021b 3bd7e85e bd6efa07 bc2107fb 3e84ceb8 bcc794d1 bc94fd03 bccdf3a3 3d94c63b bd63d367 3c5cb6b3 bdfcd724 bd8c7086 bca174d1 3cdaf12c be4c0200 3d580d74 3dd708a9 bc687ee6 3d9b5456 bd0ffa4d bdde0637 3b4f06da 3e4b3b77 3cf4609c be7a32c3 be8f6ec9 3ab3ad03 bde19720 3dfbb992 bd1a7970 be01c3de 3e2269f4 3ec0808d 3d12cc2e bcdff9b3 be0b425a 3dbdc9d2 be2fb826 3ee7c7cf bc291fb7 3e97b466 3ef7f510 3dac37b2 bd1bd886 be5f4a10 bd2ec97f 3e5c7ea6 bd2fd684 be6bdf00 3cafb64b 3b952c63 bc07cac6 3e5d26c0 3e182971 3c37a75f 3dc234a6 be2c01a1 be14de2d bcbe8086 be96af90 ba94f806 3da0b7a2 be03628f 3edcf90c 3e58b925 3dff5a75 3d66dcd2 3ecc0cc4 3ca48b5d 3d359c12 3c54cb10 3e78f512 bdcc3479 bdc82df2 3da90106 3dbc90c2 bdb46ff5 3d11e5b7 bf0c0676 be159d04 3e2b7ed5 3d4f68e4 be65ae9e 3d3ad7c3 3dd18788 bb839145 3f5285ba bd6e28a0 bd039536 3e68157a 3db9634a beb4a184 3d874c07 be2583eb 3cd2c97e 3e05997f 3e8e16a5 3ec6e710 bd16dfb1 bd94f38e 3e4612f1 3e3418c5 bee07881 bb78120b 3e77bde6 3ddccf7a 3c1fca7c 3d315214 3da1ad3c bc4a7565 beb22c8c 3d560ca0 be621c14 3e60f28c bd080ad0 bc112fe0 3e21c1c9 3d79279d 3cd22d0b bcc13586 3d1182c4 bd49e4c4 3d72a5c4 bd573935 bd47acd5 bbf2dc2e be8971c3 be490b07 bda9e13d bd3d30ed 3df3105e 3eb72e25 bd3d509d 3dde532d 3e86fe7a 3e0559aa be36610a 3df7c408 bdc768b2 bd3f2814 3d5c6a84 3d595343 beddda30 3ead17ee 3e9c8c76 bcfac492 bda8c9fb 3e3a41be 3be3ed3e bdea188b 3efe8d7a 3cedbf88 be45a061 be78a4fa be03ef23 3e28a90a 3e0a91be 3e8be5c5 bc5fbc6b 3d0df06f 3ec7b785 3e5d1971 3d8aa9a1 be4de603 3c48661d 3e37941d 3ecde12b 3d49a7ac 3d3ba2c9 3e9df735 bd998c50 3ea7f630 bd7e04b0 bd8c111a 3ea9f2f0 3cd812a5 be3abbf9 3e06aeef bdaa7658 bd84be0a bde2c2f6 bd3ebecf 3d1115f2 3d1b3bad bd2b89ca bd9ecaff bddd4e68 3bde056c bd9eb7fb be271e45 bcf29c68 3f20accc bd8207ea 3ca3c769 bd390fd8 3ea792b0 bd57d6d5 be25b827 3ea41d08 3f2ecd29 be442def bda2ee5c be61fb90 3e0b6c65 bc7ae13e bd28c7ac beae89e0 bdfaf461 3dcde343 bcd711bc be835bde bb1612b0 bd86442c 3dba8533 bb4f97e0 bd2c2f9f 3e33970c 3e032db5 bda6fdb9 beca070a bd5ed6ae 3bec7c12 bd5de136 bcea7c42 3f035e65 3edfa09a bd08d38c bdeb7c3f bc8f478b 3dc255e5 bf158507 bdbac92e 3d3aacc4 3d25fa8e bc5f3fb5 3d9c3d74 bd60fd94 bd83b290 be99babf 3ca73caa be808548 3e668c94 3b794dda bdc6056b 3d6a242a bd9f7532 3ea7daef bda0f5d0 bd1524a5 bd8a2783 bdadb085 bcbd2a57 bc8b2841 bc2d4ab6 bd78fc3a bd25b4e6 bd466533 bd712590 bd201d19 3e5cb1b3 bdcf6647 3d81220c 3dcea8fc 3e04362b bddc62d9 3dab713a be4d860b 3d741dd0 bce39726 bdd4f1c0 bddc8a74 3dc9e028 3dabe01c 3cb934b5 bd722fdd 3d910a3f bd7553f1 bdb22467 3e82587f bd87221a be93d8bf bf317dcf 3e2909ac 3e1056f7 bd804e2a 3e5f9913 b988a975 3ccaa07d 3ea9edad 3e0b522e bb57761c bd73e2c7 3e187b6f 3e1f3571 3ee5f8bb bc9fbabd 3e803b59 3f0db9f5 3bc33212 bea80e56 be9d4d73 3d3b7749 3f0fdfb6 3c1da199 be9afe8d 3e90c0e2 3e463069 bd032354 bd12bf63 bd3f7403 bcfacbe6 3bf1085f 3cafc13c bd046d19 bda6ee01 3d081c7d be683cd2 3dbb8604 be481c18 3f507072 3d69000a 3cc24983 baaaed1b 3ee99046 3cbf7c8a bdf80479 3e59631e 3d866451 bdb40a14 bcfc39e5 3dc91b45 bd0f3cca bb896784 bd478d96 bef97534 3e1a7503 3e82c501 3ebc2cc3 bf2c758a 3c85e332 3c8183fd bcbb76dc 3f60ceef 3e536903 3e2c6f1a 3e7b81ca bd97228c beda8859 be21ad9d bddf5880 bcc06c43 bcc410ba 3ebc9431 3eb8e540 3e13f33e 3d113aa6 3eb8cdb9 3e96d97f bf1a5adb be485a91 3e4cea6a 3e897007 bb68736d bdbddb05 3e25e217 be0b7870 bf101a46 3e07dc05 bf0563de 3eb0f462 bc9712e7 bd676e3b 3ed73b4a be2bacf1 3dcd2b29 3d962fe9 3d9543a5 be0e50ca be45803e 3dac7009 bd844cc8 3dbac5b1 beac6893 3e196841 3c2b3a94 3cf8bcbe be1750be 3ea69c11 bd89cdc0 bd807768 3ec57968 be3ccc09 be545b7d 3ef11d5c bb8f847f bc83112e 3c0644c9 bc917440 bec3c5ad 3f0ddaa7 3e9e58a4 bdd38df7 3d0de275 3e790d01 bd102eea 3d368a62 3f0380d4 3dc29430 be8ad29c 3f93940c 3e42a996 be003f01 3d60c25a 3d68ead1 be137441 bb5eda60 bd232bf8 bea196a2 3d52d36b bef6fa96 3f14f89e 3fd15bc2 3f32a5b0 3db97aca bf15810d 3e834825 bda7c8ce 3d9e0dd8 3d97d1f3 bdd2b335 bd4cb1bd be612ef3 3e9973d6 3eb7bf25 3e6547c1 bd44e619 bfeed262 3ca32512 3e115d32 bda0a221 bcdfe42f b9fb6a2d bdd5cde3 3e93e313 be9a1b51 3cbca303 bd1c3591 3e3a653b bda5e6c1 bcffe10e 3f1335b3 bee894f0 bccf8cd9 be5ce859 3e9a1ec3 bd302597 3f59295d 3e84950e bc5a8281 3d54d146 3d1ae1ed 3b98a91e be38ee5a 3f72268d 3d9676e2 beb7ea63 bf6456f9 3ea382b7 be2b3d5c bc697947 3fcbbfe8 3eb74a85 3e9cb3d2 3ee0133b 3f3ee6c7 3d94b552 be1b2f80 3eb0728e 3e980bc4 be521586 3d9a673f 3eb1fda4 bd33205e bf3277ce 3ea4bf7a 3f29e345 3e9d99b1 3c878141 bee1dd54 3d3672c3 bd4e9aeb 3c75222e be72efb3 bd134fdf 3dfc4ae9 bee3dcfc 3f2424e1 bd736308 40122f33 bcfe434f bf37ac89 bd7b7f6b 3e8134ee bd4bb93f 3cf05b72 3e71bc76 3eaf54dd be251334 bf34cb11 bd98b34c 3ebb7c7a 3cef4d54 3d53384d bce51c16 3ea45505 bdd6793b 3d1a9cd3 be35cbbe 3e9e0593 bd11fb0a bcd050be be1f69b0 3e891fee 3de5de17 3bfaf334 3dc18fc1 bf38ec52 3dc0d759 3cb4def7 3e104a82 be985b81 be4d1c10 bd8c901c bde3ba6c 3f2b54c6 bdfeed27 3ede46d9 bf3348c7 3e8bc95c 3e92ce3e bd5420ee 3e907813 3d89ccfb 3d9af0aa 3f2e07af 3c93bffa bd17ec01 be6be24b bd0cc966 bd83af92 3ea0415e 3d6284bd bd84f0ec 3ead8c4e bc48b2ec bd27f39d be83e454 3d1e53c7 3efe42c6 bde38529 be4ae4d2 3e75c1fd 3dbd0002 bba82930 3d8098b9 bccbd8cb 3e800ee0 bd89c5c2 3c4a4f98 bd95d2ef beac9761 3e25a2f1 beaf7ff7 be0a08a1 beca332b 3f295324 3cb67013 3d959522 be85dd34 3efd0a3c 3d7c51b8 3e1eb8e1 3d505c00 bdc647f5 bc88e1c5 bd6c2057 bd9624af 3d8065ac 3c7a5f0e 3c251033 bebd797a bda98bee 3e1d63bc 3e8c2179 bf6713bc be3a0a94 bae8e34e bcb11de2 3f045450 3eb3a8db 3d9d9a29 3eecd9b4 bc9c4c8b bea59564 bf0def26 3c8f2f4e 3dbeafc8 bc94794e 3f146df0 3e92287b 3d462e93 bdc5d795 bd859994 3e0cd235 bf207a43 be226cf2 3e0a3a38 3dfa0dd3 3d771303 3d9800ca bc243921 3d24c08a bf2f0ea4 bb6efe70 be6e6e9f 3ead8cab be16a301 bcab0b1a 3e4de62c bdd06663 3dfafbda bdb8ab32 3c3733f5 be18fad7 be9628cf 3eb98380 bd1dba56 be0140a6 bf3a8ccd 3d2a28c3 be47ea66 3e04508c be5da161 3f00dfd3 bd9e7f8d 3e8c5689 3dd71aca bd3578df bbca2204 3d0f64d3 bf20acc9 3c8d2d8e bdd66609 bdd24ea3 bcb49600 3ebaa03a 3e13e9ad 3d9a813f be9cca41 3e74aaa7 bd918e2a bbe5a3b5 3c93ed88 3d8c4ad5 be792972 bf24b0ad 3e2291d9 3e45b1c3 3ca8b5b7 bd8a8c9e 3e4318e9 3e9d77d2 3f128c17 3e46f745 3db2a5d7 be41e211 3df21ffd 3d09d1fc 3f406614 3cc55bdf 3f25487e 3efed5cc 3d2b9b26 bcb9d3ee be3572f4 bd41a1fc 3f0bbf92 3df84049 be0ff0f2 3e670766 3e6280d1 3cd83624 3bc4a409 3e99e2c8 bd08909c 3e0646d1 bd8b9d92 bcd7ef7c bcfbe30b 3e1a2cdb bf18319f 3dfcdb6c bd506b11 3f23a5fb bd62ed65 3da93560 3e10ceb9 3ed623d3 bcc8ba37 3ddd7774 3e7dd9b4 3e57afcc be7daf23 be1844b1 3e82d88e bd8fa680 3cff4e6d bdcfe9a5 be68504f bcb7a69a 3eaf9f1f 3eba7f3e bf114f41 be37f06b 3bb6c3fd bb7b123c 3f67adf6 3ef7b564 3eb8b523 3eb04a65 bd5394fb befe74ea be069a41 be08a7ce 3d19d5fe bd2ca944 3f14cf38 3e7a27b7 3d5a698b be1ef9df 3ec5ed9c 3e628eff beea009f bea29120 3e5fbc97 3e62d6f7 3dfa3c91 3e5c88af 3e8d64b1 bd8e6233 bf482e26 3e1458dd be92d7ea 3ed6d1f7 bdad92b1 bd88008e 3ec0bfda be5d6fd0 bd34d9a6 3d306131 bde6d5ef be612d37 be197297 3e982888 bde7e733 3cf3931b be82fb8a bcac8530 3ad0dc74 3cfd80ff bd903bd3 3f168bb4 bd63aa06 3c4d37dd 3ef00598 bdec5924 be96c88b 3e9c73ef 3eb0517f 3d37a35e bcba7b0b bd930535 be9c99f2 3ee5f0ad 3d1dce98 3d880abd 3e83a7e5 3d710354 3cc5b9d6 bdf7f78a 3f0f26ed 3e0e6658 be35e48f bea092dc 3dc6b6ff 3c86453f bd92aca9 3df0f913 3d6d2689 3d8ec306 3e4b15f3 3df34e7c 3d201d1b bcfc5cdf 3debeb04 3e4766d4 3ed1c7df 3d750560 3e32270a 3f2d7a9d 3d27e42b bdbacec8 3cd03c44 3e2f36e9 3f1c879b 3d6f7fcf be9c2348 3d68312c 3e1b62ee 3d0f7f1d 3d7b18e5 bd6d42c9 bea3316b bbcca817 3d18ff69 3d064a16 be1805fd 3cbd0397 bcf99714 3cb4f65d be985de2 3f1a6112 3e0022af bd3a4c37 bd0a17e8 3c32ebe5 3d893ff8 bde28623 3d841381 be5c0699 3d383689 3aeaa06d 3e7ce7a8 bd60dfc4 3d0e3f47 bd1d3253 3c82307b 3cc489f5 3e289d85 3f1d3d44 beb3563d bd0ab62b 3d622fe9 3d454ca0 bde549de bd85e5f4 be1bc071 3e8adc9a bd5b728c be07ceca 3d234bd5 3d0fc364 3c80d9ce 3e1d7fca 3e34e18f 3dca1e6e 3c83e6bf bc2e1666 3e0fd263 3deb3045 bf0afaa9 3d3cb26f 3da572d8 3e858e99 393d9257 be389340 3c957c6c 3d938cef bf14db13 3ca6e6ae bed90249 3e371330 3d9dedae 3dd1bd22 3da72256 3dc61006 bdd1a497 3c8f919d 3c62dc36 bc709f74 be6b9e7c 3d999b87 3e36cbc2 3ccc62c3 bec14724 bd974780 3d59853b 3dad83c2 3e39c8a9 3e105c59 3df3a43c 3dfb8ab1 3dec8346 3d87d809 bd3503d3 3e2b77a3 be4ab962 3de8fbe4 3d4588c4 3d1b2a69 bf03cc83 3e60a23b 3e03d6ea 3d217245 3d2a9d8f 3e20160d 3d8f99c8 3de36e34 3daef59d 3d4d6234 beae37f6 bf66d813 3dd19d9f 3e1444f9 bd19b291 3e409e95 3e937cd8 3ec08ec3 3ecb5f13 3e26326a 3dbd62a3 be3e111c 3d32140d 3cf35303 3e943547 bb3bf499 3f156944 3f1bcee9 3c867633 3e09af3f be2a7fc3 3c61cae9 3e9b7db7 bc13f59a be50eecb 3e420732 3e4a7831 3d53ad3a be278023 3e412b94 3e13ec94 3d97375e bdc671ad be0b23ef be0d8bee 3e6d568b bf4b25c0 bda8fa49 be36e660 3f05197d bd38f783 3dbfa918 3de563bf 3e948dad 3d8cfc44 3e744901 3e6a884d 3ea997c9 be790bc5 bdb38899 3ddc85c0 3cbcffc6 3d006277 bd28365c be4ccbfe 3d1718d6 3e5c0ada 3ed1dfc9 bf3d73af bdf9b1c9 3d49416a 3c65f355 3ee83004 3ecdbab3 3e5bbbdf 3d0386ea 3d815552 bf057d4d bde30633 be07e5ea 3df89e90 bcb20043 3eff8988 3ee05b9e 3b984821 bde8c476 3f4263f0 3e86acce bf3cee58 beb44aa1 3e81674e 3e6fab4f 3d103254 3d32e4de 3e9913aa bdb6597a bf56a094 3d7985f7 bebe8952 3edf51ce bc3708a9 bdd50b32 3ec24f5f bdf1f2fa 3e642822 3e2f97cd be54be7c be806cd0 be1c4e3a 3e8b2cc9 bd8287f5 3d64f5a1 be8b54df bd80d9c9 3d802bab 3dcbc079 bd81dab4 3f04df58 3dbcdea1 3cf7642d 3e94c8cf 3d7cb362 beeddfa2 3e95c4f3 3dd8e57f 3d398abb be1b8f02 be0527f3 bd642bfd 3f218459 3e0a29b1 3e0d16e4 3e25ed4b 3e0d44d9 3dd6f3cd 3d34c6b3 3e6b6ac0 3e879b2d bdcf3d60 3f50c98c be0fb1e3 be8b2be0 3dd2b4a9 be85aeaf bde26550 3e845a2b 3d0b43d4 3e04e1ae bcb8bb49 bf2279e1 3cf704e2 bf5554fe be7b01a2 bebfb1b9 3f11ccbb 3b287f27 be006b17 3ebb4991 bf6fc264 bd76dec1 bf5edc5c 3eee9e0f 3f0ab6ca bdc3c649 3f12b696 be27268f be2579d5 3e31a7c7 be695efa bdca5d21 3b5fab9c 3d8f69ed 3ec6a659 bec28172 beb25617 3e028ab6 3e016793 3e205b5c bde7cf9b bd8c4f97 bf17b003 3d8e7f13 bd172d6a 3e07653c bd9e7e31 3ef8dfa5 3e054a9f bedab008 3eaf6295 3e21d63e 3d4c85a9 bd99d4e5 392a045f bd196029 beec6686 3e9b8997 bf632279 be761e0f be124ced bcb7330f be3fe630 3e0328e9 3eb1dcfe 3edda313 3e7a770e 3f44dd0e bce331c1 bed5c464 be4d72a4 3e21ede5 be9aaa61 bdbed56e baae1af4 bed69192 bf3c220d 3e9d2570 3eee9f5b be90d22e 3ec4df36 3ddb82b9 bde833e0 3e86aebf bf0d7617 be0558be 3f258f9a 3eb8cb50 3eae8941 3dc85990 3f15e8df bd803722 3fa719eb 3c71e0d6 be3e7891 be3beb46 3c03df6a 3db4fc0b 3fa21fec bf31653d be6089c5 3c966c4c 3fd73b58 3ea7709c be27e582 bdca3093 3f47e134 be0c6e5e bd4a9baa 3d855717 3c9c8a18 3f180e54 3ec27e12 3d39f6e5 bec4a613 3bdd2fbe bd6a6cf2 bd03f53e 3e4618ce 3f209a51 3ec158c7 3d457bb1 bf9f19d7 3f1d340e bd8a7b4d bdb52ec9 3ea77476 bdc9f74c 3f452628 beaba182 bd838b7a be300ac2 3cbd5d84 bd7f7c38 3db9a9fe bdf3549c be02d006 be1115d3 3b88bbd6 be6368de bc833eb7 3f7ee60d 3f08a492 bd16e2a8 bb534156 bd397d46 be0cd116 bd1123eb 3d17fbd4 bde42ab3 be6beb58 3d92ae32 bfb05593 3e18a0bb be5f322d bd136daf be068910 bdf63927 bde6cab2 bd326a1f be146a42 bd08e809 3d9d5df3 bd210e1c beea0455 bd18d4ce 3f18126a 3da3f608 3cacb4a9 bd3dbdad bd8103ac bf129af2 bdcfd4d0 3ef092c8 bf0b428f be86545f be8fad19 3e55dadd bcc704d4 3d79e72d bd0d8eb4 bd7ce65a bfa64236 3f02db82 3dc2006f be0095d5 bd6714f2 3dfe445a bd9ef132 bd63ec8d bf043c38 bd5b86bf 3ed8a3d4 bf5b9c53 be559a74 bdd77d52 bd392684 3e1a6946 bd92e0d4 3db35934 3e5a352f 3ed4ad6c bdd15ff4 bf141cd4 be2725cb 3eb36b25 3eb898c3 be087a66 3e980b1e 3dc02349 bd85b872 3d8e755e 3cdedbdc bdb2394e 3e382040 bc3df12c bf01a90e bdc77ede 3f0ac188 bd0fa8de 3d063b0f 3ce22682 3d25559f bdcbd8e0 3d5bfbba be1c2199 3dde7427 be564554 be5634d5 3be8f39c 3e9c3f42 3f2707ab bd46d526 bdf13a74 bdc4635d bf48a0f3 bd8e8455 bc0496cb be5529a1 3e2f8882 be320df6 3d727ce5 3e594f95 3c07c9f6 bd68a243 bcbfebcf bf2e3148 3d8d3b2f bcb15a81 bd0cbd6c 3d9e9e8e bd89409e 3d8b7b56 3d348395 3f61849b 3c99bd03 bf05bfde bdcd1975 3d2b5018 bd37a6f9 3d65ea73 bc562682 3da444fd 3d74a230 bdd3b91b 3da82148 3cd161c0 3d10f477 3cbe3b3f 3e31411d 3efdf3dd 3e25749c 3e25e434 3ebde16e bd386a74 3c7b1b53 3d735788 3d3f9856 3ed32144 3dc9823f be64e6a5 bd3c0b79 be358707 3d61026f 3c9902f9 bd9c4d1f bdbce371 3e20b3e5 3c70a340 3df0aaf6 be71fdb2 3d632434 3bca29e2 3d1a8ca7 be9d31f9 3f101983 3d89d2c7 bda94e42 bc85bbec 3e0bad20 3dbcf7bf bcb64951 3db470ef bdcf981c bc987aac 3cd13e61 3d0589fb bd7aee42 3da50b86 bdffcd64 3d39a07c 3d88e401 3e398123 3e5e2c00 bf78165b 3df501ab 3b61016b 3d8d246a 3c83db3b bd0d7acd bdf00ca5 3dcc50df bda0af81 be490e0b 3e25dea3 3da32a9f 3d9f2d80 3e0d8abe 3d9c5cd1 3e81e177 3c585444 3c764804 3dd1d9f7 3d0fb38b bef8ff1d 3a2fc0a7 3dacda02 3e2ecd47 3c20b711 be9bc18f 3e171541 3cdf5ed5 bec5c643 3d351ac3 be9502c2 3e146cac bd466f0a bd3658ea 3e0eaf17 bc9c9f28 bd0e35e6 3d91f317 3d3b81ae 3ce46066 bdf8395d 3d5d059a bdbac439 3d9d3617 bec5b5db bc6ec3b8 3dafae81 3d1e7404 3e16951d 3e9d83b5 3b01e9f5 3e58e498 3db4fc41 3e45a2bd 3d982245 3dfb37bb be11de05 bcc9990c 3dc0dcf2 bcf40b1b 3c7115d4 3e315d87 3e379646 3c297ce7 bc4907d2 3ded1832 3cded6e8 3dc0448e 3ebc934f 3e275cd4 bd5b31db bef89c41 bdc59eec 3d3f00a3 389482dd 3e8eaa6d 3e328711 3d51cee4 3edc82ff 3e5d2794 3d9234ee bdd5648e 3e005e25 3e0e84c3 3ec507d8 bdb89e76 3da81983 3f08cf69 3dc5a8f9 3db1ba0f be99374c 3cca8e8b 3e9d99c1 be2969e5 be256cfd 3dd21975 3e3887e5 3d20fc82 bde8ee1d 3d94a991 3dee4992 3dde1d23 3d48e4c8 be3774fe bdbe014c 3dd04816 bed7948f 3b1b138f bd9940c3 3f2462e7 3da8f817 bd5ebc0e bcfd663f 3ef7bda9 bcbfe1ee bde8ca25 3e0970a1 3e40543c 3debf58e bdc4058d be2f579e 3e027f4f bcb0b684 3cd39a83 bed7aa78 3c89ecdb 3d18d685 3dca3837 beb97126 3c964d5e bd220481 3ded524b 3d506f41 3e6fd67d 3dd265b8 3e671fcf bdbd7864 bed8699e bdedb3a3 bd17eac2 3e0ac7a4 3c593ef5 3eb75d4e 3ee7916d bcab4848 bd3197eb 3e8b0b48 3e16b243 beecd71d be69b606 3e00766d 3e71df8c bda0dfb3 3e0c82dc bdeabb97 3bcf391c bed6de94 bb4044b1 bee38072 3e11f205 bd039284 bc84aad8 3db7cfa8 be0f4dc9 3dcc75f7 3d89dc88 be25e9a2 bdb0c933 be2d9aba 3da2b22e bde0393e bd8cdf90 be5eab58 bdcdbe08 bc067780 bdc0530c bcf0b858 3e80981b 3d1eefd3 3d765c12 3e1b6386 3e2a9019 be1c2c63 3d17dd53 be646423 bdde1ea7 be1cb156 3d6e111a be78e9a7 3f02a7ca 3de1035e bd94d731 3d9d7418 3e1576d5 bda1ac18 bb8f841e 3e190f2a 3ce63340 bec26803 bef24c10 bdd1152d be69d399 be4abc1e 3ddfa33e 3a712f06 3e6c831d bef7e5e2 3f10bf52 3d593fd7 3d571c83 bda1a3ec 3faa5c31 3e96a7cc 3d029ad1 bde1ccc3 bd914daf 3d7a12b0 3dfe5dcd c0065af1 bcbf2523 bda6ae2b be22f82f bf0414d8 be8d9d89 bf87df2a 3d404379 3ed6f5b2 bc8561e7 bdb88172 3c7f0285 bd402781 be98127e 3e9ef6cd bebfa438 3e476a8d 3d9b9cec 3f48e796 3e695804 bdad2bb5 3d282c86 3f510557 bee15248 bd0904c0 3e1ccaef 3da1d7d0 3ef39920 bfcf20d6 3d72ec2c 3ecb87b0 3d272732 bd10d7ce bd8d4190 3f2946c2 3f155442 3ee1040f be939608 3f8650f2 3ca2849f bd9db29e 3d15f55c be7f0e3e bdf5500c be898a1d bf41a19a 3e747c9e 3e087722 be026a0e 3e927122 3d71034e be6d4f4d bf19585d 3ede58d1 bd8cd7a0 bf52e7a3 be8ec8fb 3e0a9f0d 3e4f20c9 3d1e9e46 be9adc35 3cb1e16c bd1b2a4a 3e220caa be86f394 be1e73ad bdb3f656 bdf40c19 be9ea6b2 be20dd10 3f93ded3 bdd98483 bdf12b81 be79212d bdce8661 bd50ad2e be1bdac3 3c84e1e6 3d4451b6 be1e7fbd befdc482 bdccb776 3dc81e77 3e724204 bcfde6c4 bd3e0ef8 3df724d4 bdbc2038 bde50eac becc3502 be4aed99 3d507c92 be840435 be64b1e9 3ea42df5 3cea8270 3cb97ca3 bdb6d641 3f14055c bdcddf3e be1b7cb8 3e55660b 3fe9ad8a bdbc5fc6 bcc42b4e bd1fe981 be59d806 3c37e447 3e12ed0c bc8f5e8f 3da6863c 3e0b013e bd4f163f bdf3b461 bda45928 3dd0274b bdf7dc4b 3c9ee5fa 3db563cb bcd9be2c 3ddd7304 3e1f0bad 3f1dd47f 3e1f6c18 3df2e401 3ee1c21a bbdb030a bd37599f 3c8c9211 3daaed3d 3ed64c57 3df66ed0 bdbd93a2 be681c63 be11ce78 3d31bdc5 3d883504 bd5c12ef bed1524a bde0e6e6 3dacbc8d 3dab280e be003ca4 3d842eb7 3deb441f 3c7094e3 be407a9c 3f28d639 bd95008c 3dbd2a28 bdcd9407 b9f8ea8c 3decafad 3cac67db be2a3c5f be5fbca2 3e19bf69 bd9d5c21 bd9bf1a2 3d43621f bd23060b bdaba8e6 3d102df5 bdb0f9a0 3e396c91 3e5dbf00 bf6cc8d4 3e0b550d 3db05c64 bd38fec2 bd1e6ef2 bc269c9b 3d83458e 3e136dc2 3d060e74 bda02d53 3e2365ad 3e279154 3d211c4d 3e218d45 3dff2940 3e12cb8b 3ccd72b6 3cd77e3a 3ca8bcc7 3e0fcb80 beaae2ea bb66d8e9 3dc67ff4 3de7e005 3d513af1 bdbb1fa9 3d84f664 3dab76a0 be6f9cb5 3d41a6aa be979be3 3df1da09 bdae4c0d 3c8f0f32 3ddb47e3 3d9264f4 bd87c6d7 3dd9d036 3db6313d 3cf3ffe4 3e055ebe 3d164f4a 3d7fad0c 3d640c02 bd815ae5 bbcf8852 3d8ac74d bc184249 3dcda0aa bd1dfd63 3c562a67 3d0bd964 3c463158 3e2a6208 bdb13865 3e15374c bdeb27a6 3d2ec038 3c69f290 3db75feb be1a92a3 3e1f76c8 3d3f17c7 3d10e923 3d8e5943 3dac2f05 3db95871 3da8f278 3e4f397a 3dcf045c be60049f beb4e218 bc6dbcc2 3eb79a1b be0be397 3e9b83a7 3d008284 bdc27b44 3ef14a79 3e749d2f 3d605212 be4981cf bd7f1e1f beb5b953 3ea7b0d5 3cf2c40c be00b06f 3dace1ba 3d7b3f5b bafbb375 bca2e8fb bdafb85c 3f12548e bd97bdc1 bdc61fca 3d40933d 3e41869e bd06c63a 3ebbcdd7 3e123b4f 3ec7e008 3d942d48 bcb4b139 be2d3b70 bea45f46 bbfbc436 be3fb7ac bdf62b8c bf0c2e6c 3e9248af 3d026254 3d010d39 3d9239e7 3f23a0e8 bd33dacb 3ca7fe9b 3d492d7a 3ee4b6fa bc617035 3c3c953c 3eaab5ae 3d913827 bdcdd734 bc4ff997 bf43664f be54df8e bd6cd4ba 3d8d20bf bf7763c3 bdf0cd23 bd440058 bd94a2e9 3fa8168e 3f0bbee7 3e677b2d 3e992414 3b017374 be419732 bd589f09 bd817359 bd17bb97 bde11e3c 3ea7a310 3e4cd16a bdb6061c bdc9ba9e be2357dd 3e08891d bed0db4c be1c0393 3d4fff30 bc1d5513 3bca56a2 bcb9e191 bd0ad5cf bda41baa bea6864f bd2c11bc beb04b85 be3ab996 3e58d8a1 3a85dead 3c769606 bde2fb34 bd81e074 bdcd50ae 3c78754b be441886 becd6ded 3c604608 bdd113d9 bdb5fe75 bef83de6 be52747b 3c0f94af be06babd be202d0d 3eabb451 bcf36f91 bd0394a5 bc686253 bccb5905 be125648 bda3e807 be7278e4 bd9c2082 3c8f0f7c bb1dcd87 beaaa6a9 3d9301a3 3d843883 bd9d71ec bf6d6a36 3c5ae180 bde995a1 bca49b56 3ec2880a bdf64491 bdc8b7bb bea3ad0e 3ded9532 397fe2b3 bcfdd37d 3dfbea57 3e609cf7 3d580211 3ebb3d3d 3e8ca816 3e4f6e77 bd3880de bdc364ce 3f2ea770 3edb42aa bd9fe8cb 3d93e4f9 3e589c85 bd70c1c8 3c73f8e9 be76e254 be0fc995 3ea5976c 3c7a664a bd72e30c 3e95bc1a 3d059a46 3d3e0af9 bd6d2683 3e45ba5a 3db60c55 bd6eb0b4 3be38a6c bd2e6b76 bd2a49f4 3ca2814d bcc17540 bd1a1c04 be2a858d 3f28b800 bda8984c bc457e0f bdaf28da 3ee921e3 bdb75207 be0fed38 3d0777fb bd569f1b be086408 bdea1e5d 3e0e9f35 bdba372c bcbad592 3ae7f897 bef2ce53 be1d173d 3e9f9976 3e57a636 be950e9d bdb8c3a5 bcb1c3d3 bcbde451 3f173143 bd803bd5 3de3af3a 3e683520 bd98c723 beb7d797 bc9f82e3 3d835681 bcfa5b5a bcc0dd8e 3ec84752 3e96f269 bca5c313 bd23ab64 3d0c2b12 3df2f15a bef53467 bd8267e6 3d52c767 3b5698cb bdfc4a5f bda5a9dd bdb5ae46 bda0214e befa8e81 be0a9bcf be824c21 3e55e4e6 3b3c6fad 3d631f20 bd9d41ab bdb1c126 bcab284e bd9ec323 bd8769a6 bc98c060 bdb9301c bd16f107 bd69c8ad bdd42f24 be925c61 bd9a0458 bdc51d55 3d774aa5 3d30e5eb 3e9e7f9a 3cc711c7 bd26fef6 bd689aee 3d01fd9a bdfb5ebe 3c5d6a8d be2dbded bdd954ea bd4a7e38 3d37f7a1 be838d7d 3e0741d4 3deed743 3e2ad0bb 3e020325 bc626a12 bdbe341e bd4706d2 3f2ce0ef 3d9c9858 be4e6db4 bed6adf9 3e4f47db 3e141e37 3e09f513 3e9c7df4 3d5a17fa bd6bf6f6 3edbddca 3db0949e bdd0b9d0 bda446b8 3c2d9bea bd8ec7c6 3e5df406 3e2dd404 3dc6afd9 3f1ce431 bd805f27 3d74d7e7 be27158f 3d5809a1 3ebf8c66 bd0cbb24 be8adeb0 3e42f882 3db86b56 bc33531d 3d8f4f85 3d24c010 3ecae61f 3ca721a4 bd8fe89d be03f282 be2dcf33 3c588834 beadafb7 be5e6bd5 be1d1f9b 3f45e973 3da4d1f3 3d685148 be6d588d 3f1d0b53 3db806ad bc816e15 3dae96b1 3dece3be be5dfe8c bdd3976d bded71b2 3d490ac8 bdd387a7 bd36f868 be69d632 be0b66f5 3ca62a4d 3e79acef be615f54 beacdcfa 3d3efd51 3db0cb64 3eb8c987 3ea900f9 3f03d311 3eca1bc7 bde443b1 becde308 3e982062 3e6631df 3c991f12 3e00a425 3eb0729e 3ed6b98e be62a446 be6c1ea1 bddd9477 3eba6c12 bf3d0fa3 be19e883 3d214147 3e4daa86 bd2fb2c4 bd52293b bde054f4 3c21e9df bf5ee040 bd92a88a be88acef 3eb8c4f3 bdcb3ff9 bd27b2fa 3d8ba25b bda7f819 3f1c4a75 bd090ac0 be00acd1 3c03f0b8 be81876e bd2bd40b bd8a9945 bda582c3 be9d9fff 3c86a331 3d2d9393 bc68e00a bd8ff5fa 3f1547fe be2c9863 3e33e868 3e882401 3e4d4f10 be5615fd bd8cc651 bedc46fd 3d76066d bd365966 3b98dd0c bbfcb1a0 3ddfe02c 3e18bc28 3e162d95 3d934a2f 3e1a371b bd99d489 be06287e 3bd73481 bc1d84f7 be558725 bee8729c bcdc649b 3dbf4599 bd1bc820 3ec241fc bcbecafd bdd3e618 3ead9f9a 3f4bf6b5 bd5a8ca2 bdda152a 3e2db4a8 3e111eb4 3e6cb709 3b5caaa9 3ea89d2a 3ef79aea bde947fc 3d8dcfb4 be8260f0 bde71a23 3edc2b39 3c282c91 beafb5a2 3d81dc09 3e13a7c1 bdcb42c1 bd859de0 be90e44a 3e1c0973 3e1d26a9 bd6480ef bd5c8002 3d48368d bcb277ed be7c9254 3dae99fd becb5f76 3f0e1b00 bc751aff 3dc8c245 be22733b 3f0308ab bb4076e1 be4bcab0 3d32151e be03a156 be52bcc1 bd98eb26 bda4d29b 3cff8826 bd75deac bd700a22 beefde84 3d5a6a01 3c9b7fa6 3ecac34d bf4f0cff 3e0726ca 3c44c639 bde05e7f 3e2f8ebf 3e3f93ac 3cb18f5a 3e000237 be2c28af bf1780cc bc3437be 3ced72be be0df020 bdb1a23b 3e9daf58 3f192915 bd1539ac bdd60942 3eef51a3 3e8613dc bf17aa0c be27c642 3ed3dd29 3e9dd6d5 bd12bd3b 3cfd8f84 be9208a0 be0021d7 bf2bce07 be981b11 bf43e942 3e0c747e bd3d933a bd20b83f 3dc68c3c be0416a7 3d97f1ef bc56529d b83250c8 bd9fb892 be3f3e2e be0823b4 bdf0c4ec 3ca4df72 bf21b313 bd56fa10 be695a26 3d819e34 bc85875c 3e0a5c1b 3c857c1d be234da6 3db94800 bde34d1c be1d2d88 3e384328 bec13039 3c78cf7a 3d0aa6e2 3cd2efe9 bee4ea03 3ef0d363 3e4cd345 3cd39983 bdff000f 3e88ca12 3bf7d37f bdc21ad1 3e186b0d bdc16e22 bea1e3e8 3e13d267 3c5ac09b 3dd8e47f 3e067091 3d08653c bde2730d bede42ea 3f0d4f40 3eb2fec5 bd8c7a20 3bc24d41 3dd26cf4 be91e0c6 3f0244ca bd885ca7 3d28828a 3e128466 3cdf958e 3d6b9ea9 3f050ac2 3ca1b8ad 3eafd943 3be3d5aa 3eaa03ad 3e15cba5 bd0810e8 3cf71fb9 3d30e606 be81c2c2 3bd408fa 3e2e984b 3b4e1884 3d249719 bb2547b9 be50d4d5 3da84922 3df45edf be87c495 3ed14520 3db10468 3de0f754 bed0229c 3f762413 bce1a188 bee1c421 3e199200 bea25342 be478197 bda17d14 3e10b796 bcb92b73 3d37763c 3c652605 bcf84d48 3c38fae1 bd15407b 3e3b92f3 bec72b17 3e10ffb2 3ca20f4f 3e2e5c1d 3e2e30a6 3d172462 bcea3fb7 3e5dbaeb bc9b92bb be649360 3e137fe6 3daa647a 3d2ebeec 3b1e356c 3e832485 3d119798 3d6056a7 bc43c7bf 3d987dc7 bd350499 beda5e13 bd054cdd 3daa2139 3e012863 3d840da9 3d689cba 3ad6477a 3d8017a7 be2549c5 3de5ad37 3d3f5047 3e5bae8d 3d86cc82 3cf022e2 3cfe12f5 be069c9d 3daac625 3daaa25a 3d7af36f 3df0e9b9 3d0eb9b2 3c3d3ce8 3d2dacfb 3c9ebdb8 be96f5b8 bd89b803 3d2c7f87 3ce06894 3c897516 3f0048a0 3dea6b70 bd1ce5aa 3e843c86 be8c5a45 3e1e1b52 3e22e24d be693218 3d94c273 3de46dcb 3e0a2ac1 beacab62 3e59a22c 3e597de6 bd4701f1 3cec3069 3e452f56 3dbf1b61 bd05fae1 3e6ab835 3d5a4ad5 be138f33 bf9190a7 3e27505e 3e014448 3c07f3f2 3e5b9311 3dcfb075 3cde1380 3eb3ee34 3ee1b702 bc7581d8 be29d5d9 3a6a1557 bc4c4ca0 3ef9f9c6 bd70cdb1 3d9a29e8 3e171901 bdd93eba 3da246c2 be251a0c bda2b2c2 3f43bb69 3d80a27b bf1c79e3 3e6a242d 3d645914 bd2e4dbc 3e8254e3 bc992410 3e529b33 3c8da8a7 bda4bb43 bda80fac be66582c 3ddbfef1 be1e2ba5 bde52644 bec9fead 3f87aa8e b8e01e21 3dc90d3c 3d6d26e5 bc4624ee be1175cd be250a21 3e4b3769 3eafc9b3 bf5c3def 3dae102b 3f1581c5 bd0279be 3d7f0b21 bc38fe22 bf21ea22 bdeef8a3 bdfe0a13 3edd3cbf bf68395b bdd1334d bdd00295 3d84c2fc 3fb454eb 3f8313b2 3f3cac3c 3e946c3f be810646 be5c0796 be6871eb 3d67b879 3d3bb2e7 bd4f8165 3eb348c2 3ed67f97 bdc089df be1c1913 3e247b1e 3d921af3 bf0cf14f be57881f bd10f7de 3d949f42 bd8e4907 3dfe1d3d be0283a5 bbbd1e52 be0d74cb 3d6d74b5 bec0b0ef 3e8c0180 bd38d50a bcbb324b 3def0834 be5284e1 bd88ac09 bd650716 bd7c8e9d 3d974126 bc834ce7 3e637cce bdb5b85b bd36b887 bebbc398 3ea4c10f bd365719 bce42735 bd2c1422 3ed17570 bc8de2f6 be07a17d 3ee5b1b7 3da454b1 bf0ae8a3 3a5d9b8f 3e8b3b2b 3d93730c 3cc1f45f bc448378 bf0b6079 3c062cad 3dbdee57 bddc5b8a bf0e115d 3cdc271e 3d175b88 3d70c512 3ef98acc 3e5600ed 3e8d6b0e bea78ade bd8f38d7 3e27f6a8 be26cd70 3e0f46dc bd87dbb4 bc85d6af bd28de34 3e1188a1 baf33b48 be5caf5c 3e179c5b 3e1aac1b 3f18095c 3d915500 3dab178c 3f0bee97 3d9881df bd525df4 ba857661 3dc3c308 3f214743 bcc2d8cb bd87e591 bcefc566 be15488d 3db7cee3 bd6c0a73 bd0e6175 bde6849c 3da22baa bccef8cb 3cfc0859 3df7b7af 3d186609 3d453b5d 3d9f93e6 be06bd9d 3f12f6be 3d3884df bde28b6b 3ab206d0 3e6620a8 3e2d70bf 3d591236 be04423f bea6d3d6 bcabff84 3df0b4f0 bd3d0de9 3d450bcc 3dc114f4 3c0d22e1 3dbcf7ff 3aec9d93 3e797f50 3e05b7df bf04ef07 3d3d93f1 3d0e131a 3da7e479 3d8f018b 3db5c56c 3dfb0f54 3e4fa45a 3dd1eb67 beb1cf17 3e71ed2e 3cb08a3c bdff3f0c bc608a41 bc92dcf0 3d9a1949 3d9698d8 3cb43e64 3e4fd48d 3e3d2dcf beaf6518 3c388dda 3e3260e2 3ce23c2d 3dcb5f9c be2b5523 3cc7e872 3d540d9a bda966e2 3da02a41 bed41312 3d2a6e17 be22db7d 3dd16dca 3e5656c4 3d3654f7 be598005 3cad00dc 3da4f13f 3be8e959 3cc9dc59 3c7a4a10 3d3fbd9e 3dba16bf 3c83228c 3cd366dc 3d831dbd 3de574c3 3d4c6490 3e2e02cc bd37fd2a 3e0d39eb 3db90d3a bdf11588 3cc399a1 3e6657d1 3db6b133 3d77ba88 3da0502b 3da59c3d be627349 3e7ebbee 3e252f1d bd2e12b7 3dd22db4 3e2e62cc bd08c0fe 3cec2d9b 3e99d8b4 3e1d4269 bdd4a62a 3ec28ad4 3d40458c bdcf6393 bd2322e2 3ee16318 3ece7ae8 bdcf14ab 3e7ce7a7 bee6447c bd1a3bec 3bc760e1 bee27475 bece5823 be8030ed be905c7d beff68cb 3f02c56d 3cff9de1 bd2ae876 bc881952 3ce7e0a2 be2375be bea39bcf 3eb10eec bccb4397 3c5818a9 bc5336cf 3d6eb1f4 be172c99 3e895bca 3e15fb7c 3d3dc656 3d6c582f 3dc2b721 3e87c3e0 3b10ba92 3d4ab8f0 3e78a01e be6f7083 bc90f99d 3d673a17 3e679efc 3ee56e95 3dadce22 beabe870 bd86ae03 be03685d 3e1188b3 be487aa6 be16b400 bd59442e bc9da949 3e3f1697 3eacbc61 bde8ffc8 bd834e9d 3eae02c7 be64eb71 3f0745f1 bb596862 3d1b39cf beec1302 bbeeff37 3dfa962f 3e0503af 3dc1e846 bce50e3f 3d5aae42 3ebb19b7 3e75819f bd448fdc 3dedb8a5 3df5fc35 bd23b5ec bd1f3bd4 3b2fbd07 bf1eacf7 3e8d0804 bb7f89fe bee7363b bdd8630e 3c9fa6a6 3cb14d89 3da2ee22 3e0299e7 3e8a2e48 3dedd8b2 3da213bc bc5181b1 3ef4b5c6 3e144006 be8589e2 bdc8f742 3e6288a2 3db7151d 3d11ad6e 3b0fcd2d 3eb78287 3e74b9b7 bd2183c6 3d5a652a 3f67bae4 bed9ab93 3e1059da 3d2c1ec9 bd8a6136 be813fc0 3d4172cb be969a68 be2f1aaa be7806ec be98b77b bd3ff334 bd71b8c3 3d1c3f6d 3dafd381 3e104571 3f9823e8 bf15781a beca846d 3d681c2a bc8a3f05 be296e3e 3dd89015 3d95107c bebbf125 3d8c3b5e 3cbd5f72 be0a9a0b bc7ce55a badcfd33 3e05eebf 3e35c134 3c1060fa bee8c95e 3de520e6 3e292752 39d36301 3b05f779 3e2e71ea 3c9a2d2e 3eb4e992 3db71468 bcca77b6 3e9bb072 3d99ca71 bd859adf be271af0 3dfe6055 3f1d8121 bdbf61cf bdcb6615 3da40dd5 be3c10d1 3cf39177 3e9e34e7 bdaf2c55 bdf95548 3dce92ca bda49f44 bd07e5c6 bdd51d58 bede0600 bd7513c4 3dfa91c5 be424c77 3f22d23a 3dc4a453 3e263f4c be01b67b 3db57d3c 3d117a39 be98ee48 3d9fe338 bc102d74 beeb0f89 bda78a97 3f1d0c3a bc5d4d60 bd08df68 bdc2b9d6 3d07b0dc 3dc49e96 3c80398f 3ec93f43 bd64a47b 3e81bbc6 3d4d25ea 3e02e2b6 3dbecf29 3da56520 bdc61be9 3da85eeb bd9f0d8e 3db2f97e 3e0740fc bc621f9e 3d01ccd8 3cdbf6fb bcb6370b bd6b150c 3d4ddba2 b71c6062 bec57c99 3e2fc7ba bef7e8ef bd126d1f 3e3a0eff 3e16f7e4 3d129983 bddaa5b2 3d69505d 3d5de2ff be3b6da6 3e016b4d bec10bb4 3d9f7be7 3cea1039 3d8c287e 3ce363d2 3db91d11 3d5e6481 3d7fd64c 3d990ba9 3dddfc9a 3d770647 3d5e1056 bd0c36d7 3c9f69af becc1364 3dfa3afb 3dbed89e 3dd82b21 3df94b83 bd508aa5 bc4da339 3e1361ec 3d6956af 3d5a8ff3 be0804c0 3dd91bb2 3e8f9533 3e0e99f2 3df7771e 3da11795 becf1e70 3e4c1289 3e6d0b75 3d91893d 3e54c31f 3e3349c0 3d9354a3 3c8b29c0 3cee855b 3ea1a564 bda89b06 be7c0888 3d9c3df2 3cc8b019 bcf2b6e3 3e67b147 bc2c0c17 bb8fc885 3ed6dd1f 3d887e39 bd7a69ba bdac118e bd09232c 3df81d7f 3f1fe7ce bb915177 bd3f80fc 3f373a75 bdc3ac6a 3dbd1626 bd949db4 bda7e141 3ed01c0d bd9195eb be85c973 3e59b5d3 3e08b77a bdaaee04 bd0b3bf7 be01ad62 3d449f6a bd4d9852 3d13ff6e bd40c877 be16c68c bd7238a6 3d8d483d 3cfbd6b7 becfe0df 3f287e64 bc977ea2 3cd5dbd0 be0ac43e 3ef078cb bca7d5bb bc5ff9ed 3c1b4192 3e04fd9a bd7fbfea bd88a1a8 bd98a284 be018d8f bc1f4d27 bdb0f5ff be2619f6 bda1da38 3de7e454 3eaecd98 bf5d329a 3c9e6207 be048065 3dc61810 3e545833 bd55467d 3d33231b 3e3aad99 bdb3cc4b be84a376 3dc13db0 3d948d52 3d971b19 3b4a19a6 3e895c3c 3e396d8a bd879e5b bd75c2ed bd2cb6bc 3e0bf662 be8d7494 bd7c6beb bd11f93e 3e8f0cad bd593c07 bda771b3 bcb4d0b9 3d218ef2 bf068221 bdc6a565 bf165b31 3db200d1 3d13d9b5 bd41e86f 3cd16bea bce4bf29 3dc5aba9 bbc969e8 bded1788 3d59c390 be735f1d 3d24eadc bdd8dc78 bddc4060 bed9621e be3cfd7d bdd22d60 bd5b9e29 bdd790bc 3eed7152 3c8e1ce2 3d0d8704 bd2a8313 3dacc64f bd38c4dc 3d47a3c2 bdd28d49 bd1346b3 bdce22e5 bdc8f625 bf3ab402 3de168f3 3e143996 3dca913b bd1d2fcf 3df09376 bd2e7dfa bd765676 3ebffffe bcb3102d be8965b4 beee2c78 bc5d2611 3d6ccdbb bd56a091 3e40b3a4 bdc855ca beaf4b2e beb15500 be67a4ab bbc76a4f be66cf9c 3e102b98 3f80f7d3 3efdf42c 3e9547c2 bf0dc669 3e33ae6e bc9ece5a 3d909883 beb7e0df 3b7363a1 3ed94ac4 be3fe6ed 3e9303b3 be7da825 bf17d87b bcc6b503 bf2baf67 3e1de6c9 3c384860 3e1e618c be1feefb be585342 3ec60ccf be622a28 beb54eee bdbfcb19 3e8d19c3 bc230d75 3c7d618c 3de80e6e 3f061b15 3e4e1a1c be44c407 beff39f1 bc87a288 3e4131e9 bed8bbf4 3e9687ed be8e14df 3e0da3a2 bc0c1cd0 3d664140 bf8c280d 3f19139c 3edf24b0 bf03c095 bf1f573f 3f3d6f92 bd8f4b7b bc2bb6cd 3fdd71db 3e7c9b52 be918371 be688b6e 3f5b0535 3df90075 bd6221d4 3ed91d52 3e0d42d7 bec17add be6f7fc8 3f372448 bda62a6d bdbb7d0c 3ea40833 3eea3357 be3ce7e6 3cd61d54 bec84f87 3dec262d bda61a7f 3c250a6d be79445e 3c5aac43 bdffe66e be8e78b9 bcd3d40d 3d20c50b 3f8ebbae bd8e0605 bd27a18a bdc12fa5 3d4d901d bac1da5c 3b4fab2e 3e58082b 3d358de6 be58ce3b be7fad44 bd8da0b5 bd254d4d bdeb91a1 bcf84c99 bcf3b3aa 3ec3670c bef67889 bcae6517 beb3bb18 be68066a be8f3503 3f2f81c9 bed3313b beaacb48 bcf2541f bbdb48c3 ba88bf2a bd703787 bcce54d0 3d9d9e3f 3dcfcadc bbff1c99 bdbb3fe0 bd0b5e9c bdb6cd53 3fa50857 be08aced 3eaf9579 3ecf46dd 3da4b1bf bef71fa1 bd9786a6 bdaf707d 3d789a6d be3f416f 3eaf5385 bde0f630 bc1ddb4c beaae62b 3e9b54f2 3f1c511d 3f493897 bd8f31ef bf55b5f2 bd614db4 3cee320c 3da61f2b bd1c36e1 bdcbebc3 be074317 3e9264e0 be98662b 3dc8ed56 3ddb6fbf be03bf6b bdd16ed9 be2d49e8 bde5bace be02fa09 bd30b3e3 bdf92186 bf1dad80 3ec15a15 be99f15f bd1f00a6 bf5679be 3e5c10cc 3d45e07a bd4e4b51 bcdcdb37 bf23108f 3c3ac9e8 bf56aa37 3e095c45 3ec7519f 3f16fa50 3e0c8075 bd16f6d6 3e1bad8d bd8ee9bd bd75015c bf01e0e4 3ef24009 3ecfbfb6 be9a8699 be775e49 be48ac46 3bd82ed3 bd7e49e5 3d8799c0 3de33bc9 3f07ce75 3ed7fea8 3eace343 3cedbf12 bd4452b7 3ed97bc1 3db05d48 bc01e46d 3e95a383 3e6377aa bd23bd9c bf1652a6 3e06089f 3f311bd5 3eac45a6 3d837281 bdabffc8 bddfd9a9 bdd40aea 3e1aa098 bd9f7fd5 bd2222e7 bd87dcdb bd04ffe5 3ea3247e be97fcfd bec7888f bd5c3dc9 3da816bd bdd93fec bdc34138 bdc16aa5 bd793671 bd913eeb bd3def2c 3e64590d bf81d7bc bb19fabe 3e95a351 bd7bd871 bda15689 bd62536e 3e9ad438 bf2958da bd270b54 bc0a128b 3e6af473 3d88adda 3cbed858 bdbcf2a5 bdad5447 3d71929f bdedf5b4 bdc3631b bfce5e4e bd95e840 bcfe6807 be7ce145 beb8f58c be53d935 3a37b28a bda1bd32 3e9e6e99 bda39da8 3f0eef98 bf145e03 3e09f816 3f9c84ac 3dcec64b 3ebbd68d 3e1b8533 3dae9dcb 3e83f94e 3d80b6c9 be13c486 be2e6686 beca90be 3ec48721 3f14464f 3ef3a8ea be5cb83f beaba2f5 3ce57555 bdd26a91 3f23e28a 3d84ba72 3f803db1 bd0a4f4f 3ef53f6e 3f3672bc 3e80c2cc bdf564a2 3eee55ab 3e76a05b bd949789 be50bb33 bcfc2f5c be6fbd0e beaca00e bd3b1567 3e2646c4 bc5ecfb9 bd8fd69e 3e0aa98d 3d85bc1d 3dd52eb7 3e0e2e82 3ee781b9 bdeb1f21 bd7eab07 3eb261cf 3f26535e bf1c0946 bec0d5d0 3eb46d9c bca2dbb5 be16b86c 3d9b25ca bf220a15 bd10e070 bf0a371c 3db9f507 bf07396c bdf94733 bca1b9ee 3d3b5ad2 c0043e96 3e7a3c2f 3ec458c5 bd3798a5 3e6014a8 3e8cad97 bca21063 bdcb36cf 3d20c497 3d00ab06 3ee0b1cd 3e765584 bd519991 3d0efd59 bedcf320 3e17b944 be2593f0 bdd7af1d 3dc73fb5 be585130 bd866692 3b830e9f 3f37b619 3c68f6cc be8524ba 3e03eb47 3f76d78d 3eb8d5fd 3eb8b3ae 3d7f5da6 be9d595f 3dc70759 bc2c6f12 be083ae7 bd505652 3e02f83a bf26275c 3e84109e 3eaf23de bcd8a1bf bf1a187f 3e7788ee bce7f31c 3bae9087 be92df6f bcf473ac 3cdddfeb bd6bd1b2 3f30d7d4 3d91a721 3d6f53cd be0ca947 3f56b966 bca0bb4c be293fa4 3dc5a78a be1ef4eb 3d30af8f 3c02e980 3d8ad806 be421c55 bdd309b1 bd848832 bd86fe31 be45b163 3ecc561b 3c848959 bed72817 3e1bd412 3e662fae 3d230a76 3ee04534 3d878dab 3dc821e4 3ef0a3ef 3e90f11e bc29c518 be9b508a bd4625a1 bd0b3ec4 3ec43c1b 3cb81562 3ce87ae1 3f3d182a bca378cc bcae2cc3 be35dd42 3d5521c6 3ebbc2b6 bdb97b3b beade07e 3e6f0df8 3d527906 be086ae2 bccf99c9 3c0d3e11 3e045f22 3e743f11 be48325f bde21af8 be014b46 be1c525b be5ab3f5 bdad4a59 bea2cb33 3ec923e5 3e07db4a bd9a2995 bdda9933 3f43ad5f be4cea96 bd1d9866 bd30a432 3ecc4df5 be942990 be566597 be181cb9 3da52893 bcdb1e45 3e3c87f2 bed1bc61 be8aac30 3e3d9ca8 3f48a0d9 bf2f1e13 bdd706dc bdc01570 bcaea515 3e98e933 3f3b80fd 3eb19b8d 3e9ef7d0 be2d414c bef46497 3d4b7b89 3e67f39d bc42daf7 3d2d53de 3e6188aa 3efad55c be313fe0 bdc037ea bd76ed69 bcb77124 bf623e39 bde61928 3d8fbf63 3e19cb6b 3c7f1435 bc7f706f bd7425a7 bd9c3fd9 be816387 bdc79ee6 be51ba6b 3e0f49a6 bddaa660 3b0ee4af 3b1fe1db be3f0af9 3d513cd3 3cca039a be36907f 3e08b824 bebb9fd1 3d37e40d bde8ef17 bd41b2a5 beb2e004 be80a4bb 3b20e6fc bb25fef5 bd0074b6 3ec261e3 bdf43566 3ce7b090 3d9b3292 3ebf10da bdbe3e70 3ddc2b2d be816636 3d82fc8d bd62214d bda87688 bdfd2a12 3dc52b79 3e4cff38 bd622d12 bd07f977 3e688637 bc6e8a76 3d2100ef 3ea35f8c bd528d03 be7e5178 3ecae812 3c4decc3 be28b32a be6c874a 3f1c8ce6 3e562be0 beec2534 3f2d53f8 bf0f6ecb be3f1c95 3f11a0aa bdb95352 bf066c68 bf9469df bf0a1b2b 3e0595bc 3daf436d bd90af70 bd9a1e4a 3ef2c1af 3e154e7f bef2cc3e be10a405 3f31783f 3e994418 be296806 bd9725c3 3f61e78c bea774ca be122bd6 3e1c4b24 3ca20a6d bd9cb57d bec37a5d 3e824f92 3f50c570 bd52f48c befa939a 3f0c9816 3cde8af6 bc9515f6 3e5dc565 3eb36adc 3e21d608 bf409c01 3ea3fbd9 3ebf3b0a 3f0125a3 3c3728d5 3cbd98fd 3d0e5de9 bd25b59b bdc66628 3f834730 3e3e71d4 3ed90480 3e7e04b9 3d335024 3ecc4c62 3ddc750d 3e21839f bebf15e4 bc7950f7 3f1a93b5 3fb7c927 bd485790 3ef518bb 3d8a8b28 3ee27c1c 3e80f99e be1ba60b 3f276329 bf26ad1e bd522a84 3e63c0e0 3df3f75b bf49437c 3f81e10d 3e9d1641 bf2c64c7 bed92e3c bddbc2da 3d3e60df 3f08fb5b 3d543317 3f5ed999 be45193b 3e90c41a 3d05a048 3ec6a9be 3d5671a3 beb0ac42 be2fd485 bd8cbb6b bc044607 bddf26ac 3d42be69 3f007e22 3e8b77a3 3eae3791 3cb691f1 3f655fa1 3e9a4e4d 3db13400 3d288f51 bda47275 3eb3b8df bd0b6c8a bee9c925 3e41c889 bc82bf65 3edbb71a bd1332cb 3dee9d1e 3d5ff551 bd854178 bd6bd05c 3f863b8b bb6e42a0 be26e397 be54b498 3daa3a8c bdf733fd bd382a05 bd14ba87 bf8afa72 3dbac954 3f040d31 bfb116d6 be61c6e7 3f209afb 3e3ade37 3e870337 be5a22cc bf2aed49 3c584f12 beaca8f3 3d029efd 3d49b704 be06b4ab 3f5d8b72 3ec90378 bea018bc be9fa3ee 3f351e6c 3df9e08b bcc17c37 bf37c7c3 3dcc3eee be31f927 3e21d1dd 3d29f750 3f07ae97 3e06a04d 3d929c84 3dd581e5 bed52fc7 be3679a8 3db044b7 3d51aca1 3c97b33c 3e27bb2c be24b71a be348645 3e1613cc be12d113 3e4558b8 3e310f43 3e0b6737 bdedb7da 3ee46089 3dde7b1e bee91862 be4374d3 be923249 bd66f26c bd340176 3e0fdd46 3c627a95 3d6a8d81 3c4e64b2 3e2b876a 3e9d1f9d 3ea22dce 3f5eb3c9 bef99553 3e931595 3db74ab8 3e7fd9e2 3f9a7663 be907001 3e93eb9d 3ebfd0bb 3fdb3a1b bf236158 3d9689a5 3ead062d bdf05d75 be03b167 bd8612f4 bd631b28 3d4c2f60 bea6813d bfc49c93 3f0a3745 be15ca56 3d1713f7 3d587398 3ee29be9 3db5d0b3 b9e0df77 bf42ea98 3cb7189e bf436cfb 3e3cf2d1 bf1f5312 bea57568 be99a8b0 3dab9eef 3e960329 bd03936a bdee10d6 3def65f7 bc858f79 3dbafcf8 be1f8411 3f18ee58 3e69dc4d bcd61084 bf1904f2 3d289491 3dd6dfe9 3e083cb6 3c884534 be5aea48 3d96d4a4 bbc8ee45 beadb38d be4aec5b bf48e31d 3d3a52d7 bfa14674 bce76140 3d8bdbc6 3c55fcd6 3d45094f 3ee48a17 3e706ff4 3e980836 bee56811 3edbc0d5 3dd9166b 3d44e77f 3d9fd705 bf922782 3f84ec89 bf35bf28 bd1609d4 be217bba bd08351d 3d692a2a 3d9582aa 3d8b0bdf 3ed10f29 3d8176b4 3c7fa6b2 3b57aa25 3ddfee52 3e50a5d9 3ecc4af2 3d86ddef 3e22a2e1 3e87fee2 3c9ba2ee bd21ded2 3da2bb04 3e1c6eea 3ea09363 3e012994 be467442 3dbb7546 3e1e07f8 3c82445a bd4ae75f 3d61ecab bde16637 bd7b0edf bd6ef07c 3d18be14 bd8eb6b6 3d46809b bd743993 bda355c3 be1f1a41 3f214ef1 bd392963 bd80a562 3b24b5db 3dc94109 3d73f773 bd2dc6e3 3c7df3fd 3e4a8e26 bdeb50b5 bc006f4f bc7a4f80 bd4f2aa9 3d21536e bdaac08e be97c5b6 bdd0e7bc 3e720409 3b941e36 be171a87 bd8dcfc1 3cc8f5ef bdbed9ee 3eb4201b bdd4b4a0 bd941aec 3ed833df bdf400d1 be952871 3dab9151 bdb75ae4 bcc77e29 3db63ada 3e94c5ef 3e19062c 3d036f59 bd314084 3e1697a2 3deacf9c bed9d829 3d9ad9c3 3e80aa98 3d3db6bf 3dfd2799 bccf5f3d bbfe4343 3d086f72 bf08ae9f 3d86aab2 be84e6fe 3e1aa2d4 bc5677c1 bca36d06 3d137ac6 3d5b9d18 bd21927b 3d56ab53 3c26d4a1 3d43729d be513229 3e15bd6c 3c129a85 bd831746 be5fbfeb 3d9820cd 3d89fa6a bd85a111 bd171d8a 3d592100 3d3372fe 3daccb53 3df5455e bc860517 bb4d5a14 3e096fbc bdf68a45 bca3dc24 3cb63614 bd92aeec be1755a4 3e4cf59a 3e8deeb5 3b942add bd3fb51a 3e452c18 bd750ea3 3daa452c 3e5bcb03 3e538396 be5d7dc6 be92ca8b bd47e707 bcaed777 bddd299e 3df7b312 3e1a4675 bcf1adef 3eff5a0b 3e777044 bd43018b 3d646715 3cb6ec99 bded3178 3f0ca53f 3ca2b30a 3e2f823e 3e480348 bca3417d 3ddc930e be452c2c be0d1638 3eb78cb8 bb1f7d57 bdd19b62 bb85381c 3eb14f34 3c067ad7 bd6d1568 3db710e3 3d27223d bddd022c bdceb5fc bd97be44 bd213af2 3d5a737b bdb5a8e6 3cba462d be1edf9a 3f0e1a3b bcaae15a bdb27226 be4f3cfa 3ebf5a0d bd05693e 3d8661ba bd0a7bed 3b9323bc be2dd010 bdd4d41a 3e61b830 3dc97e5a bdf55825 bda12332 bc3b3643 be20061b 3e2351a6 3dc28b36 be44d55d bb8bc854 bc803ecb bcc7271f 3f30d1b5 bdbe9473 3f014dec 3e855c3d 3d46b8ac be980083 bd45cb86 3d53668c 3cf41338 bd927aa8 3eb5040d 3e4a786e bdf1f91b bdf0005e 3dcdffe8 bd511ad2 beeba811 be17c6b4 3d9d39d9 bbc11e52 bdf7170d 3e2f94bf bd1a805d bdb6b048 bee7c39a bde6184d be59990f 3e4a921a be057c8b bd520bde bd96318b 3c959807 3e00059d bdeb265e bd7305ed bd26f45c be46d399 bd198734 bdb9961b bbfcbd91 bed420c9 bc9dfa31 bc3f43f7 3d97beb9 bdd7dcb7 3f083a49 bd8bf3d2 3d900214 3e18fdb5 3da8a0af be8024d5 bd3920cd be82401f 3ddda167 bccf3f9f bd4c9800 be9baaad 3dbe572c 3de2c7ee 3d897c36 3d9961c2 bc091bb8 be0c872b bd646c00 3e3f06f1 3e02ae93 bcf9eef2 bf1e4dab bd6d5dc4 3e95cc9b bd31d39b 3e1e85ac bc2e4583 3e17b11c be33e3a4 bcd453e8 bd1fa412 bddef2cf 3d334c67 3d1e0a7b 3e4cc7b4 3d08035b bdcc2bbb 3daaf298 3c1679bf bd07276a be8f3bc5 3d030dde 3eed9a5e bbdf4e32 3ddc767d be87f222 be98e2ac 3dbe41e2 bdcb712a 3dcc00e4 3cffc524 3d03c4c7 3dd798da 3d798c37 be87da7f bdeecaf5 be1892bb bd3c84a0 be371f05 3f1265e1 3c7a1ca7 bd5cffa0 be1047fd 3f0b4762 3d8e6e95 3d3dc577 3e21b774 3d831c64 bd3c5dd1 bde1e41c bd94add4 bd34bc1c 3d7cd629 bdff0a9e bd92a485 bebbffb0 3dcd5365 bd05d15f bdb09f93 3dc12231 bde443c1 3cd7fa6f be3cb576 bc165da1 3d1f0bfe 3f0e154d bd910f73 be7bbe2b 3e130948 3d881b29 bcbe4d66 3e85368d bda0a0c9 3edc3f58 bc903e26 be9f15c0 3d72a8f5 3d8f4e91 bf4b7a26 3d8ff72a 3e3c9659 3e024744 bccb1a47 bbca9167 bd85ad7b 3d81f1bf bf18b6ec bb93cbcd be0ac94f bd38bf1b beb1195d 3d3b9bad 3e3b8172 3def8ed1 bd62514a 3baaa9bc 3d0c877b 3e0ab709 be5c2b3b 3d71f4cd 3c9e4079 3e0f2206 be7ae506 bdd73abe bdd0cb75 3ac4ebbd 3e5b5237 3f029951 3d518a22 3eac8549 3dc3ee3b 3e9231ab bdeb8291 3e1fee11 3e3a3c95 3cee33f5 3d7e6d0b bdcbcb97 3e5b363f 3d43bb64 3daeff98 3e16e339 3e48fa16 3e8a021c 3cad0797 3d47e768 3e62c8aa 3c61debe bdd2d325 bf0ee92b bcd4d966 3df9aa84 bc8e5fc2 be7669ba bddbc258 bdcf47c0 bdeb06c1 be5cdc78 3de55457 3d50554c 3e19a243 3dad4b28 3e3ff0f7 3d73717b 3c2f46ef 3ee7814e 3d75ead0 be202800 bd1a557b 3d750409 3ec9142e 3d5f106d be834c47 be7d562e be9dfade 3cb9d02f be1c3a8a 3e74fcfa bddd5611 3bd52617 3da6d503 be5ab6a7 bd8c97f1 be293818 be2c60d3 3c256aae 3e13c2ec 3e93a545 3bb6e385 3daf55eb bd58bb3e 3e376aff 3c46d16c 3ee8753a 3e1c3b31 be7af31a bc6bf2fa be091ff3 3dec9bee bba0d5e9 3d9fe77d 3dc5c6bc be3ef0e6 bd69550c 3d8b93e6 3e9dbcaa be5f930e 3e19d1cc 3dc23266 3c6d9c6c bed0e714 3c977a8f 3e2f34a3 3dafd8c2 bdc065d5 be7dfbd4 be05a54c 3dc0cf0c bc85b1d0 3d7dd916 3e044fae 3e8e2abb 3e0d93f6 3e85fc90 3e326349 bc20b18a bee6be48 bdc468f6 3e67095a 3ddb172c 3e155675 bce5427c 3e277de4 bd3ae75c bdbb58e3 3c86ece7 beeb0b4d 3d1017d8 be9ea52d 3d8057fe badc2cdf 3e128281 bcab7dc9 3bb37990 3df34b5b 3d293bbf bd729225 bd21bf4c 3eb23941 3c29d13b bdb3dd8f 3e6b0a93 3c7aeb06 3d59ee22 3c8640ca 3eaa1988 3d1fd0e6 3e2886c7 3debca70 3db001fc be0c2b71 3ce06eba 3ecbca38 3dcd652e 3dd1ce33 bdacfc0b 3e6ed4d1 3e64a96b 3e7359af bd541f6a be43227b 3e663c05 3be92902 bbf2e9a3 3f027aaf 3e85522e bdd980a5 3d1cc818 3dd445bf 3e36afde bcb36044 3e577be5 3cb5d7f5 bd314bcd 3e2a146c 3de07b00 bbe679e7 3e2cd397 bd29e1be bead8ce1 3f9838f1 3ec4e7a1 3cfd15de bee1222f 3e4dee54 3d34391f 3ceb57c4 3e3018fe 3ef7598d 3dda8243 bf5846c3 bd00367e 3e2d3e29 3d606a7c bd00e06a 3e073d30 3ceddec0 3dae3bd2 3d232b84 3d380803 be83ce2b 3cfafe3c 3d339921 3d006111 3d165143 bef51fd0 3d6f0fd3 3d529ce6 bdcd0083 bde47213 bcd449da be1540b9 be0b173b bd7a0b6b 3e1ffb9e 3d95ddf0 bebf90c9 3d4710bb 3d697545 bc1ab9e8 be9fb050 3e73a1e5 3c2f81f6 beec4cd5 bf229a6f 3e06a9d8 3da83027 3cc462bb 3e39db26 3d80537f 3d9ce807 bece837d 3cbd0c72 be41321a bd187530 bdc7d182 3de40ca3 3ddba7b3 3e95ae04 bf14f993 3d28e0bd 3e5c6bc5 baea5acb bdd5de65 beb5bf12 3dcfdb05 3de0904e bd8d964f bc6a9a25 bdbfeda6 bc07c586 3e03945a beb4895c 3d870cc8 bd8dfb2c bc2e64f3 bdb987fb bc5d7c1c 3e603003 3d81638b 3d5cc85f 3d9f1af2 bd3443b0 3c8e1bd4 beab3502 bbfa63b9 3e213908 3dbb509c beb01111 3df2e2c1 3e0197a0 3d343211 3d1e00c8 be032917 3d2236e1 3da3e0a2 3da29e7b 3d66c4e3 3e39313e 3e55eca7 3e034f0f bc8fe69b 3d015fc4 3dca0238 3d750ec7 bdac02da be9d00e2 be4d62f3 bde8de5d bdba2e43 3e00b0f5 3d946d81 be38e168 bd4daae0 3dc0b397 3d46c6be 3e37b0c8 bf013dc4 3e82d7d8 3d394dbe bd617dbe 3c9f59b2 3e25003d 3b9e2345 bd14a5da be004f44 3e9c4126 3ecd5fc4 3f34e7dd be814af8 3ef0037e 3f237d95 bd671e62 3db8b664 be207589 3e04768e bf0f0ffa 3e4b6dbc 3ddcb084 3d9ddf54 be05602f 3d3e3924 3efdf196 bf2f52c0 be13d724 3dc64552 b9e876e6 bc50324e bf1543ce 3ec3eac4 bee8098f 3ded9bd4 bf0fb0db 3f892d83 3e044ae9 3df96358 be969cfe bf1b0f22 3c5f1215 bea3a133 bf32d95c 3d233efe be8e4734 3f82f22e 3e9bfd7a 3d80d9ab 3e455410 3daeef02 bee59582 3e910f05 3dce6621 3f5cc56b be77928c 3ee9e78d 3d8245bb 3dbb8315 3f425337 3e757084 be00cd78 3c38ff75 bf84fbbf 3f180ffe 3e643b98 bc18e722 bd9a2e44 3ba67e4b bd99a678 be4fb972 3dad4f99 bf090e79 3e4d1ae8 3fa0788c 3e86ad28 be420101 3ea55e2e 3ed9f5da 3d849540 3deebfb4 3e7233e1 3d15bca6 3e3b27ac 3ed5c119 bd7c0130 bc9d9990 bee2ae5c bd19a30b 3f0244c2 bdef2177 be267773 3c069550 3d8a00d4 3d3291cd bddb563a 3dbb15a5 bf3c77bf 3b264f08 be34d82e 3f285d53 