100
subgraph.layer_seq.glp_0.linear1.weight 384  3e9b3483 3da46925 3d83ee21 bf02dbb0 3f3416da 3e8710f5 be978824 be9564fe bf8a1c8e bca69daa bd1d3638 bbdf4736 3ecc49ab be9a82a0 bf995668 3da333f3 3e7b2409 3e2cae92 3f8585a9 bd7dd1f5 3f8ca7e9 3fab523a bf81cd28 3f24e6cb 3f7cac7d bd9e7ef4 3f1615e5 3f38fc59 be5a44a0 bf01887c 3f5aa544 3ee8e338 bfef0325 3e8cd0d0 bf917e70 3e0fba4e 3eba5ab9 3b4a4d9c bf323fcd bee243e4 3ea215d9 3ebbee93 3e9e4136 be94d790 bf8ac5cc bce317f4 3e89c909 bf1cad32 3e77dae5 bd87ea42 bdbd9267 3e6efe67 3f876c21 3d802df0 3d77f3f1 be5128d2 3f037d62 3e7dd275 3f132875 bd42ef2f 3eab7b77 3ef25d93 3e182767 bf4af928 3ed8e9d5 bcb97b1a bee0c342 3e9a9f7c 3fa0a1b4 3f795f5c bf3e821b becb88f2 3f314bfc bed1a57d 3f09657c c0041184 3d56425f beff9b44 3f4868c2 be8a7f1d 3ffeb72e c018ab2e 3d17e772 bed014fd bf8f4690 3b8a28bc bf3d5acc bf03b305 bfc5ca0c 3f163f6c bf401c0c be94331e bf8b2b83 3e8fb022 bd16cf83 bdec8af9 be281a7d 3f9e3855 bed981ed c09290b2 3f11aa02 bf6e522b be348336 bed9d6e3 be61ff42 bf7f6172 3ee25cb2 be48db36 bf3f6fac 3ebc7933 405ef35c 3fd9277e bfa08192 3e471831 3d56d0f3 beb63b94 bf37bd6a bf71184f bdbefc91 3e2ffb6b 3f399467 3d53e0bb 3f30f492 bea12d0a 3f0c591c be66739f be29fa88 befb9880 bfe295fd 3c0b11a2 3efa677e bf58a600 3e463ca0 3d915eb8 3f809d63 3fa35b2c bea168d4 3ceb518e 3eafcadc be83d397 c027d684 bd3747e1 3e78c1a4 3f8e39ab 3ce0b6a4 be925ec5 3eb2c38b bfb8e266 3ec56d87 be94defb 3d75a8ae bd82e8f0 3f3be380 3efe022d 3f594a1d 3cc4db64 3f47dc99 be0f53da 3ff29a60 3e917698 bf119b50 402d5df1 be4d6767 bea57a01 bf96ff5e bd1e834a 3d8771d3 3e698dc3 3ec63ee8 be87d000 3fc9ad95 c005f0c5 3db71e76 bf811c69 3e2c7a42 bec2b9c2 bd5d81cb c076202c 3dd6c6b0 bef0532f becf2ef4 3e9ca654 40313698 bfe90ed5 becb995c bfbcf04c 3e39b04a bee5b901 be2817a5 3ca5cc6a 3da75c9f 3ee16992 3eba41ef be36791a bf2eedb8 bf5782d2 3e9a9846 3efa1f52 be0afc98 3ead600d bf8bb306 3f80b0e3 bec1bec6 bf833095 3d74a0e9 be2ff1d3 c0b857d3 4005faaa bf804414 3f8c8215 3da5029e bee0a2fd bfbc8414 bf56d579 3e6a16a6 3eb4e5f5 3eefdee6 be69c3e5 bf2f8cbd bfb0276f bb9e0ccf 3e719869 3ed274d9 bdce4b73 3f8a5413 40608251 bf92afbb 3f02f311 3ddcae7c be8ab716 bda81db5 3c4c109b 3e12ac5c 3ec5386b bedb9f69 bef0288c 3ec508ff 3f37f6e5 bff68b7c bf4d3d4e 3f931f7b 3ef95be6 bf18ff56 c0105bbc bf4a64d1 be332736 bf2524b0 3e4c5224 bfe9630d be1bd885 bf153f3b bf666cc0 3d20b0cc 3e36e324 bd3abdb9 c05d7e39 bded191a 3eeaea65 3c2d3ffd 3cb56134 3e571528 40011649 3df60dfa 3cf88454 bce0fbb5 be599595 bf121080 bfe36d4b 3f01a821 3e2469ae bf062438 bea4d416 bf81b021 3e414be5 befa5c10 bf488f58 bf354087 3e9f157a c01e3aac 3f79e6f1 bf8af1c6 3e83ba6a 3f8c584f beb84d8c 3f06196b c01c7b88 bed806a8 bf281f19 3c54abad bf696746 3d29c56c 3effc987 bcc62578 bfb5deed 3bdabc8a be9861eb 3f1143c4 be8b3ca7 3e31c67e 3e86f985 bcb603b9 bebe449f bec62073 beb6bb44 3e8cfe8e be471de1 3e22c2a6 bebc191d 3e3ffa34 3fc2d58f 3f0929ba be1140f4 3f3d816a bd951572 bf1a8871 3de44563 3eaeba61 3e916c44 3ea42520 3e698c33 404f01e4 c0065990 3f437b7a 3f184eb2 be88f658 bef6a363 bf88c024 c0ca4b94 3efda229 3e52e769 3e965642 be079ae4 bf31b738 bdb50a68 3ec570ee bf1fa546 3e21a545 be626117 bf65611a bf1ba72b 3e8839b0 3f3c51e7 bda2efdb bf05d763 be742b29 3e61b1f0 3e3e44d7 3ed12cce 3e33274c be684421 3cce2e13 bf4f895a 3deb0759 bf91e4c9 3f190af9 bddf87a1 3d86b7e7 40602a23 bfdf2b6a 3f712b39 bd859613 befd2b55 bf27f60f 3ded5453 3e3163bb bd93501f beb05c69 be9e1cc0 bfbc7f2c 3efb872f 3e1302c7 3ea08322 3ebae8be be9e9083 bf43e7eb bd8a48b6 3eb025bb 3e319cba 3dffbc49 be25f826 be72c3e7 3c9173d4 be4640fe be105895
subgraph.layer_seq.glp_0.linear1.bias 64  3e4b2e00 be1c0e44 be1ca100 bea77163 3e539874 3e3ff2bb be19f34b 3e17e947 bd9bba92 be392804 bf43f805 3b6f283b 3e4eafce 3e324681 bc081803 3de7e4c1 be3c3270 be1ec8a4 be121287 3f5003f0 3e448f26 be21f2aa 3e087130 3d6a9cf1 be357fad be285f04 be3324a7 be246cca 3e37f79d 3e253281 3d83ccea be42d771 be256bc4 3e5c7d24 3dac54eb 3d9325f6 be1bbd63 be10a9a2 3d62c348 3bd60d42 3d205b6a 3e1999f2 bdfbb47f 3ea9da15 be665451 3e12a562 3e336b47 3e36d81f 3e8612b9 be1c1838 be20823d be2ac9ab be4a39f2 be1e4180 3e3d1b1e 3e0d68a9 3e13c275 be23f271 be243b8c beb4bbfb 3e115ee4 3da6c241 be269f28 be1a1826
subgraph.layer_seq.glp_0.linear2.weight 4096  bd774de8 be54bb78 bcbf2d55 3e0af909 be248e2c 3e029d1f be96cb8c be4425e4 bdc469ce be6f1abc bb469fb6 be074af3 be9235a2 be379299 bdb93987 be6bd124 bce700da bea22881 3de907ca 3d3ef451 be2cbe4d bdc5aa6f 3ead25a5 be781cad bbd83c52 be539cf0 bdf2ee6f 3e046cc2 bd50b122 be515934 3e5b9b37 bc4af068 be19cdb8 3e147541 be09cb06 be394295 be936586 3dcef8c1 be147d16 3da863c0 3d6a25c9 3d1bd0e7 be50b40f bc12dfe6 bdd377df bc0c2fe7 3dd5409e be438402 bdc364ea be859f94 bea25e1c be43f3da bda005ae be125b70 3ccda8f5 be835772 bdd69c5f bd479795 be536ca1 bd9d46f9 be130c90 3bac6d34 be855e00 be35214c be93576f be9bd822 3c43d123 3ccc3b30 be65034b 3efc44d5 be1d7dd0 be316e91 be5dd293 be7268c9 3e05ba55 3e879d04 beb81e5d be0b480d bd483d19 3ddf4018 3eb9f8f5 bdb33ac1 3ef1331e 3e6b4ba2 be6856e2 bdfc19a1 3e31c42b bed62e16 beecd0f2 be7f9654 bf11cf78 be396130 bd467d60 bd46cda4 3f64e6cd be987b91 be110957 3f15cd25 bee326eb bc4a5212 be55ef59 bdb6f71f be2955bf 3e6c0acf 3e8d40fb 3f13d51b bf0fd8b8 be5cf626 bf42023c 3e059c87 3e82c6b2 bee5829e 3b15e29d be416f96 be12e6d5 be9bedaa bea93b8c be7e781c 3cd64c14 bdc6d8ab be567337 be327759 be447f2f 3f8630b8 be9cfb2e 3e2a78be be865fe3 bd859ef9 bce028fb bdf0e453 bd940b7c 3f127110 bdf49816 bda77235 be036deb be052975 beaae379 be6c1f61 3cd3b7aa 3d4177bd bcd85940 bd86ebcb 3d145b38 bd0aa8d5 3d2247ca be027172 3f2633d2 3dadbed7 be597528 bdfe9e02 3ddd05c1 3d119f8b be6e7444 be217be8 3d502946 bda59a80 bd945a9c bd05465e 3e89ef7b be31fc41 3d9c1f8b 3e541727 bd6d2798 bddc8fe0 3e07d059 3ee0a81c be5ee234 bbeedfd3 3e69d655 3ec1e6f3 3f0238fe bd7c2082 beb681a7 bdd7d4fe 3edc6700 3e794851 3cdae4ff be7f29a7 be6c2c4e 3d9ecddf be87b26e bed4adf3 3db09ff5 bd649fa5 be331a00 3d70f463 be0fce5c 3f452d1a bd75b784 be4e0265 bdc2d013 be246e27 bf99b32d bdc922fb 3f439f88 400a4720 bd197bef 3f239d6a be8d39ae bc790e6e c0062075 3e674809 bf579666 3ed4718a 3f5dd1aa 3f036343 be672a70 bdb63c3f 3ea45e83 3e03795b 3f0fc4d2 bff42898 bf901713 bdf7c1fd bdd1b431 3e18d296 3e1d3537 bfb681d4 40078125 3e345bb6 bf2d960e bfd63fc7 3f69e5e4 3f3ce74e 3d0405a0 3f375e66 3db37faa be0c8551 be5b2e6c 402def75 3f142d8b c06bbe05 3ff4fa90 bd73e85c 3dd1a342 3e814da1 3d677d57 3e5441bb 3e8b056f 401b6ef7 c02088ec 3e4e34cd 3e7bfa99 3eb21e3f be38b3c4 bef206b1 3fcc9e43 3e9a7aa5 3fb81bc2 3e573fb6 be0b6e82 4014dcdc bdc1b189 3cea13f1 3d3c4d76 3f049518 3d9d6f04 3dc030e4 be0b8bcc 3f7beea2 be63a127 be10a29d bebcec4a be019eb2 be1a94b5 be1301a5 3d20a4d4 3de21d77 3e7f11b6 3e2991c4 3f36ba0d bd5457ae be058afb bdc3cb65 3f11860b 3e410432 3dff5850 bd483cee bf556b8e bf02f196 bdea38aa bcc56f05 3f39a749 bd6d08ea 3ed96048 3e9cad4e 3e79ecbb be09fa17 be820061 3e088338 3c90df3d be86bb53 3ce7ede8 3f8c68bd be0d0bf3 3ed3c97f 3f1a5229 3f23c8cd 3e3c7452 3e20e0f1 bed0bc6e bc47940a 3ec279e5 3f43e889 3e7c830d bea19ab2 be6a1043 befee53e be5210ee 3d7d23b3 be4a7e4e bdaf71ea be59b540 be9d3013 3de76dfa 3feca6bb bd51c07b be76e54b be61b5ee be3fce9d 3e434783 3e087900 3d92fb70 bd27c99b 3e332f8e 3d072421 bd103a88 3e31ee7c 3d820f11 3e76d159 be0aef75 bf639ce8 3e6ff5b0 3e95e030 beb837c8 3ea666f8 be31d383 3e192f5c bf4c1ac6 3ec7fbc0 3dd36240 3e0911df bf529320 3e5c235b 3e4b297b 3c8f4c08 3ef66c2a 3e14f6b1 3f030dec 3e27bb67 c00bfa2a 3e46d9f0 3d80ce9b bfaa7821 3f17ca7f 3e2218ca 3e1bd71e bd5070d4 3da41e39 bbe4eee9 bf5f5348 bf049c89 3d00255e 3f772515 3c4e3502 3b578b2f beeae0b7 bef72f47 bdae1ab8 3db8afa1 3dd5882e bbd979b3 3e29d083 bd8c01d8 be2b44b7 3e2ccde2 3dc9bcc4 3d65c2a4 3d1a747d be0d3f74 3e59efb2 3c56c26a 3d3a37c2 bef1d800 3f0c7b89 bcec0f81 bd8048fa be1a3d51 3f230176 bf1ffb52 3e9db59d be1b6d91 3e93e802 3e7fc6a4 bc91ed5d bf2b9e71 be65ca68 befb396e 3ed34f6e be1178a1 3dfff0dd 3d4aac45 bf02c52e 3ee935b6 3dfaea7e 3c9fd375 bfa60cfc 3e105e50 3e3c87c5 3de68f81 3e52e175 bd74b955 bf1cc435 be98b574 3e1bc36c 3c158f15 3d962a17 be004b99 bec1ac64 be481c85 bb756b86 bf62294f 3d106066 be780438 bf0fe205 be2bd438 bd234a78 bf284f8b 3e24f95a be924b2b beb9c0ab bf285534 bf403bb6 bd9b1457 3db88595 3e73034f 3e869484 3edf6789 3f2901f8 bd67275a 3e6d63a0 be95b305 3de103f6 bf2b5a6c 3e56c844 be3c3c54 3e15b067 3db77d64 3e4cad20 3db6e1e3 3e7f6349 bf3792bb bd83c42b 3bf707ab 3ebc93ce bef09dc6 3ebd1a81 3eac58e3 bb5ec3f5 bf6f0328 bf80712a bf282fbc be5b8cd6 bf18eb5e bf0bfc6d 3e3181fa be54937a be62af70 bf7eb732 be60748b 3fa08fd1 3d57a0a8 bd028acc 3f1fd831 3f37dc69 3ec7308a bf06e5f9 becfc020 bfa3608b 3e8c2bf7 3e82227a be8517ca 3fc67029 3e6bf8d3 3e474d9b bf6e6b28 3e4eebcf beea8305 bfa02d9c bfcfe02d 3ebe8804 3f0a34fa 3e42bf5c bfa07997 be5b50ea c009e99d bf6e0239 be0de38e 3d8a2bb7 3ccdd718 3dfa61d2 ba374e0a bed526ab bedd56e5 bddcbc2d 3ea84174 beb06e16 bf488913 3d84672e be5ed8f4 3d93a0fc bc76d328 3f5572ac bcc1753e 3daa8f22 3fabb68f 3f67785c 3e3a9dde 3f8e1dfd be862ad5 3e028493 3edc2e74 bf020383 3ba05b8a 3e80f0f0 3e9e3edd 3ec2a41a 3e4058c1 3e3ad0c2 bdad7de2 3f12cce0 3f10a665 bb834077 be36b2d6 bf5ae931 3f6a41f1 3f3d48a0 be62fc80 404d35a0 bdcf63bf 3ebc0a80 3e8320f8 3f347ec9 bd301a39 3f83503b 3dd48bc8 4014309d 3e64225b 3f89829d 3fd920a8 3de6fe32 3f4ce548 3fe3111d 3c88974e 3fb2fa8f be58d525 3f379f52 be36a8ed 3eb3e9af 3f3d35bb 3f38304f 3ee6e9ec b9984f87 3d8f5742 3f83265e 3ed6e140 bf177636 3e36d09c 3ea40157 bc8fb1de 3def497f 3e1dfdda be3b7d20 bd536a68 bc2f2802 be659ae4 bd2c3caa bd7a38a4 bdb7b36a bf19619b be44080d bf90fbb8 3cbe8a08 3da86018 bd86bcec 3b459c32 3e6b41b2 be9f39eb bec662a1 bf41810d bee710d4 befb1c3c 3f1cc2e9 3d094aed bf6d412c 3ecdef4a bd120837 3e9f00b2 3ee2cb20 be8bf471 bc452b96 be0f8574 be31ad79 3e1c36ac becfeea9 bd5491d0 befee331 3dfdb818 3e41c95a be595599 bec920fb be8dc51b 3ed02772 c007565e bde06188 bf16a4bf bf94d31f be832b05 3de592f0 beefb3c5 3e2ce2bc be497489 bf06540d bf498365 bef4a918 be91ea28 3e3df0da 3e81324f 3e0ba6e7 bbb2c4e5 3ea70937 3e5512de be25c6ae be0dab33 3d37cbf6 bf907ccd 3dea8826 bdca5534 3e7a911e 3e1cdd44 be7b572a bcfc4c60 bd503ddf bd96cc9d be30c14a 3c73a20e bd9c1c0a be67f40b be7ebb68 be26872c bd14cc77 bd87d984 bdf9530b be8f0a6c be63127e bdee8140 3da3bbf9 be00e937 3c224c46 3e4a2729 bde2b73d be45ad6c 3e9b37e7 bdf7e68b be3ba709 bd2a9610 bd8a2eb3 be8b0e82 bd905ad3 bdeadf3c 3de9d058 bd51cae4 be4cb56d 3d049004 bdb313a0 be195fcb bdf45cbc 3e18d362 be094c77 bdbdcd80 3ddc1ba7 3cc0d88f bd65ce03 bda45d56 be49b491 be8692ec 3d5184c4 be503a8a bd1f6d1f bdb0eb83 be957972 beb03162 be880b56 be19bb76 3d546eb9 be4bb5fa be8bead6 3c034075 beac4d6c 3f2527fc be0c2046 bda61371 be1121f9 bdfb87ba 3e013cbf 3e353eca be247aa6 be9a377d 3ea57345 bf360ecd be95058e 3ebe8e3b 3f100d81 be0d2673 bebae1d1 3d0d99fc 3e43b313 bdd6eee5 bf7a5c8b bd225b32 bf1dd8e1 3c69fefb bf96929f 3ed4b723 3e8f11e2 3decc8ef bf56f35d 3d90ae94 bd133f50 3f407a5d 3ecd64a6 3e69e6e5 bedf1095 bed9f4c6 be9fa077 bd53f1e5 be848ccf 3d8000ba 3f161ba3 be596bba be2e7148 be72348d be0311e0 bf27df65 bf17a4de bfa13310 3c9e23f7 3e96de18 3dd983a1 3c1c12bd bfb851bc bf59d150 be648998 3e806f2c 3ea60cd5 3ebf25f3 be63a97c 3f4b3283 be824ced 3e9325f0 3eea261a be6566ba 3dc6b765 3cd1be78 3dc09b98 3e06e7c9 bde32fae bdbcc0cf 3ecccc43 bddb3409 be097ada be499ff4 be255119 c026617b 3e537b85 3ce64f45 3e8b29d9 3e54df2b 3e321fd2 bec0379c 3d1d496c bdb5bab9 bef5c08a bd63d128 be7c83a9 3e2bbdd8 bf6f5824 3d504a92 3eda11b2 bbbdf35b bf898385 3eab146a 3d8febe7 3decb707 3d4b5443 3df7767a bd9f1cd8 be9da4d3 bf7502fa 3dcd4ae8 3e5b5ebf be3bf3fc bd3c12c6 3c031589 3e7b05dd bfc19b39 be1f8251 becad1aa bf580828 bf0f839c 3e639639 bed37711 3dd225b9 be264199 bf187c4c be6a0a9a bea13f72 bec762f6 3e7afac0 3e022f36 3dab36f2 3e8b17de 3ce0e87c 3dde7c55 3e063b85 bdb247d4 3e0e0e24 be5a81c6 3ec5ea48 bd034a9a bcafdbf1 3e6a0f5a bfa1b3ac bd00339f 3e96e11f bed35cbb bf895ce8 3e968c77 bf0b50c3 bd3414b2 bf0d4299 becdc85b 3f152c43 3fb0bbb3 bf257335 bf53f413 3ef57bfa 3e8934e2 bf768bcf be120ef3 3f42a016 bde73cf2 bf5f086a be3245cd 3edfc96e 3e06e5a6 bf76eb87 becb0db0 3d028c1d 3e3a739d bf346296 be56b9a4 beb3de4d be95f6c9 beb382ff 3ed47946 3f34fe2e beb8b533 bed5d6d5 bfc5c29e 3e71de5b bebf9428 be6f7dba 3e8c7426 bf539205 3e2dedf3 3d719c79 3f1fe53f 3f0c6cb8 3eedc574 bed68ada bebc7419 bdbc1420 3c206f11 bf291c22 bf799739 3f8514ba bf86978d bf5a4f43 be111b64 bf19be77 bf913f7a beb4cf1b bd4f4919 bd66df65 3ec768a4 3da22667 3e2e6c5c 3c9e56fa 3e0c7d32 3e4a5718 3d49a18a be84c04a 3daa4c2a bec2f026 3e6eede1 3ed3cc61 3e6069b7 be404b1b be604a4e 3dbed6ca 3c015de3 3de1de84 3e5b0c5d 3eec0e8a 3d52873e bd87ec7a 3da8cdf3 bf423b83 3f6b0da1 3d2cec77 3dab7b28 3e472a57 3e7709d4 be72564f be6f3353 bef6918f 3dfd48fc bd077bcb 3e8bac84 3dbaf344 3e3a7d4c 3d6cc645 be4bfb70 3ec0d86e be810ddf bd8e4909 3ea79a37 beb0fe8a bf24aee9 3e2ec52b 3e99b625 3ed24a3c 3e62d066 be4f1c42 3e6b516e 3ea1494e 3f1253fa bda0e7e8 be0f9829 3e213720 be2abd1e 3d753fce 3dc45e46 bc321a8a bfaeddb8 3e4f6306 3e9c4d8f bd35745d bd0939fb 3e024eab bce8c3d9 3ddcef8c babd8e2e 3eca2851 becb83f5 baf3c222 3e1e7f07 3d403909 3e82ebea 3de86898 be7280eb 3f0fbd9a 3e1dd285 bf00e5d8 3e4d1fdc be951e23 3d989f0c bf863273 3da968d3 3e2a18e5 3e3f1c9c bf6d92aa 3dee9298 3df89a00 3e7a7675 bcb147ae 3e330d31 3eb350b2 3d54f2d9 be4b214e 3d9e92fe 3e7bde37 beed61b6 be8a9ce0 3e116267 3cadd860 bdab3a28 3dbb4b5e 3ec0825a be918f5c 3e8471dd bdc0dac8 3f356fe1 3e23a765 3e955444 bf37ee6b bc7ad7dd 3ea6f749 3e7c51b2 3d89545f 3e59ffeb 3e653117 3d728683 bf01b655 3e49fa0c 3e7d7103 3de233cf 3e4cc5fb be7af7dd 3e115cd3 3e6b0416 3dc0c1d8 3e875198 bf163859 3e6f99f8 3e4c7d45 3eed285a 3e9680c3 be74ede2 3e0fe4e5 3e0b620e 3d712677 bc27c8f4 3edcadb9 3e028e7f 3d28e4e0 3e05577f 3ea13e69 be1a46a5 3f343efd 3e4aa9d9 3e8d0c76 3ef21403 3c8616aa 3e814367 bd46738a 3eabcea1 bb37eb23 bc456fcf 3f67de95 be06f908 bea2a3de 3df8ec77 bf833903 3cb5c90a 3e19343b bd9fffcc 3f5531ea 3e2eb21b 3e7c92c6 3f34b9d8 3e7b345b 3dfded44 3f43c181 3d119a4d bed3c224 bf34fb84 3e5c5999 be24764e 3edb2615 3f848763 bf21ac20 3e046515 3e336ccb 3e0a023f 3dd4c533 3e195b82 3e1d0a2c 3e10fb55 3e34a2fc 3d51c498 3d64d5a0 3e5adbe4 3dfcaad3 bdcfe3fd 3dff718c bdebfcb3 3e775b62 bc0ff926 3e517dd2 3fe33e3b 3ed28e92 3ed57caa be8ba446 3dc0c87a 3dc3ecc4 3d4665be 3e082f99 3f0e569c 3f22b3e6 3f64adc1 3e093ff4 be892c99 be4e6a6a bd41a4d2 3f0d604e bdc66532 3e7f9fba be01429f bfc48a20 be27cb37 bd7d45ed 3d948661 3f38b466 be12c1ed 3f7ffef7 3e05abcc 3f2d4600 bda27a8f 3dcbcef2 bc1ad311 3f8f409f 3e4493e9 3ddc6876 3ff141e3 3dd7d90d 3f2fc2a7 3fa6c67e 3db42f70 bdcf5e7c 3ed59c4f 3db236bd be9cd5a2 3e819cd6 3f867863 3f1c3229 3e32c0de be43dd6d bea46a76 be13332c 3deea00a bf1dd11a be6f66e3 bcebdcc0 3e515443 bd141920 3f187423 bbc10bc4 3e83275a be85028f 3e019cd8 3dbc9f04 bd357980 3ea63cb3 3f4c47e4 be02faca 3e9d0b93 3d80ba97 bdecf15a beb7c585 3ddae4d0 3c2648cd bcfd12c6 3e3ee469 3e05bc64 be95968a 3e558e60 bc67032b be8863e1 3d868fbd be621ecb 3dc2632e beca94c5 bf1cfce1 be889871 3e1fc550 be70e471 3e9861bc 3e7bbe2a 3e806bab 3ea4e9cf bd9a7e19 be832e4e becd3327 be96d7cf 3e434c5a bdbc36c1 3ead7435 3fbd0a2e be020cbb 3ebeaa38 3f856841 3d5ff199 3ec64537 3d8a5c9a 3e07c85d be32fbed 3c3786c1 3f9bc0d5 3dd83d0a be6f4c1a bdf82490 be797223 3d4330a5 3d31692e be2638ec 3e1be19b bdc83a7e be46c810 bd51182e 3fc63669 be0bd8eb 3eaad9bd bdfae25f 3e8e8947 3dd19314 bcda0a1e 3e9c30fb 3f6ddb02 bc4556e3 3fdf1df3 be5ed756 bea54cbd 3e12e479 be48626a 3dd08478 3f2faf97 be700ba5 3dc69f86 3eb4914c 3f788cde 3dc47d7b be35f972 3f1686f6 bebca02e 3d591556 bde19fd1 bf4a7926 bea2ab35 3cebb3c5 bd6694ba 3f1aa7c1 3d854505 bc61c5af 3d27234d 3f117793 be184714 bd390638 3f5a6029 3e809e6e bde4d935 bdf8bb30 3f5e3c0f 3e0e9c47 3f8e30c0 3fcaa20b 3edad07b bd6ae2e0 bef877f1 bdd1f18d 3e002c90 3ee5d436 3f2350b5 3d8355e6 3e34d4dd be409cc7 bdac2c09 bde3eabb be62d748 be593fba be0c438b be3871ec 3e3dcb07 be16216f 3f422672 3d7a51f2 3bb0299d 3c509cf8 3e8e0d5d bd85a0bf be60e45d bda3e493 3e57d804 3e8007f8 be9c508a 3e2d3c4f 3e2019f6 bde32356 3e5380f9 bc087448 bd8611ff 3e7c297d 3e9ca3d0 bee23d4a 3e29e221 bec8fb06 bcbf6269 3e69ae8b 3e4b5ec4 be37592d 3eb7958d bd143b9c be7578ca 3df6fbd6 be003dd8 3e580940 3dd44db4 3e876ae4 3eaff575 3e6a9c06 3e215fa7 3e77cb55 bef131a4 3d97344c 3e811f37 3ec8b30c 3f95a03a 3e882ada 3efc43b2 bff89b5d bead9a71 3e3a6c7a 3dbb0437 bd806b68 3e2446b1 3f5f8f13 3f8a8184 3e44d4d2 3e8a2b01 bb8b412d bd557489 3e547536 bdacbcfc 3e06613c 3bf8513f 3d79bd80 3dedf345 3df048b6 3fad9eae 3e0e65d5 3dd988e5 3e1b958d bdbeb545 bf919ffe 3d1c6252 bd31afa0 be12fc12 be8f61f1 3df4c657 be77a0f0 bdcb34f2 bee3924a bdcc8bf9 3dbbd469 3eea6e27 be7cf278 be020b30 be7bb996 3e0f4a68 3ec00f3e be57af2c 3eedccf3 3de05df8 be991582 bd547e5d 3e2ed20d 3deae77b 3d81fd50 bea7f639 bec0fb7f bcddcf8a be5b8fb2 be107bab bf1f764d bd091509 3d4383da 3e6ec061 3e82dd52 be9c92c1 be195047 3c0feb07 be34826e bed28d03 3c4a4c36 3dfd0837 bf19806e be2b5dbd 3c322961 3e9e78e6 3edf2d45 bec471c8 bd83d446 be622402 be47267f 3eb5c319 bebda996 be8d5d0d 3e822ce0 be4b0ab1 be6572ab bea15587 bc92bfbe 3ea075e2 be39b6fd 3d9aeda5 be824040 be66a2e6 3eb82121 be86b3f4 bdbc66ee be8b80a7 3e4ff669 bf845367 3ebeef59 bea3d153 3ef093cc 3e8468ea be572cdb be91e4e9 bd19e2af bf1ddca9 be1783ce be9ce185 3e4060fd 3ad98d3d bf4a059e 3e94af3e 3eb96421 be8622fc bfc83fad 3f625cb1 3ec29a95 3f5ca1a4 3f01f001 be2ea29f bf11c429 bed8e129 3e070e64 bcac6018 3e0a40c9 3e43a944 bf007910 3ec0b737 bf3c3f7f bf5bab9c bde73a85 be21c043 bf022608 bed4cf4c be4d8b8a bf0af864 3ed2c775 bd4dea33 be54ce08 bef48012 bf91d28e 3bd7e3ca 3e68b044 3eae4606 be36f9d3 3f214254 3f4edf41 be1c8499 3f13bcb5 be8507e9 bf065db5 bf973046 bd48b39a be309c06 3dfee7fd be10bab7 bbe10e4c 3e37decc 3dca7a1b 3f505a91 3dba86a8 3ee3378c bd943e20 3d85c51c 3dd45d20 3ed819cd 3d750711 3e0ab6bf 3ecdc2da 3f1bc73b 3da26c56 3e888518 bf1cb4df bd615e04 3e1494e2 bebeba70 3c94e67b 3d513bcd bfc4e6fb 3e261039 be9ececc 3e8d0708 3ea16a8c 3dbf5d96 3f2a81b9 3e88de91 bf220ce4 3e2a94bc 3e6138db 3bc5af2a 3eaa7058 3e7670f6 3e56a091 3f4732b3 bd002ece 3e6e18ef 3fa8e70d be86ae26 3d103b32 3e9f39e7 bd8d8df2 3db9ce60 3e922463 3fb7d6de 3e8bf660 3b402574 3e78e7df be2602ed 3e3ae16b be1fe55f be28fc44 3dc1fc82 3e0fd27a 3e5ddb72 3e16d283 3f934359 3e879891 bddc2d4a 3d54db01 3dcceaf3 bf1af2f3 3e863981 3e71fe8a 3e0cdb37 bd590ad5 be14e102 3e34b0cd 3e82cac5 3bc76796 bedb2f7f 3ddec12d 3f7196ad bcc625c5 3e8f508f 3eeed29b 3d14a6a4 3ea7c0c7 3d8b7c02 3f92064e bec28db2 3eb6c97f 3e01e2fe 3e379bb9 bf1a5ecb bdea825e bf7cfd7c bf5ffc05 3d872069 3e87a032 bb0e5a43 3f523b53 3ded4537 3de290fe 3ee1b540 3e1b716c bd8ce521 3ed38c08 3ed28b5d 3e7f9153 3ec5f230 3e2a46f1 3f06fd11 3de87544 3e77eb03 bf2c116a 3ef9fa87 3f0185f7 3edb6426 3dd95aea 3e4d613a 3e60c589 be82adad beefaca2 3da13af8 be3f7969 bea1a6ce bdb8ceb1 3de061d3 be178ffd 3c4d336e 3dc56aad 3d74fcc3 be92da1e 3e348c82 3c8f5b4d 3e9b56a1 3de2b9c8 3f8e7254 bd9683e5 3e3cac7b be652e73 be2fb1aa 3e0b0eaa bdfa9915 3e848405 3e811398 3e1f7261 3f2fd886 3d670dd4 3dd517d9 bdae2e28 bdfead7e 3f0893b2 be96e3f7 3ec68e01 be16f420 bf7fe616 bea9d2d3 bd74482b 3dbd94e1 3ed43867 3ddd60c6 3f697c53 3ec60c4a 3f265404 be262492 be8efad2 3f150749 3eb8721d bac8a11d 3caf1ced 4016ddb5 3da6d0de 3f30b8e8 3f955f27 3f5b93a8 3dc1162f 3ebe3214 3e2e7c57 bd9c6996 3f3c6d4e 3f833e25 3ec028d9 bdc37728 be4fc5dd be583679 be455f5f be199391 bf2cf532 be82e2ce bd2b1268 be06a0a5 bbbcb70c 3fbe3682 be308fda 3e5a90e0 bdfce236 3e0203c3 3e748ba8 3dd4bf0b be45cbd9 bd95698f bd830ef5 bf0ed7bd 3e2ed688 bd340271 bd80f22e 3e230058 bafb8dec bf1649db bd64abd4 be4bb2c8 be1593aa 3e789daa 3ec0c69a bdd07119 bdd0c213 3f22b872 3efa4f7d bdb02ae0 bee856d8 3ecb0504 3eac2179 be9eb967 3ec51639 3e39e954 be3b604b be8a79ff bfdd9fb0 be4a0b7a 3da4a926 becdbf62 3f0a2df2 ba10a4c8 3e6fe9ea bea8eaf2 bdc716ea bea2087e bdd1c358 beacb3e0 bdfa4052 bebe6762 3eb88f0b 3e077e8b bb9ce816 3f01b579 be8cd532 bdd3592d be095c77 3d96623e 3e2e0ef9 3e8bae3d 3d9ce6c9 3e4382b8 bcf45567 3d2e13e8 be5e1cad 3cb67a9d be587579 bd8d2829 3dfcaa23 baaf51c4 bdceb976 bdcbf652 beba1842 3dbe39c1 be4e9028 be3a32ba 3d7f972a be23806d bec26ee0 be60b2a0 3da513f4 bd998266 be921801 becb062e bdf074cb be463ddc 3e37cd92 be2ef554 beacc03f bcd3153f bef8d946 be662087 3f8fbcc8 be9490ef bc48ce60 bee0a118 bf6939cd be0fb395 be4b1a28 bd60a52e be817432 be7b4a06 3d281d52 be0be9c4 bea85897 bdb90373 be0ada88 3f08e825 bec5c35f 3d9fa03a be703786 3d767117 3e9d9476 be7a58b1 3d84703c 3de19e8f bddc0910 bf3fc872 bdb18455 3e2fd8e9 be514660 3e5044c7 3da5a519 3e36e9ae 3d3fabb6 3e65c738 be909a70 bda1bd9c be1471f1 3e8cd8b6 be2eb1e7 bd989f63 be594791 bb4dd374 3e431aa6 bdbd2e89 bdbf5b12 be80b32f beba9948 3e88fb6a be317176 bdab72f5 bdd0607b 3e1d9344 bd7d5ea7 3edc6377 bedb9a82 bd66e53f be51692b 3e051609 bdd39c04 bdf567ee 3f18a806 bd38f57c bddfbf72 be59498e bd7c0bed be048ad6 be8619ea bd0071b3 bf02e25a 3e0b64ff 3d549e47 3e04bdd8 3f49c017 be21af39 be7fa97d 3ef8fbd0 be2ff1de be103150 bb359d7a bebe0f96 be4e455c 3eab8f86 3ceb3d7e 3ee937cc bdeb79d5 3ec84f10 be36412b 3e624810 3ecf9645 3d4e043f be213e08 be2d314e 381401fb be8deda2 bdb877a0 bdacf1bc be4201f1 be3e1dc8 be3e66e6 be910f38 bdd72b2d 3e1c18e6 bdff94c3 3badba0b be937b4f 3e2924f0 bdbde97f be64ac0b 3eaa76b1 3f2d62e0 be56d0f7 bea706d4 be45f47a 3dba89c6 bce57a3b bde9c54f 3d8396f6 3e0ff8e2 3f1595ec 3f2cc742 bd7c49b8 be47f075 be498950 be15a4be 3ba06288 bda28b9c b9854586 bd7cf439 bee27f33 bec1143d bd535f19 be1a6e9a 3ed0e123 be46fa50 3f61388d 3be01189 3e15d94a be8c765f be8708d2 3d8b0dee bdc7bc77 be66dc88 3e5f132a 3fa06b14 3e6d2dc5 3ec93c99 3efda34a 3e8afc97 3c307815 3d6380b9 be597b2e be95d62e 3e7ea9e9 3f427a84 3dd5b95f bdd3e8c1 be8b9fad be288c7f be522167 3bdc6882 bdacbb0d be84f8d5 be8e6b7c be597547 be30b69d 3fbfe45c bdc0ca8c be1bfc31 be793cc0 be8b2020 bec6fb65 3e9fbcea 3e52b37d bc89aea4 3e72a9cc 3f3b6d0c 3eae9d03 3ea2227d be36246a bd58747c bddcd188 3f579690 3eb09b7d 3f18720b 3f0c7b3b 3e14668f 3e82504c 3d9ea3d6 3fffb699 3e1affac bccbd44e 3d922442 3f635013 3cbc3135 3e939168 bd977ea8 be63ece2 3e1b2c78 3f1bbce6 3f4209d0 3f0c7e7e 3e616a3d 3b17bbb9 3efd9e65 3f3372b3 3d980fd6 3e327599 3f29916b 3e70fb52 3e1b20d2 3f464835 3f67830b 3f5be539 3d0643f6 3e9f7327 3c859e54 3fdc2164 3ea4ead3 3ec953c7 bdc97d66 3e3807ad 3e26825d 3e4629f4 be9f084e be0f9c03 3e1d5e6a 3dab4abf 3e2de141 3ea901fa 3f750fb7 3e34dd20 3e4fea69 3d0a7e14 3dc52c8b be7f4278 3e977461 be6b40c0 bcab69fd be79d4f0 3de5f540 be470917 bcbba3ff bea9ec9f be56cc76 3e7e1e50 bcd01d9a 3e23f380 3cd67ef0 3e6c3c13 be3074e5 be7bba8a be0432dd 3d23848c 3d241919 be5b5f4a be0cfb93 3e25e1a9 be7f3a85 bedf2375 be4da297 bebfae45 be8e79d2 bc783cc7 3e763315 be211e00 bd0ddda8 be8baae4 be25b1c2 bdf43da4 bd2fcdf7 be74a108 3e7f1318 bdd0d18e bda759ee 3e626b7c 3bdac7a7 be6a30ed 3e0bf29a be3068fa bd6a21dd 3c819504 3d464687 3c8b55d8 bdcbe41f 3e74b419 bec92874 bebe2188 be811ba9 3ddf83c9 3d0b19e9 bea93671 be0963af be463ae8 3ee7144c be3a5f2f be1c3dcc 3ea1b97a bd109d2b 3e2219e8 bdedee70 3d63cf58 3ed2f366 3f0478cc 3dcdb313 be27f6e0 be24cf3e 3d9cafff bde2b54f 3ca6c270 be4c06ea bea2f046 3e78bb5a 3e165daf 3e13bb4e 3d7014a7 be8e000f bec7aa22 be583716 bdf172e8 bdbf4cd3 be1c0095 be5f7cec be02b052 3dd1e527 3e88ba36 3e7fd76d 3ec53400 be2fb706 bf56a27e be0eaf86 bd82a08d bf7d2cc4 3f1ffa04 be9e001a bdc6a8fc 400df8fa 3d86563a 3edf750c 3f384489 bf365f29 be331238 3dcc81ad be028d4c 3e94b67c bfa9333f bd2be7af bde5fde0 bec4459f bd3af82b be7d09d7 be03867f 3cca4ae0 bed2f777 be003a05 be020725 be45c2e2 be0f3f85 3f238452 bdcaf3ce 3e8e2177 be877f14 3d8b6c7d be89bbeb 3db22747 3e08a178 3e197b10 3e6588bc be6097f5 3dcf2e87 3ea00bf7 bdec743d bd8b40f7 3e3d19bf 3e9148f2 3e429e7b 3e7c0d8c bdcbdeed 3df2d1c6 bef727f1 3e3d47a9 3e6d0d92 3ef3d363 3e0d68b6 3d14f27b bcc681bf 3e9580f1 bd77b22b bc79ea16 3d5ce362 bc5fd2e7 3e8794ae 3e8cef68 bf4b23c9 3e595867 3d23e1b0 be021607 3ed03408 3e46d1db 3e30389f 3e2b0954 3e2576d9 3d47085c 3e1e7f22 3c269b41 be691b7f 3ef2e1a9 3e2524aa 3e3122a0 3e840a43 3e8d5690 3dc6f309 3dfac264 3d8551a0 bcf0e233 3df1ec22 be6fab84 bcfb3d77 3e0704ef 3e0e9569 3e70e506 3d17d3bb 3e547173 3e43e693 3db6da86 3dbd8cd8 3dda3719 beb90d84 bd72a1cc 40210fc5 3f1e9b07 bf042572 3f096340 be6f7315 be6df30d bf2372ee bdb212a9 3dcf48a5 3f0978ba bc0e818d beb62490 3ec59ec8 3ee97cc4 3ddc3a59 be4a8851 3f61fabb 3db4ed02 be5a94c0 be854302 bcb72d24 be7a0bd1 beaf95b6 bf01be06 3e8ae2ca 3e43a580 bc55fc24 be9d4627 3def6e9a be214b98 be40f11e bdd41cde 3f6f554d be162d06 bd8496c2 3fe555d5 bddad9b0 bda772d9 3eb72f68 3eae3dde be5d8533 3f685ad0 bdf81dac 3f804b4a 3f5bc476 bcecb1c5 3e2549c2 be527f61 bb8ff6a4 bd34c160 3b64b9b3 bd397bc8 bf30b70d bb4a1c8b be51b82a beb84b53 be94a487 3f5ad4fc be1792c6 3d926ee1 be08a958 3e33eba1 3f5e2c0b 3e252bf9 bd80d3f5 bf041db2 be58a467 3fd4b345 3e043bd2 3e80bfd3 3e3519ab 3d61d792 bf98f734 be553098 bf4e2343 be08565f 3f09b5a2 be25541e bf30c8fe be4577f2 bc9f56de c06a397e 3eb1e819 bd688ec6 3fb64bae bf05fa84 be814a99 3e9b2f42 bd45602b 3d18b09f 3ec44efb bf0ba6e5 40090112 3dcbff4c be180a61 3fe37ebe 3d3893d7 3e062b05 3e2d7cc2 3e4c45ed 3e898e48 bf879dec 3f3b556f 3ff80cff 3c8fe9dd 406052a1 beeee30e 3e206255 3fe7ca0b 3e9414b6 bed93614 3ca3d411 be3e1689 bec655bc 3de65675 3d179014 bf50d354 be5af09e be5c14f3 3d392286 be5bc83a be8f4cd8 be37c5c4 be87b031 bdac28d0 3e1e091c 3ee283c0 bcec55f4 be33f103 bf4ad59b bd988070 bfbea60e be5bb8b6 bd3b7aad 3f0ccf4e 3e777ca1 bd722762 bf153134 bf440021 bf64ed71 bf2a38aa 3da11714 3e0d7d7c be4d39a8 bfd61250 3e537701 3f07d396 bdd68bee bf8bc6b4 3c820ffd 3ea4b84b 3f7133ae beb9ab71 bdf202f8 bf5530e3 bf92cdb7 3e545500 be111445 bdd040ab bdcb6e62 bf6cb56a be70e659 be1e5b82 beb5420d bdd84125 be6b19eb bff06415 3efc16cb bed993b5 3e1e738b 3e57b4d2 3df03ba7 bf8227ff bf886c21 bf143dc8 be7948d1 be596f8d 3e4d0fe4 3da5ede7 3e5954ba be7e9a97 3e8d272c bd84542d bdab9c5f 3e907b24 bebaa05e bdb0e777 3df47255 3e2475ce 3ed930ca be78adf6 3e02171e be850d3f bec4ff89 befe09e2 bed5224b 3f7d6eec be6d3ef8 3dd15e06 3e0853a1 3d0f7848 3e0a44d3 bf695d55 bebde5be 3efc77e9 3c659c43 3e8b4543 bb97d16f 3f20f7de 3ef5c73d bfdbefb0 be83a757 3f5682b6 3e8a0a74 3f10e9f9 3e6fcf05 bd260a4f bb267a1c be39137a 3ea5533f bf176a42 be770731 3e97823e 3dbd2b2a 3d984bae bd808007 3da4ca31 bf42efeb bdb5dd40 3e5b6f62 bfa28be2 3e9ccbb1 3eab6730 3e5eaeb9 3ef7a417 3e00e2e1 3ed28619 bedbe292 3d29bf52 bd5e698a bcec61ef bdab0e53 3eb0e8e4 3df3cc8f bedc0239 3df3f420 bede3c8f be243d68 bea8fb42 bec7aec1 be56d118 bdd40dca be3edb08 bd913392 3eb2f8b7 bd27980f 3e2f375a 3fcb4d43 bec4d5f9 3f9c0a0a 3f83f8b1 bd308ca1 3f16bac4 3e8b43ae 3e7554ee bf1aa46b bf31f148 bebeb513 be5ce59f 3eb20ac4 3f10a2d8 bef6264d be9ebc16 bee6979a be61dca5 be7cff47 beb9b7a6 3e48b6a8 3e8d5835 3f733844 3fe6e9be 3e0c3c90 bee01190 bef1e80b bdb4ecf1 bd87da3e 3efa19f2 be971828 3fa99820 be4bc3fd 3f891b6c 3f87609b 3d836317 bdf839c9 3fc01dce be17a062 3f89e618 3f5007d5 3ebe9d86 bf0f987f be7d650d bf379205 be71b36b bda0657d bd90ede7 be2a5777 3f7fba2a 3eb8b084 bfec3244 3e1f34b6 bd911812 bddb7f56 beb81af2 3f86a0be be0b39b6 3e3fe094 3da4ac5a bdb0c1b9 bf740aab 3e14c129 3e92aea0 3d465ab0 bc1d790b bcb0d4b7 3d645fe2 3de3f073 bee5e99e be32fe21 3e005d75 3f2abc6e 3dac333a 3e7c6d54 bb1ab9a3 3e8b66f7 3ea03518 3d8170d2 3f4ac995 beb438da bed3e080 3e4d30f7 bd6faf13 bd63288d be55a299 be0df915 be326ed3 3e4a4ffe 3e3dff94 3e679b48 3dbc1f74 3db79cf1 be2d77bb 3cf504e3 3e7c3ad3 3eb22298 3e4efcce 3e632208 3e2dd259 3e2a3f3b be1dd695 3f88138a 3e8b5a51 3e961807 be519ece 3ebe61cc 3f0c9f90 be1a5c45 3d04aecf 3e615565 3d9abcd2 3e841190 bd9a4fa5 bf2371cc bcfc78c3 3d00e76f bd73b07f 3e44c293 3dd2a12e 3dc62c44 3dbd4bd9 3e212b1b 3d4e5a12 3d89c5e6 bf732d22 3e10f110 bd369fd6 3f04b147 3efe6cda 3e2c0e46 bdcb41fd 3ea7d12e bf23f256 bed5d613 3ea47e96 3ea1cddb 3f24cb49 3ea95078 bf7ea19c bdcf3e9e bf1e1168 be85fb6f 3e8eefa6 3e95ae9b bdfb9180 beb537a5 bf93ee51 bea2916e beb261d3 bf072df8 bfbb2e7b 3e3ff404 3f05617d 3eba64f7 bff824b0 3e42e862 be30e236 bf5de2ac bd2a4c87 3d7d45c1 bc787464 3eb2c94c 3daa32d3 3f675a61 bf80cefe bf861c49 bf1d5cf5 3d3f2740 be2d7e4e 3e8d4403 be9fa8c1 3f7f0919 3f5bd66a 3d4996bc 3c9f63fe be91bf67 be28d37b bf3171cd 3f116fea bdd746d3 3d792b12 3e086c7a 3f8b90b8 3f6a42c4 bdbdd310 3dd639c5 bdf1e716 3e5db2a0 3e088c3b be6632d4 3ea5dfb0 be6e7fe9 3edcfc66 be37811f 3e16dd4a 3edb9140 3d77c003 3e203a37 bd31d143 be0cdb36 3eebec4c 3f03d5b9 bec677a0 bdc4835e bd79e863 3e0ac766 bd9df21e 3d8c8371 3c8b8a4f 3e3eb847 bdf95507 3ecbf522 3e954941 3daf6f6a bf307b31 bdf9bc55 3e23e246 3deb8d95 3e918f7f 3e34c5a9 3e471cfc 3d554bd3 be82bd7c 3d023109 3d632254 3e1472b3 be8bad01 3e2fa9e0 beace8f2 3e9b8056 3e7013e3 3f8f817f 3e103c78 be2abbe8 be3a3528 3caf7d5f 3e8d5d67 beb19ce3 3e2333b4 3e151d15 bc0bb0dc 3c545608 bf0f83db 3e6575aa 3ddecb02 be9e7cd3 3e1af656 3ec1b15b 3bf4ac40 bd7b86a3 3e28a02e 3ece698d 3f4b0d85 be3c48da bba59896 bead2df1 bf9710aa 3e3fab2c 3e2edea0 3e3ccb3b 3f1c37ec 3f4f48d8 3f4671b2 3f56ff55 3e1ac359 be86a2f9 3e94231d bed69c8f 3f931238 3da5135c bde748f0 3f404538 3ef32ff1 3e38f3b4 3da76b16 3e419f7d 3f4645dc 3f3b89fc 3e116e95 3df614c7 be16fb84 3f389c31 be4689f1 3e2631cc bd9ad315 3f5bd9e5 bf343fd4 3ece4564 bde12ff3 bfc58d42 3e18ab1d bf838106 3f16175b 3df29879 3cbd5cf8 bf094dc9 3f529cb3 be75dcff be38b797 be986493 bf31735d 3c154559 3e84d704 3e19882b 3ed8343e 3f33b0ab 3f5e266b 3f4f6251 3e7ca709 3e581db0 3e0c38bb c007c5f9 3e4ff22c bdbfc0d3 3e25cc14 3e6d9ec2 bd5ffff3 3d7ff1a9 3e2dab5a 3ed1645c bdb5c4c3 3f07788f bea0b9dd bdd170bc bf2f61a2 bee32231 3e249250 3e484d35 3e314f3e 3d8040c6 3d4e8c65 bde85a8f 3dc27d91 be88e5f9 3cea249a be99fc10 3e17553e 3d847dd1 3deada93 bd8d5b89 3e3da0c6 bc3c02e2 bf09d77f 3cf47706 3d0cac22 3e7bf223 be2e2911 be0b4f3d becdbe91 be586783 be5b2c18 3c3b1d16 beada7c8 3fedbf4a bdef60c4 3e2f22b0 3f0f8a37 bd94f6d6 3e1e994f be0e7725 3edc6da8 3df697ce 3decda04 3f6597b2 3e328731 be3624ce bdfd0c4d be6c082c 3cf6984b bc2c40e7 be0b2c5a 3d95e184 be78b8c7 bdd2bed4 be2b5e0b 3fc597ba be18f1ed 3c3bf5fb be2e09b4 3da84075 bec48e5d be48f332 be8902a0 bef01148 3e93dda7 3e402a12 be44c761 be048d62 beb79f92 3cfb27f0 be2ad118 be947ae3 bd78387b be38f8cd 3f6cdef2 3d4d96d9 be08f302 be474c07 bf33e0fb bcf77de3 3e9f96fd bde214b3 3fb6ca49 3ccebb4a 3c8e002d be5fa9c7 bf40552b bd1603a2 bdfafb77 3ddb4dda 3ee097d6 bdf75365 bdc66c4d be2ec817 bd6b2d2d be081c94 bf1fa970 3fa31af6 bdba5ac2 3dd51807 becf32ff 3eb385e3 bebded38 3f77fbdc 3e618e75 bcaba90c bf60c581 be692321 3e8aaa5e bd32382c 3e00e901 3e774251 bb4e66d0 beab3c78 bed323f3 3e5924db 3e79ca32 be770a20 3d4931a4 3ee4b74a be954d42 3e53036a 3e9a05df 3f1cefc1 be76d165 bd7ce12e be13e616 be4ec816 be0ee7fb 3ea51aa2 bd8f13ec bc0d0a97 bda2a3bf be94ca2c bdde57d2 3ed31205 be231c4c be490e53 be08be8a 3de7199b 3e137187 bdb97e76 3f72673b be408491 be376c24 bcfac034 3dffe851 bec0d8ef be7ef711 be29a559 be2ba03d be39afe0 be9aa048 bd9a781b 3f6f5e9d bdd1bb4b be0d6fc8 3ee6962d 3e130aea bd87db3c bd205f49 bd35f739 bda4b8c9 bdf9c325 3dc45877 3ea6fd19 bd70eef6 3dd16742 bdaebf72 bdf64162 3f542830 be537c08 be380e45 be103bbc 3d024a17 bec91b9b be48deb4 bdd120c8 bd5853e8 be403943 be024ac1 bdd3fdce bdbc4382 3f0ccc9c be527a7d bcc1bfdc be7054f2 bbd9b02f 3ef8a055 3dc2e0ae 3e3a4659 3f9d8a55 3ec0ddac 3eeb95c3 be00af2e 3d2f2f5b 3e8f4bc3 3e4d4d5b bceecb35 3e82c409 3ec4c9ee 3e9b62b3 3f076dec 3ed8c72a be0215b0 3e3fc0d4 3f6389c8 3e5d952f 3eecd971 3e23af44 bf15d865 3e9de670 3d74bca0 3e996c7f 3fe225f8 3d34df8b 3f0c2264 3e444df6 3d9e8414 3df9a67c 3ddd186d bc001af1 40206141 3e9b2438 3e68f55f 3f480bcf 3e4b6294 3f69588a 3fe7f79d 3e9d7d7c 3d35e615 bef33d1b 3e530b0a 3e54647e 3f2ffaa8 3e89284f 3f0bfac2 3ebbb6ec 3e7e1146 bc67ba3d 3e0875ea 3e817bd6 beeb063d 3e77bf65 3e4ef105 3e8e57df 3ea9b719 3f1b30a2 3e5d7bbd 3ddadd1e 3e90c42a be80d981 bdb4b4d9 3e83428f 3e018f5d beb1724a 4044a194 3f6ad158 3e0813e4 bbe9a883 be8d362a 3dd483f6 3e07b8af be2e1054 3f553590 3f2495ba 3b689eb2 3dae7828 3bd52f2d 3e43906d be0eb01e 3bb7222a be081d34 3e4e8bfb 40420048 3db11ef6 3eb5fc3e bd2e5f11 bfb9faf0 3e484bb7 3f657686 3f65c4e9 be14b04d bd0cde3f 3e6f9ef5 bd61c3dc 3e80c1f8 3ce3fb64 3e8e782d bf13126b 3ecb3dcb 3ef093ab bfca63c7 3de5dab4 3e08f933 bf22f0e9 3f14af3b 3e3f6614 bd1172ca 3fc010a1 3f082883 3d42b884 3e122756 3e120d94 3e2355af bd8b1908 3fb83f09 3df56e51 3e238371 3bebec39 3ea885b5 3ccbef4b 3e82f99d 3df36b7e 3de0acf9 3e296b95 bded2224 bd9abd64 be74229c 3ea752b2 bd87873b 3e92ebb6 be94be0d be35a7bf be0f7f24 bdf19d44 bd84cb61 3e8dd4f0 3d949388 3e3c0b12 be97cb09 3e691935 bda101d9 bd858b5d 3ed2368b 3d34ddd9 bce488f7 be3a06eb bf886f3f bea67eef 3b859679 3d4b1132 bd9f0040 be716cc4 3e5d6393 3d7ac0ea 3f127d77 be5d2248 3cb8f7a2 3df31052 3df17a49 be4f92fa bd4aea4a 3f766ede be094f8e bc056e0e 3f9f2819 3d2c8a54 bdfd1d2a 3e9a3e86 be42b978 be903d46 3eba33b0 3f7a294e 3d0ec69e be7ad69d bd90e3c3 bec2563f be66c6fc bd086fa5 bdeacd76 bdf5be0e be7296da be8a63b0 be83965b 3f9973bb bd85c482 3e0b60e6 bdc58340 3d354777 3cfbeb54 3d9e5f71 3e461ca8 3f8314ea 3ead293f 3ddb8740 be08eac8 3c732f94 be336fc6 bd3dd1e6 3ca570d3 3e7f4fd7 3ea24818 3f0ccd70 3e6356ed 3dc9afc2 bd3dd805 be19c0d3 3ed0ce8b be660652 3e21b75c bd8cb9c8 bf6e46e8 3e82f443 be0e24f9 be247c31 3f2383f4 3d5283ef 3f37fbaa 3dfe5b1a 3e44540e bd8b1c45 be3ef61a 3dd65575 3ec80b27 3e759b39 be434853 3f681332 3dd13433 3f3bf76f 3f86437b 3e5d3cc3 be1c7885 3f204e3d 3d1d2d92 3e8d56c5 3e2d98ac 3f56fe28 3f0c3584 3d66160c bdf5bc6d be46c827 bdefd35b 3e3873db becc8246 be7dd8d0 bdf563a7 3e9bbc15 bcfb3c76 3f8b506a bd4d63bf 3d293664 be28dbfd 3db64740 bf5b8c7a 3d0e36a5 bcba4984 3f297e6c becaebaa 3f2cd352 bf0e1cf9 3dd38db0 be7a874d bf57fa27 3f1622b8 3f4e948f 3e845c03 3eb3be02 3e84af49 3ecb8c3a bfb79ecb bd357b06 3f327ee5 3e673c01 becbdd08 3e0a5145 bfb4e1fc be944490 bf4769c6 be120873 bcc953b1 3e90067a bddd6ea8 3e261713 befda2ed 3e79168d bf932bc5 ba404268 3f89cd07 bc867e02 bf05375d 3e1e80b6 3e2cb0d1 3e92396b 3e14eb9c bd693701 c01d63c4 3f678ca4 bf185d50 3f1c4e2d 3f07bb39 3e2aafc1 bdae4bdf 3dd344a0 3e698c07 bed7cf12 bf8f812f bed7f15e 3f5f5692 bd89dc81 3e4416c7 bc9877e4 bf166796 be508d6a 3c871cae 3e90a70a 3dcf6d83 3eca0129 be03a3e1 be991e0b be694484 3d809ecf be74414e 3f7408ae bc29e4ff be2522bf be9f04a0 bd38aa09 3b189b82 be2e97c4 be56f971 be16b48e bde4f0a9 bd6f2ac4 bdcac0a0 bdaa21cb befcc235 bd1a96a7 be33c912 bdb21ab7 3e3b462c bec2eccc be256d52 bd475ace be31c5b2 bd8a4f21 3b982316 bbd4a4b1 bf5085e3 bd6d8006 bd8d8fc9 be9fbd00 bd8dd4ec be788794 bdbbc6a4 bcdd89fe be78c192 bd981454 bbc84857 bd7a3f11 be75982a 3d0b41dc be905e28 be238c6c be80544d be4f2e96 bd9dcb59 be45cf3d be2d97ea bdad91a6 be058b52 bdc6b7dc 3dba5da8 bcec525a be1a7b0f be1d294b be3c92da 3c8d2499 be74387f be2afe98 bd4bb1ee bd94a5fd be3a0af2 be8d677c 3d5dfda3 3e5542ea 3f0eca8e 3cb08481 3e0e57d1 3da1fb7a bdbb8270 3dc2bd85 3ed05989 3e00264a bf081783 bef569e0 3db99733 be210841 3ea1897b 3e054140 3e373049 bd804e59 3e72e38f 3e6f7a7a be9b1681 3e813a68 be1729ff 3e2f0301 3ee8b1b3 bddcb6d3 bf872296 bf101e31 bd2083b9 3d404d4e 3e0f7e70 3e2fe4f9 be2de89b 3dec5aba 3e559ca7 be533ae6 3e648aed 3e47deee 3e7caff9 3e5b2704 3e80f4ad bf017771 3e2a346c bd935f40 3eff2a9b 3d392c10 becfbf8e 3ece4e25 3e73e9c4 3dd9fc8a 3e14d8ea 3e1cdf82 be355ef8 3e720738 3e5bb188 3e30bd36 bdbf0f57 beae41c7 3e40ce6c bde6af1c 3e0b8553 be621387 3f0b6574 3e7f5d83 3e107cf3 3f0e32df 3f0f2966 3f20d9cb 3f41f28f 3c0fcd7e 3f43e884 3e9ec74a 3f8667d0 3f4e0803 3e9c2312 bc853e89 3fb7f441 3d8bf0f2 3e2ca467 3ee393ad 3f752fc4 3e5306cf 3ef94d9c 3e7bcde6 3f4717d2 3d1d90be 3e677e72 3e47c0d4 3f2b8cc6 bc71ff0b bddd8749 be2ee45c bdcaae33 3e1d7f2f 3e1f2e3b 3f0c5c5a 3f015879 be006f54 3e16bcc6 3f789a7d 3d8f679e 3f865bde 3f34ea5b 3effafdf 3f5300f3 3f28cdd0 3e1687d3 3e7d7d34 3f64c246 3ea454f6 3e54e71d 3e9d6a5c 3ead7f84 bdc8a75a 3ef28f0c 3f34db12 3e8d23b4 bedefbe5 3e839f0e 3e07b69f 3e9d6f57 3f53d92d 3ebaa690 3d7f0029 3d286724 3dc710e6 be2cda98 3d9dc956 be8ca7ae 3e9ec1aa bd1adbf0 be260441 be8090a0 be50f899 be0e9b43 bbc45c19 3c5009a8 3c00b651 3e388129 3e81b07d 3e27e545 bdab1172 bcafcd08 bd8aa28d bd6d898e 3ca74776 bdc498a8 bedcd984 bdbe1615 3eade4a8 bd368bc6 3dced30f bda5cd6b be5580ef 3f4ad103 3e6188ad bdcb35a2 be41906d be321600 bd8a9c40 be016f56 bd94b11d be57417a 3f3657af be07b7dc 3f07ca16 3e3ae31c be147513 be33dd82 3e399381 be1a6470 be44506f 3e087da7 3d9e4386 3dcf901f be76b2a8 be5e7714 bc9fa153 bdb0b3a5 bd923f6c be4e1da0 bee70c9b be35aeff be50fb48 bd15eae8 4017cf66 bdf022f3 be33dc97 bea04cf9 be2cb869 b8e9697b be21056e 3e717e64 3f70caa8 3f7aea60 3df579d0 bcfd2f09 3c12fc96 bdca2306 be86692c bd92b1ca 3f2209de 3ece8b80 3f29ce69 bcbe1ebc 3e47e802 bd06e398 bdc77e0d 3f328cb8 bd8ca985 be38593f bdeefe44 bf61208a bed19e5e be19cc23 be6e38d5 3d89f5f7 3e3cc832 3f16de0b bd5606da 3f0feb29 be60c0d9 bd122960 3f1c6a43 bc7318e3 be7cdedb be0497dd 3fd24012 3e05d510 3f120a3d 3f3e1a91 3f100055 bd66ebf3 3e9d65b5 bdeb709c 3e16213b 3ed52cb4 3f1d4a04 3c9c26a4 3e1c165c be553657 bea8d0ed bdcdcfb0 be4fc396 bd282425 bdf62bbb bec8ebdd be8a3a50 be17bf12 3fa40bf5 bded3366 3e2637e1 be35ad6b 3d96032d 3e9801a2 3e180c2c 3e76bb86 3d05d047 bbc06955 bd69a313 3ec721a3 3c6d2673 3efea42f bc83f88b 3f0691b3 3e33c16d 3e145b96 3d382799 3e6b39fc be42b15f 3fa65eef 3e5c0157 3e28312c 3ecd778f 3e505329 3dff934f 3f3b9d31 bf102948 bdb8db4a 3d645610 bdd019c6 3d023cc1 be1e4dc2 3e602c06 be29284d 3e5ccef2 3ee52e5c 3f01508e bf6a208a 3e0c2faa 3d685836 bf296783 3d459a7a be2db3e1 3f3f6760 3f0110c0 3f5cda0b bf5d5f4e be5c937b bdad1a19 3f0ea477 be0ebb12 bfc21df7 3cfcc4b5 3dcb1294 bee3440e 3df2b9aa 3f3d61fa 3f47b1ed be2c6492 3e1b8377 3e118a22 bc84afb2 bfda7b72 3d86c662 bd679929 3e5320a8 bddb6ec7 bfa10d3a 3f0607b4 be28eed3 bee93482 bf9a3243 bd00fe6c be24d2dc be0964eb bfcfd456 bf46500a 3ea8f786 3f1a9a87 be17fc29 3f3d16cf 3d0b98b0 bd38d10c 3fa5f55e be1a1125 3f2d1ac5 bd9cb912 bf3e84cd be8efea1 bda3bf54 be7d5730 3e1973fa bfa1baec bf84aad6 bceed29f 3e838605 3f26caa0 3f62e597 be38fcf2 bc8d5574 3e9e35b0 bea6a08a 3e0b443b 3d2c530f bec73b1c bd999fe0 bf79abd1 be1eba71 3ee45294 3f172d47 beed00ba bda6c556 3f02fd3d 3eea781b 3caea109 bec86066 3d57cd8d be408200 be2ff224 becc7380 bf96a527 3f1dd28b 3def7b22 bed95698 bd9fb341 bdae1953 bd650281 be0384a4 3e876fcd bef9c63d be70dd18 3dc32c13 3eb8c3f0 3e906238 3d8ec04d 3e3c2aee 3e3456b2 3ef6d2b0 3e611c61 3e1101c4 3ef30af4 3e03915e 3f1c4a31 bd1ac2ad bea17f6a 3e99d3f3 3dc50207 3ebeedee 3e425e46 3ecfd337 3e7fc54a bd95ef23 3e18e7b0 bb61582a bd941072 3d3955c1 bbfaf32a 3f1ec43f 3e5c6812 bf2401a5 bec0eb7a be505edb 3cff53b3 bab9b8c0 3e8acd57 bd9a4170 3e392ba7 3ebf60ed beb0de57 3b0b6720 be638b7b 3e0686d5 3e623021 3f468288 bf200e47 3e138975 3e0bbb83 3f0affe5 be6942d5 bea485ed 3e19049f 3e9991ce 3e54cba8 3d8fa1c1 bc6778d2 3e658e4e 3cd94e4f 3df8f5cd 3d49f459 bce5d43c bf915e01 3dfbb502 3dccc1ea 3cdc250a 3e8768ed 3f11af82 3e82cb98 3e866299 bd1e3977 3e81a869 be2263dc 3e461d0e 3e1388a1 3ea4ebce 3eb88a1d 3db9883b be73cbf0 3e9d0d5d 3e55c10b bd9112a0 be6c6b79 befda95c 3cfc5cf0 be9f8b1c bd111f69 3ec73be9 3e068180 bf6c537d 3dffe9e8 3e04c71e 3e6fa9a5 bf9f5ad5 be189f8d 3efc245e 3d814876 bec8e8b9 3c3176be bd1821b0 be090068 bcaecd5d 3e8a3fcb 3e2c7ed0 bf12330b 3e61737d bd63daf9 beacd918 be8b16b2 3e6e9d0c 3f41ef4e 3d4deb20 3da1b753 be70fdd1 be777959 3cf40a0a 3e62c4b3 3ddbd069 3e7f0692 3ea0b99d 3ec984c6 bed55a55 3e47416c 3ecca9dd 3e2f642a 3ec2d73c 3eb02a9f 3d9838b3 3dd94db1 3e00976d 3eed49b9 bf1d430c 3e1b32a5 3e0e3708 3e04073b 3d942f6f 3de41a16 3e4ecf29 3dfdaf82 beda4b64 be1f3aba bde5e180 3fcc0ae7 3f3cf400 3f64656b 3f624016 beadcd2c 3ef3e390 3e84aa96 3ffddbd3 3e25208a bf13a8e4 3d5ed939 3f59b3dc bd8241f5 3e1b7672 bea230af be8cc0ff bdbd4101 3f6f752d 3f94caba 3f934ecc 3e61ef1e 3e5b379e 3f07f271 3e7c32b7 3e18ad8c 3e430363 3f8083ed 3e281ef4 3f6d7ed4 3fb8e575 3f5b6492 3f27e912 be03d3b2 3e6b76ce be0608dc 3fc750bf 3e0ba05f 3f564594 3e926a36 3e0ce299 3e77613a be3653bd bf14e6fb bd6097f2 3c7af18d 3e073869 3e89d643 3f06b469 3f64dfe8 3e35f5d0 be331cc5 3dfb9fdd bdfc2f2d bedbdac6 bcc866e7 bea2cfaa 3f2ef59b bc027410 beb6433e bc99d15e be1e0cdd bdd92936 bee33dc1 3f1cd242 3ca0b923 bed87909 bea62e1a 3e9b455d bdd64cd2 3d959141 3c957278 3f13153e be4880ce bf19749b beb8fa41 3e8c14d1 3e89749c 3e34059d be442715 3ee5b493 be2619b8 be97ccd8 be3e2f0d 3e9a845f be02f3b6 3e591a92 bdef2d39 3c9806b3 3e1989b1 be4dbb91 3d3cf8e7 bd3d9400 3d33de71 3f1fca70 3e189d7a 3d85a095 bf12eb4c 3e5f4577 bd166f53 3ec08935 3db5d1b9 3daff5ae be5ae3fb bde2e390 3e02d005 bdf9e0ec bec9b8af 3d03ce00 bd9bf074 bd5d6bf6 3ca8d46e be61d434 3e928318 be702f73 3d73713c bb4c9639 be26a91e bf26e9c3 3db2d1cc 3e1ed028 3e79e4dd 3e6f2846 bceef913 3e19dbb1 3e595caa be92eb2f be3523da 3d940eac 3e85c8a5 3e86ec0a 3db17d4a 3d6f15d8 3e5775a1 beb9c172 3e00372d 3dfef812 3e8bbf09 be4f25af 3df5ef58 be0dacb0 3e40733c bf347aea 3c9cae74 3e14b170 3d7ca7a0 3e77ce0f 3e646abc bf6c65bb 3e61bede bdbf9783 3e36acf0 3ebc9350 3e09bbed 3e421776 3df8d07b 3e3f17f9 3d7d0a58 3bddcdb3 be1e3b0d be100615 3ee4c551 be365772 3e4bad7e bd41437c 3d0b7e0d 3e2046f5 3c046521 3e1113d1 3e75c0ff 3de82d64 be4e26c3 3e3a7aac 3d28463d 3e033d09 3e15c246 3db14d51 3ece8c42 3e6e3966 3e53989c 3dbda2d0 3d7caed5 3ed3e2be 3e5f7688 bef799e4 3ee4b415 3d982eb5 bde116aa 3c14ee85 be32dce4 3d5d0b8a 3d7d80b6 be84c0f0 3c5d25d3 3f0e3465 3e935bc7 3ef21371 3ca1ae30 bf0d8253 3ec5d04f 3df35a04 3ee4ae04 3e955e69 bd197915 bfa2ce8b 3ed6dc01 3d1f54f9 bef3257f 40838c05 3e8a9966 3d106b3b bc7df94c bf699940 be4bd02f 3e81cab4 bcb6b001 3fabc721 3d29967a 3ef20e46 3e5b042b bd915e24 3e388e64 3f879276 3dd91e51 3e72dbfa 3d2a056e 3e86749a 3db93f5f 3e1be7db 3f8fa827 3f0cb869 bd8fca01 3e84959f 3e6501fb 3e9828e3 3e335f32 3dfb3670 3e575374 3eb7380b 3cea6d7d be9e8dd5 3dfb4cc7 be7ccd37 3e4f6c63 3d880412 3e8493f2
subgraph.layer_seq.glp_0.linear2.bias 64  bd9b234c bdd0b259 bd05febd 3e4d94d5 3e0cc272 bd08ae31 3dd9c084 be25032d 3f5bed0d be450f31 bda5ed32 becbed11 bd77e586 bd97b3a4 bb2a0450 3d245ddf 3def9401 3eb5626a 3e0f5b93 3dc0d511 3da89823 3bdb6077 bd8e8467 3e8e1a9e 3e5cfc6d 3e88364c be9a8f8a 3cd6681d bdc99b36 3ddbd015 3e14f262 bd356354 bdfa44a8 3dc98073 3dacbfe8 bda26c67 bdd94ff8 3d9d8fb5 bd86fe53 bd1fe18e bd9976ad 3adff5da 3e53c6a2 3d1b31cd 3d95dd7c bda7989e 3e903ad1 3d823f3a bcc81fa0 3e2ed299 be715800 be02dbc2 3dc18ab8 3ee9b5b6 3bd264dc bd874fa6 3e20e280 3c88d8b9 be0bf4c0 3ce3ed8b 3eb3ae3d 3d49aa5c 3d11dedc 3f0fef95
subgraph.layer_seq.glp_0.norm1.weight 64  3eec6c52 bd47ab4e 3e9692b6 3fad04f3 3f955018 3fa1e84b 3ec18f72 3e421173 3f0dea6c 3e9d686d 3f93cafc 3f3e17f6 3f3bfdc1 3f966b31 3f8bdfc8 3dc4560c 3f91c2c5 3e4d91f4 3f91f1b3 3fc0d6fc 3ec3e934 3e6f5bf3 3fce9231 3eb284e4 3ecbe194 3f54f81c 3f99653d 3dc79ab7 3fa9e873 3f9d84cc 3fc9b5de 3e579395 3e939bd5 3f222839 3f42f44f 3e1e3542 3e554133 401943bb 3e134ee7 3f9e437f 3fdc4910 3f2ebefd 3f260e89 40101249 3f083c81 3ecdfc29 3f6085f7 3fbf81f1 3f5401a4 3e6e327e 3e8b07d4 3e617774 3ea26060 3ef820e6 400d57f1 3e7dbf17 3ead1f56 3e667416 3f10fe75 4000b7d8 3e38ab2d 3dc97dee 3e8275ae 3e6eafd9
subgraph.layer_seq.glp_0.norm1.bias 64  bdc71dce be86746b be861ec5 3ea16683 be06b0e0 3e5bbcc5 be97584e be63dd0f bed6ae52 bec5bf70 3cb99dea bd878ff4 be47a7b8 bd23c708 3db51b8e bf374aff be185268 be9d4653 3e7625ad beafcfc3 be6842c7 beb9d988 3eabe4a4 be6f089d bea2fa7d bf0a238a 3e9ca592 bea1aa24 be1a0ac0 bd9cf92a 3d0eba7e be76fd6f be988674 3e70d080 be94f523 be7597e7 bea232ea 3edc62b0 be9e769b bdca2bc5 3e496b31 be0b6766 be20e4b9 3d16a2cb bec49a1e be8c2120 3de6add6 3e2074bf bbfcd73c be7ee005 be872158 beca22b6 beab1b82 bea3109f 3db8258a bed0ae67 be8380b3 bece3e9f be401e1d 3e5562f0 be9ffcdc be9891a3 be977fc3 be7dafbc
subgraph.layer_seq.glp_0.norm2.weight 64  3f2a5ffe 3f83e577 3ecf5995 3f977bc1 3e985221 3db0073b 3f645749 3f644fe1 3d04fedc 3f9ec886 3f2a5fc2 3e5f6bcb 3f130824 3f2ebbe8 3ea7021a 3f028868 3f828f4c 3e0721f8 3e9e31d4 3e97113a 3ef28d93 3f58ff0f 3f8a0070 3d0105d0 3f80f474 3eb8ce4b 3f0034d0 3f6736bd 3f3595d7 3ef98a42 bf869502 3eba320b 3eb553f9 3db6e592 3fd25074 3f8d0bf1 3fec3a0f 3ed57391 bf01e027 3e78f1b1 3fae2d02 3eaeac7a 3f765560 3ecba1da 3f24f4df 3ebf0ed2 bce8a09c 3fd6b3ee 3ea0c000 3e7308ed 3e3469f6 3ee6ed64 3e495748 3f36329b 3eba228c 3e84083d 3f663f59 3fde4ffb 3ef01a11 3eabc966 bfb85c97 bd70b07d 3e9bab74 3dc23c17
subgraph.layer_seq.glp_0.norm2.bias 64  be1def7f be54b72d be9954e9 be072c1d be792424 bd754e17 3e34149c be7c2a5e beb03024 bc8cb73b be1deff7 bd3301f4 3dad639b bdf7dcd2 bdde5caf 3c882245 bd99cfa2 be963850 bef5bd16 be8e8fbc bdc693ab be9546e7 bd510b07 bdd2f154 bd56fb57 bef48fdb bd5aea43 bebd33f2 beb862f2 beea6239 bd5737e1 be25d10c be1e09fd 3e184120 3d3a70b8 bea6dba8 be3d9d05 3b9f8f36 befe1d44 be33189b bea8aa62 3e6a70f4 3f05aa0d be8d4de6 3e4453b2 bd89ec05 be94a071 bd23a68c be5b0d88 be6dd83c 3d4e243d be8bdd34 3cd73770 3ec77c6c bf13683f be907097 3d5e968a bcf0d1d6 bd5cb8b7 3e48dc8a 3d14dc8e bda12831 ba09e520 be8b4ab4
subgraph.layer_seq.glp_0.shortcut.0.weight 384  3eacd171 3dd88c5e 40076c68 400b1fe7 bd68624e 3e58f8c8 3e89f155 3e0c4416 bf57544c 405f4072 bfa7b1ab 3e2ba2df 3eddead8 3c38047b 400f7070 3f7a8695 bf3f7e2a 3eede103 3d460952 3e869582 40796474 40c88cb6 bf96645f bf80f7eb 3f0f2595 3d784292 40104b2a 3fca7ae8 bf676415 3fc20b93 bdb95f68 3d777148 3df8bb1b 3ec66216 3f39d78c bd219ca1 3e6f11e7 3d84c75d 3f303d54 3f70737f 3f205be8 3debacce bf179814 3e05027e c0d74b89 3fed8127 3ea194d6 be07ee61 3f369ac3 3d885b56 401995a2 40394c86 bf823d2c 3fb41ed6 3dd3dae9 bd002852 bfb5d38f bf1d9f9d be99c3bf 3eddf242 3e84d224 3d38c0b3 3f12ddde 3fb55e19 bf5d45d3 3f16c264 3d8aa6a1 3e2764c5 c002ebbe 405e0773 3f9efadf bdeb4939 3e296c7a bdbd8fe3 bfe7e6ec bfad6ce8 3e209303 3f09b0b6 bf019a15 be13a674 3f1aecac c0136150 bfc869e7 be2e967b be293fcc bdd9254b bf88f372 c03ae08d 3f4eece3 3f2b7687 3f0468bd 3dcdd8e1 bfd6b32c 40585d66 3b3671e2 bf9bc41a bdeb470b be15fc81 bf54451e c0624677 3eb0f32c 3f99e9ba 3e1dd0f6 3cd7d9f9 bdb2344f 3f89b4d7 bf0caa73 3e9a893d 3f016837 3de2d887 3f84e83a 408907ab bf85bd29 bea2bdc4 3df199ce bc320391 3ececb85 bd5e1b8d bdea4441 3dab343d be33026e bc23756f c000abaa 3f0dca0c bddf0349 3f28f165 3f18a620 3c9f9f93 3fcecf6e 3f93cdda bfb2351f 40119165 3df5cba2 3e0481ea bf2af4c6 3fd436e6 3f7c4fd2 3f47a90b bf24e730 bd92ea2f bf4b1a84 bf3b26cd bf3f6ca7 3e2bb05e bf04e448 3cca49ba c0764b4f 3f4711c4 bf63ef5a be77a89c 3ec76749 3d989752 3f17dc9f 4029dea9 bf417c06 3e693f7e 3e96df71 bdf37259 3ff51105 bff12b70 bd7de4dd 3f07e321 3f6b44e0 3cda7860 403afa7f 3f720faa bf4bae70 4015f5bb 3f1ebe1a 3e3c2c38 3f9591a7 40affbea bf2c5689 bf47b3a9 3dd2c86c 3cabe7f2 3ea598b6 3f3d327e bf0f0398 3de8c0af 3c9a1342 3dcc2542 3f6c8539 3faef1b7 3f2bf710 b9c749e4 3e7d3ab7 3c641c64 3f0499a6 3f8e792e bf443141 3e67ae7f 3d166b9b 3c327d22 bf537de0 3e8fa074 bf52177e c014c786 3e8b4613 be9f13f7 3f5f592f c088b52f c006d057 3f4f2db3 bed8b933 3e17011f c00f72e9 3fabab3b 3eb572c4 bf5191b5 becfd69f bcb59dc4 c08cb522 bf821886 beadec06 c011ab4f 3f32a81f 3e218d3f 4021caa0 4054528c bd790d01 3f0e0e8b befd0eb8 bdf07937 4098bf2b bfecee75 be6c0777 3f7aaee5 3ea79287 bea3631c bebaedfb 409ab1f3 bf3b647a be1862b7 befb27d8 be069404 c0a18f40 bfc5d3ef c01515a1 3f617a67 3ee1903e bd435413 3ffc6674 be6e43ef bee76040 c018db74 3d90b40c 3d38382a 3fb0be0b 3ee7dc10 39489811 be7c814c 3fbba352 bd6c52f3 3fc03053 c08cf966 3f8daa87 3ebdd5e2 becaf89b bd73b4a2 c0c0a5b5 bf01b7fc bf17eccf bfbfb05a 3d167b1d 3e52ed38 c023df7d 404975b0 bde4faf8 bf5d6e8c be0675cb bcb20e81 c071c49f 3e9a4ca6 bf685e87 3d51dbb0 3f7e87ce bdbe4c82 c081ce12 bf0a2f09 bf01d324 3e9ee1fd bec6541c bc8b1a6c 3f983148 bf53d9ca be026e5e be620b34 3e1f5dfe 3d6d9e23 3f1adf05 3fbec291 bf208ff7 3da0f44d 3f2a9501 3daa1b53 4040995f 40102248 befecf71 3fa2c1d6 bdf8ffb9 be8b7d00 3ec2c7ac c02c3563 bf828458 bcf31a54 beafdf01 bdb3ba6c c0125aa6 bf837596 bf5e4e4e bf41e3ea be9197f6 3d04b17b 3f91cae0 c00dc6af 3f531113 3ec35635 3eed3c74 bc8aa287 be9d815b 407836ac bf2abee6 be522481 3e1e3dd5 3e097f6e 3f00b2dc 40318a4d bf20aed5 bf1333eb 3e7dc848 be0a83fd bf2d3ae9 c0038d1e bece1990 3eef3f29 3f3b7098 be35e993 40c56389 c0863e9f 3dbfc3d5 bd34e921 3f1da6e7 3e0c857a 400937df 40b5eaa0 bfbbd79c 3f36e1eb 3d109af4 3d32ef1e 3e86b691 3ea62607 3e71bf4b 3f7d606f 3db26514 3d71d247 401806f6 3f135b38 3f1fb8da 3e81616d bea7ec84 bbf9d65b c039a192 bf3790fe 3f785002 bcf4713b bf89ca1c bd8304d5 400cf65f be85fc36 be86c42d 3f5d4998 3e8e89c7 be45897d be0967d4 bfddd729 bfeb12b6 3f9b6831 bec35bb7 be580113 3efbdc7d c08334dc bdd419a8 bc7dd798
subgraph.layer_seq.glp_0.shortcut.0.bias 64  be47c776 3e95c0e6 bf0abe71 bf273be3 3e8f7dab 3f1034aa bf080869 3f7117a3 3fa0ae72 3e33a25f be137f29 3f9ac326 4004195c bf9ae1af becc70e1 3fba4e70 bf07fc40 3fc33120 3fedd002 be23433a 3f939f2e bd04784e be6fd73c bf2768d8 3e5c3bf6 3fad3ed1 befd9acc 3d9432a4 3f4b03f4 bde7b8cc 3e7f0f1c bf2153d9 40800d9c 3ed492fe bf0d3b17 3fe90bc5 3e557212 be8ec9e2 bf473eaa 3f2f46f8 3fff32b2 3fc14201 bffaa854 bf051cf0 4006de9b bea28bce bd9070b1 3f1552af bda0574f 3f43fc3b bfed75db be9e0cc4 3f513947 c03a1afc 3ed607bc bf452917 befc7bc8 4065bc28 3e9c3e6b 40348b2c bd6745a6 bee6adfe 3ef29e09 bf9e483a
subgraph.layer_seq.glp_0.shortcut.1.weight 64  3eb6d09f bde32b36 3ee148be 3f8ce76e 3d5bc96f 3efd917c 3f4166db 3ef43f31 3e22025c 3efcf089 3eb6d082 3ffb34e3 3f717940 3f91c111 3f696b66 3f60f377 3faeef51 3eac97e5 bd30aa2d 3e512186 3f157078 3deef976 3f567d67 3f99f689 3f268172 3dac724f 3f7c350f 3e5056be 3e0e0234 3ebd3813 3f0c2bbd 3f135062 3fbbd039 3fc10dc8 3f28d111 3fc81b20 3ed0707b 3f831046 3fede343 3fd1e141 3fb456b8 3f244579 40033f7c 3e809dbf 3fd7eaaa 3f17f54f 3f9fb3f1 3f3b7e5a 3db3b6ea b8d46ecd 4015d4a5 3ed74e90 3f8e0a31 40450efd 3e1738b1 3e46f4cc 3f9aa667 be10bc0e 3f3d6fbb 3fbdb7e9 3f115b5c 3f9c4bc9 3f7b503e 3f9be5d0
subgraph.layer_seq.glp_0.shortcut.1.bias 64  be1def7f be54b72d be9954e9 be072c1d be792424 bd754e17 3e34149c be7c2a5e beb03024 bc8cb73b be1deff7 bd3301f4 3dad639b bdf7dcd2 bdde5caf 3c882245 bd99cfa2 be963850 bef5bd16 be8e8fbc bdc693ab be9546e7 bd510b07 bdd2f154 bd56fb57 bef48fdb bd5aea43 bebd33f2 beb862f2 beea6239 bd5737e1 be25d10c be1e09fd 3e184120 3d3a70b8 bea6dba8 be3d9d05 3b9f8f36 befe1d44 be33189b bea8aa62 3e6a70f4 3f05aa0d be8d4de6 3e4453b2 bd89ec05 be94a071 bd23a68c be5b0d88 be6dd83c 3d4e243d be8bdd34 3cd73770 3ec77c6c bf13683f be907097 3d5e968a bcf0d1d6 bd5cb8b7 3e48dc8a 3d14dc8e bda12831 ba09e520 be8b4ab4
subgraph.layer_seq.glp_1.linear1.weight 8192  3e021af8 3e303aaa 3d1538cb 3e0d173b 3e5d7702 3d720379 bcc6ed70 3ef69d1b 3d9aa998 3e077972 3dd8001e 3d8be4ee 3e1ea8e4 3ec173f4 3e9471c3 bd1561ec 3e151876 3e0d5dd0 be3dd8d0 3e87101e 3e1ffa20 3db20d82 3e1f070c 3e482a50 3e080fb4 3de865ef 3e2531c0 3e239f0a 3e222001 3ea02324 3e0881d0 3e162d78 3debf40f 3e34b4c4 bd96acb9 3e806469 3d6ba5d8 3f3a462a be097160 3e41de81 3ded6ae8 beab9359 bd10212d 3e7cf2bf 3cc1b08e 3de37474 3e21ffca 3dbe2469 3e20b391 3e4ab381 bc1259be 3c8c4aa7 3e59d452 bec656bc 3dd3016c 3a9e0d22 3d21d7fe 3e7e480c 3e1f4868 3da153ae 3e05fac6 3f18b9bc 3ea17841 3cb53749 3ea2fc7e 3dc87f8a 3e20571e 3f06db00 3dfb6121 3e855135 3d968108 3f354a99 3e1f2bb0 3e59d5b8 3e20a513 3e468df0 3dcb863d 3e9698a6 3e6c4839 3dd3b673 3e817b3f 3e50fccd bd90e65a 3e7ff075 3d7702cd 3d426e0c 3de2846b 3f614e06 3e24e747 3e06d96c 3dd98e45 3e4568e5 3e19c41e 3e4b7eb4 3e6bc5a2 3e0fa338 bc4fe418 3d9430a0 3df8be1d 3de69ffa 3e62fa8b 3f0a92b1 3f21be0b 3e1371d3 bd18d1da 3db92cb3 3d8802d2 3e3a664c 3e2ec68e 3e63621f 3e607d2c 3c0274e8 3e035b5a 3ca56d32 be1a720d 3e027e2e 3e8a61e5 3ded75c4 3dca4482 3dc4e57f 3caab16d be96569d 3e2114f2 3e0896be 3de749ee 3f5d3a34 3e87ebe9 3e44cee6 be0c1ddf be78871c bd9f2ce0 3f10d029 be0e20ea 3eb0bbbb 3e5894cb bea3c2b4 be03224c 3e38e424 be28fb22 bdbe5ef1 3f379a0f bd118146 bdd5cd5a 3f62f69a bf47bfaa be37b789 3e143a89 3e5c251f bcf2db26 bdeaf187 3e23194f bf187f4f bea8be6f 3d1dc255 be9bdee3 be311089 3e2a54a8 be9065cc bba36b73 bd587604 3f1a8663 bf5f71ec 3f852edf bdb94033 3e3b1646 bf7439fe 3fe5edc5 bef18c38 3e6237ba 3f6d912f befd5ff5 be2c9e70 3f0ca288 be2d263b 3f046f07 bdb95e2e 3d98f59e 3e2e3b6c bdab67b3 be37146b be8cd9a1 3eac9353 3ea8ae9b 3ec5dc12 bef2da14 c016f6f0 3c818dd8 3e741250 3d00b84e bf84f186 bb9eb4ca bf9f9f42 be3c3700 be4d1602 be324bcf bc9a4c6d bdd52d07 3cf12e89 bd1d8856 bdc1869b 3e06c2c3 becced8f be6e0496 bdcc3dbc bd227c5b bf239047 be791568 bbcf6c1f bf1e9400 be735805 3d4e0361 bd1c2d9c 3e50f3eb be1d89fd bdb860a4 be276a90 bf19590a be17f4ed befcf423 be5007ab be120aca bea469f1 3d5803e1 be5e7d6f 3e94d57a bee46cb2 bf60bdbb bf9835f2 3f820261 bdf345b3 3fd73089 bf2e5728 3eeaf771 3dbbadd3 be3c44c7 be555d25 3ccda326 be09eb47 3f5cb521 3f82cdd0 be856f51 be168d64 becf2007 be1c5bb7 bf30b2dd 3f3db120 bd4b2d18 3da77e54 bea39429 3e762e55 bdd7096e bd876ff3 3c40a969 bf441319 3dae60bc bf61f943 3e41e01f bdcf2c29 3e235104 3e59443d 3da85df7 be97e8cb 3db671e9 be3fbf5c be697698 3f08854d 3e1f4df7 bba14ab3 be1335a6 bcd9742f bedf7d00 bb0e1af5 3d52ef53 3e513646 beec6a78 3e5465be beb40fd3 bd23f9b1 3dac525c be09efdd bc3f4682 3e4ea713 3e9d8ffe 3e5a8a2e 3db4fdec 3e486354 be04fd4f 3e859ea3 bb985b79 3e5c7f1c 3f9b218c 3fb2b3bc 3eb2379f bf34ac07 bd1ffaea bceb7a99 bdfba457 3ef8af55 3d3ecae1 3df86787 3eb6d50a 3d8c50ca 3e3d2149 3ea19172 3e1e2ba1 3e7dd73e bdc5410b 3dfbc385 bf23247f 3eea5ed2 3e8ca834 3ee6d097 3eac9280 bf348e69 3e7e66ef 3e074005 beb6abd3 be4cad2b 3d9100e6 bee7b48d 3df33c05 3d86f618 3ddbd671 bec64378 3e10bfd2 beb58467 be081380 be87166c bdc03c21 bb8545c2 3e6cb872 beb727ae be865d91 beb76017 be952d41 bd51debd be9dde35 3e236a38 bc647090 3e409733 be1838f6 3d981a94 be0ad036 be6fa352 bdc81d40 3e3a9673 3dc3badc 3e5c5946 3dff104f 3e31e9cb bebb28f5 3e5e5579 3d1f3ae5 be7d6485 bf628401 be020236 3db96607 bf666f93 3d0995af bdd33571 3e6e0a6b 3e6888c7 3d8a7f68 3e0f0b8d 3e10ce46 3e55400c 3cbbda62 3ec9d18e 3e0ab3e9 3dc92c85 be8c585e bd2cd12d bf11e564 bd863282 3e30e31c 3ec93c16 3dfde7db 4019ec52 3dd3326f 3dd8abd0 bed49640 bebf89e5 be600152 bf0486b6 be45ec9c bdb8f706 bdf28de0 3f1bfe29 bdee820d be252943 3ea8ae2b 3d9810e1 3decd342 3ed7ccc9 bd15b64a be0c5425 3db913cf be3b57c6 be4d5343 be09b54d be747385 be4edad1 3d7e5125 3d9b9b6c bddfe134 be04752d bd30f0d3 3dbf1192 bde30907 be8056e6 be114c5e be430216 3c018f58 be441333 be12a689 bdc8d057 3d837755 be92a3f9 3e042ed5 be409c58 be5af041 beb47e06 bdc1ac09 be7e1bd0 be164970 3ecaa60b 3ddfa124 be2dac79 3deb314a bd9a7105 3e345a57 3f19f86a be43a0ed 3e218bda be622bc7 be359875 bf016b63 3f71f957 3e82cb36 3df8adf9 bdea4989 becca35e bdde135f baaa8d69 be553357 be07e9ee be898795 bea842d3 bdda225d be657484 be43a8ad bea8cafb be84d437 bd7f3359 be08e7c5 bcff3de5 3e332305 be6b9f17 be20bce8 be574030 bd9fde51 bf18c880 bc0dfdcf bdae273a be193892 be43e0d3 3e18ffaf be1b557b 3d256d1d be419750 be2666b6 3d7e92ff be269b42 be3a1909 be2bfd14 3c720d02 be6e85bd be9014d2 be5c323f bd0746f4 bdde5510 be049088 be2c04f2 be4e1328 be9da9b3 bea0ba9c 3e5007b8 be50c032 3c67d9e9 be604a9d bdf18b6b be5d2dae bd00df85 be8698a3 3e86c9c4 bd64ffe3 be1967d9 be7f7ec0 bdac82d5 be4f95b4 bebaa2f8 3e732d5e be29b518 bdf05201 be151d75 402e3a44 be1f10bb bd932f48 be32a34b bf35f229 be11aacb bf17b256 be4140c8 be6d9ce0 be2a431b 3f47a40c be21b986 be1fd526 3e28c633 be11a440 be71af5f bda15d23 be376f9f be60c089 be3f85df be1945ed bd8f0a3d bdff3eff 3cf54dbc be2cf4ad becaf87d bda3bb28 be437106 be46b39b bdd2fae8 bea05517 be450f68 bdd4ff44 bdc9c73b be313efb bd9f6447 be62480e be077adb be83b892 be9db617 3e3ae76b be0df8d6 bde7589b 3e2781a8 befc0680 bd269286 be99ac56 bd9a1e40 3ec4c524 3e89e231 be023198 bdc25ac9 be3d82b7 be4a5895 be11c263 bde8c66b 3e25854d bed7df63 be6e6a7b bf1362cd 3ebec453 3dfe78fa 3e43a53d 3dc8a0ba be899f28 bd5f8e6f be4e845d be49f10c bef258d9 be4939c1 be711ee2 be4063a9 bd236b8d be400e25 bec34f1a be61b720 be18041b bdacb23f be052a12 bddf3015 bc288e6b bdb5852d bda89d0c be3669cd be97b121 be3a02de be898313 bf63839a be45a945 bdd5feb1 bd3e120e bded5e29 bdbc487f be5302be bea07b6a be90a324 bdf0099c bdb4493c 3e8b5891 bc61f385 3e1f289f bd95d9bf be983377 be13201f 3e759445 bea5beba beb8eab8 be3a0a48 bf53acc3 3d0500ce bd9ccda9 3d8b4baf bdb1911b 3cb6d42d be381eb4 be3278a4 bdbba97b bcffd28e be35906d be35f345 be0606f2 beb672be be87cd0f bef8a1c8 be3635ac be1f5092 bd6331e3 3e7b4bcd 3f3e5a54 bdc476d4 bbf4f27a be429b26 bf3e7fdf be19970a bec9ef01 3e847d26 3e2b07e8 3dcd3b9a 3f5e0277 3e38212d 3e07046d bee68378 3e8ba73f 3925393e 3dd5f306 3e503ba9 3d074aa0 3e2f8a49 3ed4d875 3cb1c237 bed7380c 3e22244e 3e2d356a bbd86087 3dad35f7 3e554eb3 3df7a560 3e2abd95 3e2334f9 3dffb3c9 3e2e6db3 3e74f759 3e2cb2bc bd9c5715 3cc54faa 3e082509 3e532de9 bf004fb8 3d047737 bed238bf bc670b1b 3e6a44ea 3f386aca be625a59 3e53757c 3dae6e6d bf71bf7c 3deb04b9 3e829d0b bea6bb5f 3e42c76e 3e538e1c 3e1eb41c be1a601a 3e5202c8 3ef8ccbd 3d35efc7 3ee68d22 be7dfbb6 3e47a444 3e12714b 3e573579 3e76e182 bc183a9d 3d237387 3e57ed0d 3f8f0e5e 3e44080f 3e3dc5a3 3e5af7a7 3e59a713 3de8b31a 3f4a4013 3e108ecf 3e1aa7ea 3e1cdc08 3e9e52ca be44c02f 3e536aab 3e1dc515 3e39fb8f 3e071c5f 3d9529bc 3e28d9ce 3e1faeb0 3e9525e4 3e68401c badf6e32 3e081d99 3e37c596 3e0cb9a6 3e591108 3e9d9e10 3e207a69 3dbbbef9 3e86db3f 3d918d81 3e81cdb9 3e3510a7 3e2ee0b3 3e6dc921 3d63c7ef 3e997e54 3e37166f 3e2d3273 3bdd0eef 3f2478df 3f01beb6 3e98e9c9 bcb6d32f bd54e1b3 3e1ee8b5 3dbf7f77 3e43fc8f 3ddffec3 3e8017fb 3bdf6b80 3da71c3e 3e2ffef3 3e1d02eb 3e830eeb 3eb188d6 3d1bcb62 3e63b4b5 3e3b29ef 3e41b9a5 be038841 3dba86e9 bd0bebb7 3e47ad12 3f965a5b 3e517d9b 3f226b40 3dab98b0 3e610efb 3dd425ec 3f7e5556 3e622e9d 3e0f50a4 3e90a1fa bdeaf3c0 be3ce88a 3ed0ae3c 3e38d466 3e7043c1 3dddf649 3d9c8177 3e445786 bcaf65ee 3e84712c 3dec1933 3dc78891 3e661493 3e4aafa3 3da6efc1 3e1490f3 3bde33b2 3e1048b6 3e41ebde 3e478742 3e236afd 3d9db976 bdfa410b 3e85060c 3e9445e6 3cc5ec82 be9168aa bcba396c 3d1aa268 3e82a8c8 3e362154 bdd7be14 3ec1d7dd bde171b2 beae95ae 3cd60053 3ddaeb75 3e14d953 3e931329 3d96c894 3e9f4e58 3e010a47 bdf67bc9 3f52b594 3db280ba 3f13bea8 bec0c186 be674134 3df4dc5a bd8695e7 be00d429 3ddc5e58 3cd198ad 3ebc0b4a 3ec7a7a7 3e9a31ac 3e66e142 3df13f4a 3e59422e 3e24fc96 3f88092e 3e096e6c 3e59ceb1 3eb621d9 3e62c308 bda2d23c 3e6e5b36 3dcd98c6 3e814d00 3e84f42b be109acf 3ded2e5e 3e4b3d46 3f0e1ac0 3e0401d6 3e2be85f 3e1c846a 3e60004f 3d836d59 3e0de96d bd1ba8bb 3dd1ee0d 3e3b9e4e 3e0ef508 3e4e94f9 3e861157 3e12edea 3de36efe 3e3ab61c 3d12f0e2 be744421 3c89d33c 3e488ba6 3e22af4b 3dafa4ef 3dbf302e 3e1a70a7 bd8e73e2 3e22eb84 bd485072 3e206fce 3e65fb87 3d690ca7 3e92da2b be69ca57 3df61106 3e509eb4 3e62d92c 3da736d9 3f1ab449 bedd804b 3ea8ea93 3dd1f393 3c98a9e5 beefd0b2 3e7cd851 3daa2852 3e754921 3ea9562a 3e4d0360 3f0d1484 bd6af628 be5faa0d bdc89ae3 3f7a7341 bd708748 be0e595d be18f77a bd783f33 be1e89c1 be5b3a94 bdaed8d2 be0597f4 be821e14 be82978f bd954679 be5987b0 3d5acd6d bdf4f9cc be84cd1e be21bd29 beb57208 be0c9597 be32a61e bcd3dd95 befb79d0 bdedd70f be230dd7 bd9cd794 be37045d be22f1ef be4cc89d be072365 be31de31 be7a7aa7 bd0550d0 be5b29a9 bdec2753 be99ca01 bc5fdc22 be071709 be9fe87e bcbbdd87 3e1698af bea7b7d8 bcb37581 bd536dda 3cb37ee4 be0b4985 bd1850ec be56a2ef beb85607 bdc0f4e4 be208a2f 3ed8e07e bde17f74 be0944a9 3e1958d2 bf46a590 bcdaad97 be6e35a5 be97d467 be56fb5f bdb5d0ac be96afa6 bdcbb138 be27fda0 be92062e be9059eb be33b518 be8effad 3c0ec18c be5c2935 be0f4fcd bda1fc89 bdeeda0b be3ce036 be16b579 bf1a2dde be64ebc4 be4800c1 bd3bc82a bdf76795 be39c5ef be4b2fae bd57ced8 bdc4dc88 be0ce339 be4abedd be08a59b be26a7d9 be7c60c3 bdf19635 be02956e be3ea999 be1c83c2 bdad3ff8 be06f2e4 be24eb75 be86175d be68289f be757096 be890ba5 3d94c906 bd90b2c6 bcddeb90 bdd72378 bd6be2c9 bdfc0a69 be5f229a be25e76c be18936f bdf9b66b bde7d0be bdb1b463 be9be65d bdeec7bf be1adb53 bd8a595c be46ade2 bdec0a71 bdb1de8d 3f091753 be76b159 be4aaa4a bdd8f934 be20a79f bdb01322 bec51a5c 3e0e0013 3e0cfeb4 3d1bb4e3 bf0fa634 3e027dc3 bdb5b8df bf08b910 3ee6b8b2 3dd0af78 3d516ae7 3dd949f0 be229739 3c9f4c10 3ecc2887 3e7361f3 bd140b4c 3e8e8d5f 3e5237a8 be62a7a0 3e2e8309 be0efb7f 3dd8e290 beb87ab0 3ee5317f 3e45cf47 3e6088e4 3dd371bb 3e5c402c 3e0abc06 3de56154 3dc50d75 3dc23635 3fce435b 3d54a767 3f29b4ec 3da90c5d bd4324f5 3f3fae48 be433bad 3e7c5593 3f2350a2 beb2f1ec bed9db16 3e21eb41 bef2a2a9 3d3c23b9 be6c60d9 bd8dd55a 3e5a18fe 3dcae530 be4fbf55 bc8b4699 3e2ca4c4 beb10740 be509e0d be41307a bcaa2225 3daba5be 3cfdf9f0 3eb9a6b9 3c8447e0 3efdf2fd 3c92ee1c 3d65e5a8 3e310ce7 3e935781 3e0d7a61 be8cc3c2 3df9b344 3e904ca7 3e0563d8 3f106603 3e400034 bd26f004 3e20693c 3dd77b21 3e3ad0de 3f540257 3e98e11a 3d5c0bf0 bd242b86 3de5f138 3df636e6 3e4dd213 bd0056ea 3e07557f 3daa41d9 3f518181 3ea24c97 3e4f9660 3d599936 3df41a10 3e34e6fd 3e1188ef 3d3ae37b 3e1bb400 3eaf91ab 3ec42ea2 3e698b69 be3fca03 3e9f76dd 3ef598ec be04a4ac be117de4 3bcdf925 3e6cb55a bd7c8933 3dbbe6e0 3d2cbebe 3e8de041 be0c45ce 3de36ab6 3e2246a6 3d6c49ec 3dce5ca9 3e2b5e79 3ec46913 3ebc933f 3d2ccf96 3c3ef9d3 3da913aa 3f40998a 3c6f7852 3ded12fc 3db0572b 3f23fb3d 3e280849 3e36047e bdf3f4b8 be9947cf 3e79b39b 3f7c890a 3e484235 bea81530 3d029854 bc5f242e be69209e 3e5bf68f 3d434797 bda0d35a bdb4b0c2 be92b937 be111de9 bddba736 3de6b366 be3e0297 bf00df48 bdca9fe0 beb15568 bd689203 bce994fd be4d2720 be259b61 be6682c4 bd101333 be5bc78c be487960 bda93f1f bddd5155 be084f78 be47a906 be6c4837 3de5c9a9 bd547991 bea7757e be15411e bd623d40 be9ff01d be224f84 3d9ecd8a 3e976e1a 3e3e581e be088be7 3e121945 3e9de550 bd949aca bdf8bedb be3938e7 bcaff5cc bdde13b4 becc89b3 3eb5f1d7 be2d7431 bd8fbf25 3cd30fab be8aa125 3c93dfa8 bdc07bd1 3d973e32 beba677b bc83cd70 beb7bac5 be47f42f be37cddf 3db4f981 be259e83 be69792f bebf2487 bde15c8a bd7c689c be2ae832 bd70c4b1 be3d2c25 be8b9849 bd9fe87f bf13fd4e be5b739f bdfe1e77 be347d06 bde0fc43 3d39b3ea be145d0f be1c19b2 be719085 bd8a1ca3 be3aac70 bf56ac0d be4733eb be631562 bd9ab624 be3bf565 bdd35a18 beb7abe4 be0b7e8a be383cb5 be609866 bf1234a0 bea9cb0b be46c269 be645c06 3e046471 bd05ea48 3dcea1aa bd16bf05 3b1c8635 be669001 be0693d4 3ddd3c94 3ef5cf41 3cc8964d bd96e19c be161a68 bf1a6c95 bdff8c9e bf06e144 3d815e9a be1e199a be1b470a bcfdcfcc 3e215cbf be0bb74e bd69fa03 bf4f9233 be74717e beb0a530 beb1ad47 3e31089e bd8e4ab4 3e4a2863 3f3abd30 3e48a879 be4f43e4 3e2c8870 be85e8ad be39623e 3efa0909 3e4fbabf 3c8da667 bdbf1930 be6187b8 be778a2d 3e31a034 3d63c983 3dfaec48 3eaa5f1b 3e190ba3 be0c1929 bb3e25b1 be4618ce bd766155 bca9ba18 3e841198 3e51e877 3d9606d4 3da2dbf3 3c84dd5f bdfc391f 3e0b419e 3e11cc6f 3da14985 3f9684cc 3f8cac14 3ea848cb bf364e7f bcc734e4 be3f3e1b be01a548 3ef3ecf9 3e7c856e 3e14d131 3eb45cbe 3dfa5abb 3d8b062c 3e4cf6a2 3e1b053c 3e25d299 be85670c 3dd8631f bee297d5 3e8fd2b6 3e2ee047 3eb541c3 3ede36e2 bf55b3a9 3e821fca 3dddde91 be89c9c1 beefb5a8 bd78ed88 bec3478b 3db847af 3dcff572 3e625e2f bf052a44 3df1bc51 be36e66d 3d96eaed be282b8a bc3c6bb5 3e8f8e6d 3e73a90d be321f6e bde4a16f becf8d63 be39bca7 3c0c3fa8 be1642cd 3db80491 3f0956ae 3e39d8ab be1880dc 3e6857b9 bcafbde5 be1c6fb3 be2c3d20 3e6a425e 3de49093 3e03647c 3dd07669 3e931ef8 be071f00 3e65e080 3e254a7d bf1f1c6b bf5e29ba be8daf78 3e2289e6 bf55eab6 3e33c60e 3c4f8a95 3e8db5ff 3d79ecfe 3d18e778 3da5ac8a 3c67ba64 3e46b1e8 bd90566f 3e9665a9 3e94490b 3e40e6a1 be9d0c10 3db4654b becef34c be5a6fe5 3d67675d 3ec34e75 3bcfce12 400a95fe 3db52b6d 3cdc32fc be723b0a bf2ab8b4 be3a49ee beff5b51 bdda42a7 be3c137d bdc79d63 3fa37e33 bdb1fca4 bec37a62 3e992045 be5ad718 3dab87cc 3e8a2c5a bdfbbbf1 be4d4ea2 bf2cbe66 3d3f006c 3d8ba52f bd6a05f4 3e0a9b82 be5c7841 3d840658 bd9a06b2 be83e684 3e88071c 3e4187b0 bee80295 bd67b964 3e1ff7a5 be08ac0f be5e576b 3e13a424 bed8d6b2 be4efa20 be083e9f bf025d6d 3f55668d 3ea6ca3e 3e710ce8 3ca17df2 3ddc6683 3ed894fe be63edb5 beda287e bdb72966 3f2523ad bdfccb6b bd306541 be419cbc bdc5c8a1 bd6726e8 3e07624f 3de90025 3f020bd5 bd56ede7 bedae99a 3f3a3c20 3e89258e 3da39332 3e1fcdfe bf0dbaf9 bcec3428 bf5a51df be0596e8 3ec273ea be5bb6c8 3e314389 bcdaae01 bef00de3 bde1e225 3dfcbb95 bdc72a4d be90bf72 be927842 be224577 be490b4b bde0fb17 bddc9ca5 be93c60c be884f20 bf60be6f be985827 be84df95 be5107db be217855 3a97bcfc be082495 be090654 3e3c4d47 be6c75d5 bf882f3d be5e53ea bdf3e633 bdcd029e be443d81 be25e67b 3d836d23 be667f3e bd97a768 bf1ac18f 3ec30d94 bed9e740 be25336d beef2f2a 3dc3c621 3f1db749 bd94ab12 be87ce08 bea6baa2 3e490ed5 bd26ba0a be8a3ff0 bdade2ba bbe5c551 be26f5f2 be2597d0 be0727c3 3ec33384 be1abe12 bf30e9af 3e1fd84a be02bfe4 bdb8067a be01fbe1 3fc11e03 be8de97d bee3626c beb69858 3de99bf2 be21a9d9 be196b4b 3e5c2894 bf2e513a 3e4dbb63 3fbad25a 3e7c7bb1 bf93b35b bf254d8e bf4aad39 bcd67dc2 3e4ece28 3e327e3b bf8524ef bf91edb9 bef521ac bf5e9d5f bf5887da 3e8383cd 3dd3760a bf7e150d 3eb803dd bf84bd14 be156e87 bf975d41 bf74cfc7 3e807d4a bd9984c3 3ec3f1ec 3e38a778 ba21477b bdc2a0f2 bef83953 3e179971 bf15d13d beec6939 3f20ad25 3fe50c13 3dfb88ea bfd8b2c7 3f29fae0 3dc95df6 bf02152b be4d5f35 3f084d2d 3e581c96 bfa44ce2 3e62fef7 3e667f8f 3c1075d0 3e6a4f97 3e3e2878 3f2433ea 3e39dbd4 bfef04eb 3fd817f3 3ec05b04 3f45e10b 3d6316c4 bf81bdf8 be36bba0 bf956c2b bef49b63 bfa2ea5e 3eac4d30 bf5e0877 3e2e16f1 bedd8d70 3d7ca741 3e257bdf 3e21fe90 bf62c3fd bf3474b3 3e17d670 bcc46a30 beb08c77 3e82f016 bf585fd4 bf8c4720 bf087ff7 bf6f3558 bef32ef2 bfa3abd9 3e3f0db2 bee2685b 3e6943ba bf1867ae 3df78f4c bf852e9d bf2b47ad be713721 3d2f6d64 bf0079c6 3e7d31a2 3d64653e bdc6822f bf760df6 3df20a95 bfa7da1a bf26522f 3daca982 3fd16d6b 3f2a4e38 bfd155b3 3f24ea12 beb8aa13 beca1da9 bde8bcc0 bebae2b6 3d5c6793 3df8fbe0 3e69e184 3e733490 3dd4a7bf 3ddeeae4 bdc53b4b bcf59496 3d2d703b bfcd40c0 3f5dd773 3e87a678 3f2e21c6 befab6c7 4066e36c bf028048 bf3421a0 bf554cb0 bee02bb4 bd70021d bf654117 3e68fdb9 be348c01 3e820e51 bf14f918 bd07a06c bd657baa bda61d3d 3f0dcb6f bd814670 3f011a8f 3e19e9c4 3bc033f1 3f148ac1 3e6c608a 3eebb05d 3e08aac0 3f3414a7 3e09b6eb be14dbfc 3d8ce830 bf1ae21e 3f225da6 3e76dccd be4b197f be78952a 3df4af05 3edef43e bd7c7830 bed7fd48 3d900eb8 3e5489a5 3dcd2a12 be06e15b 3f06c1fc 3faa8478 3fc0b954 bebb6a60 3fd4c11e bfa6e0e2 be885314 be8c0e5f 3e12c2fc bf0c5d79 3dd48311 be38b4f2 3e3b9ef9 beb562e5 bee25dbb 3e1da959 3e2f6200 be9e391a 3de47e62 3f2951f3 3e14ce13 3e2e7e57 3d1dd9ce 3e88eea2 bf52ba1c 3e9b8bcb 3d89dc9a 3ea278b0 3f7a6d48 3e421a4a 3f1776df 3e012780 3d2578db 3c2c385d bf9b8491 3df33221 bec2bf15 beb295da bb85b8bd bd618117 be774147 3e02b256 bf3bd2f2 bdbc3ad4 bbbb31ba 3d959ff7 be9fb660 3eaeb00c 3e69c87a 3ea7c1cc bd751651 bf0cd278 3ebbd892 be9f0efa 3da4018c bdefc89f 3c9e6016 3dd6e56b 3e092e01 be325dbf 3e01f677 be992a9d 3dca3896 bdbaf24c 3f15a8eb beb5950f 3efb4c02 bf3d99a7 3fab467f bf870eb5 be691e89 3e63621f beb1e4c3 be9dccbd 3de11426 bf018327 3e8e817a be6e42a8 be8a61c5 3e814b86 3e90bc00 be1417a4 3dbac9aa 3c7701d8 3d23b986 3ddbcbfb 3e2084ba bdc8abc7 3f63c831 bd2647b1 be71697e be75b7ce 3f6da8a7 ba95a696 bd48b4a1 bcdec82a 3eaf8b4e 3df95eb0 bed69525 3e6720ad 3e19cfd5 3e85a466 be68ee2b be13d04c 3da960d4 3d8f12a9 3ea7e2ae 3dfb0627 bf7f9f0d 3e060139 3e31d38e 3f48a275 3e13878c bc3c14c1 3e12f98c 3eaaacc9 ba6a62a3 3e62eb69 bec716a1 3e46741c 3e0a57fc 3e218cac 3e0146dd 3dc986e4 3d582c03 3e28ff7d 3e0eeb22 3f000788 bfc03b40 be6e958b bedceec9 3e5e4c61 bf06dc8e bed9ea13 3da04d34 bd692e3b 3e4b4ba0 3b5d32b1 3e35e32d 3e321dfe 3e1a1fa9 beee9712 3e9ee0ed 3e1221d6 3e0dc74b bfb506cb 3e05cb8d 3ef39558 bf960f3a 3e241a49 3d0bc79d 3e990e9e 3f7a0373 bcefbffe 3ee7d804 3e9cea5d bea02877 be8a01e4 be0bd847 3e38df41 3e1a4c38 3e6b8073 3f1f1c14 3d337672 3e353315 3eaf8382 3e3fba7b be0971a1 3ea6d862 3da81cbf 3ed8c9af 3e682a44 3e140035 3e89cb8b 3df4681a 3f355240 3dc04b9f bdc7a8c5 3df262e3 3de7d949 3d5c2490 3e6a2d46 3e35e4ef 3e8278bb 3dc62e6f 3e9f1378 3d9cebb0 3e404967 3e5372f3 3e10bd73 3de4305b 3e518423 3d5bf74e 3ed45bf7 3ea4ff04 3e0e3cf5 bf0a4299 bf1cf668 3e0cd0f8 bd43161a 3ec3d814 3f03d65b 3e762662 3e91b83e 3e5f48f3 bc6fe529 beef8907 3e725c02 3e22407d bf19d281 3e177158 3f178c62 beb26add 3e17ffc6 3d3b0fa5 3eec56c6 3e1f42b1 3e4ee16d 3ea10087 3e9f1b7d 3c76c847 3df5b1ef 3e40e9dc 3e063606 bec87c92 3dbeb1a2 3fd2f644 3e25f721 bed8fb75 3cbe946a be6df363 be7b6aa4 3e8ce843 3e4067b2 bd968ce2 beeb26ea be894744 bef406be bd8ebfe1 beca29b6 3e0e33e1 bf15570f 3e230439 bf25723d be959bdf bf2ce0c9 bdd68de2 3db003f1 3ddc3553 3e7bb976 3dbd4c24 3d97f98d 3e01c7ed be21d825 3dc40ad8 bd8d1120 bf17a169 3fa1a99b 3fb23b93 bebb424d beae9a68 be8760e3 befa9f9a bdaa3b42 3de1c364 3e556368 3e550ec2 3f0ceba8 3e28943c 3e5acfbe 3e20420a 3e2a77ce 3dbf4745 bf3f43e2 3e596a90 bf792130 3f501967 3e23a1fc 3e847de3 bb185b7d bf7ea3ca 3e8671e7 bd9c05ef bec14ca3 bf8dea0f be7152e7 bf7c3389 3e82d698 bc821ccd 3e197d45 be161ccd 3e06dcb1 bed25b48 3dd5259e 3be025c3 be1c60d5 3c8055b4 3de3a14d 3b75e22c be72dd32 beacbcd4 beb06b26 bb79cf4b becda2c3 3e158f1d bf0d0bf3 3df657a2 becfe186 3d4e12ca be618b97 bdc581cc bb87ba19 3e23e0df 3d349a43 3e665ce7 3da2485b 3e9aa368 be929e01 3c4ec6af 3dec31bb bf849751 bc8410ab 3d339250 3e907c24 beee6127 3e2a4fd8 bd735fad 3ece5474 3e959e58 bd40c6e8 3e50f06a 3edc3b01 3d9c30db 3ebe8f40 3ed637a1 3e84d42f bcde9711 bf142048 bd5c031f bf8a9b9c 3d19a1d9 3e609e6a 3e6cec1f bd47a531 401b7ee7 3e661d68 3e9d6ffb bea8086c bf8eb7a3 bebd34fc bf695604 3e4c582a be372672 bbe9e002 3f587b72 3e2fbd26 bdd19eb1 3e86ed27 beefebd6 bdd7c8f9 3eb0cf9c be75cce1 3e1b3619 beae85d8 bec74d80 be405d36 3e5ff91d bd4d8f2f 3d654e5d beb055c6 3e40d81a be9cbdca 3e51f820 bdbf8c4d bea99c27 be899a24 3d994557 3e17195d 3e2e3c49 3e89340d 3e102d94 bd34b3a1 3e7044b5 bc6d70ff bec6ffb5 3f0e329d 3f21ddee 3f1d6f9c bf70c9a8 3e08ae88 bf0d28e3 bf13bcd7 3ef4b846 3f184ada 3e1e955a 3ed1375a 3e02099d 3d89dedb 3e79131c 3e4bb0c4 3e1ed445 be4da158 3e8ba8f7 beffe948 3ef68e21 3d89a68b 3e5f7992 3e2d4f67 beb7c280 3e069b0e 3d70f61c bd5b36bd bf03d7b9 be6748ac bf0312e1 3e3dc75c be81a79e 3e36d074 be83c8b2 3e4176d4 be72596b 3e595142 beef1e17 be43c16e be36f637 3e79955e be6a68da bece761a befefda9 bde112d1 3e56cb4c be947b3a 3d9117bf be657bcd 3e2e7448 be054b49 3e73a259 bd2d1d3f beca845c be876bbf 3e47f844 3dd28ccb 3ead2430 3e2b1a50 3e5530d1 be2d1cdc 3e7d1b06 3e31d87b bf139576 bf16c956 be42f2e7 3e6d1e0c bf8501a7 3e0d4fab bc1935f4 be5fecf1 3e84a433 3e4c6fd2 3df9017a 3e085e76 3e3b785d 3daea3ca 3ec84574 3e38f8fc 3ddf04ce bebb28a7 3d1b5da2 bf0dc22b 3e8fc1d4 3e13bcab 3e5127b1 3e470b37 40089892 3d4b8356 3de3253f be382d4c bf1dbc20 be2ec772 bf1b3fe0 be774454 be466ab4 be439451 3f4077f4 be585c9a bd77ca52 3ddc5923 be8e805c 3e2adc62 3e3fbb29 be792e40 be6d28ea 3e160713 3e5165f5 3db741e6 3e51fe6a be0d422c be863777 3cdeac72 3e51b5bf be7ced9d be6b5f63 3e9f6edd be85714d be5a8d6c be65fbf9 be090d84 bdcbb447 3e31ed05 be74a9a5 be1b0e05 be8b6406 3e27e1fd be529b9f 3db53a66 be62d140 be308102 be92abaa 3e576ba4 bd94df6c be3d7b9e 3e5b8e42 3d94a28f be5eec71 3e3dbc05 be2d4b4e bdbe1e00 3c97fa61 3d9cdf88 3db3b582 be3add62 be09babc be2de619 3eda57f8 3dfacfe4 3db3858c bddb7764 be412520 bdccd77e be3946d9 be2c92dd befae38e be1db354 3d6ac0d4 bdef2b44 be572340 be28ad60 bea7ac8c bda2038e be323f48 bdd48812 be63c871 3e4d42fd be4a019a be300468 be15950d be08e376 be16c8ab be073628 bd855c2c be1bce82 be31a30e 3e14e2ee be300a88 be4dc107 bdb3456f be1945fa 3e05e860 be6883d4 be377ba7 be09d338 be106fa4 bac6106b bd5f34c4 be6c1970 bce62544 be185bb4 bdce2a1e be87f280 be07a0c8 be1df30a be87dc3c 3e761244 be0c8d26 bd84a1a5 be56ed18 bdab8ded be36e3d9 bdf9a517 bdd38aea bdc1b962 3da154b4 bd9d4b69 be0426b0 bf017999 be2615fb beaf6311 3d9a3a70 bd8bc83f bdc2bbae be154f10 3f2ee43c be1ce02a 3d07568d bd73cfb7 bf3940db be42c40e be81599e 3e1859f4 3e3bf5a4 3d8c677f bebb7457 3dfc7ca0 3e6f938b 3d7ffc17 bd73d220 bdb4f01c 3dca541f 3dec799f 3d25b574 3e6a6b8b 3e6bd4e0 3e92a1b5 3e0f35f3 3e442576 3d2316a7 3ee8cc0d 3e4289d5 3e7107a7 3d73194f 3e411be1 3e2697bf 3e192b9f 3e10b93b 3e2b2a84 3e16f1af 3cfc53e8 3e0ebde0 3ea6cebe 3de57e69 3ead3aaa becabbe9 3da09184 bc620cdf 3e4a05ef 3f1de550 bea58bcb 3e7b220e 3de7e810 be9be580 bed75a23 3e5a6b82 3d9d1bc6 3e25a2ad bd992155 3e0b2179 3e26b70a 3d3d798b 3e68711a 3e496272 3ef81bb3 bedc9928 3e62f04e be789f30 3e2a582a be0c1fc9 3e36bd3f 3d5d208b 3e6f56fb 3f305c9c 3e05d9f6 3d955f0c 3da23022 3d5f995d 3e0937d4 3f1dd07d 3e12992d 3e8b3516 3e36db13 3f49478f bdbad6c4 3e2b38dd 3de50d55 3e6b32f1 3dbc666b 3e2b69bf 3e21552d 3db3f617 3e95d159 3ddc8378 be355a48 3e91f5de 3e137570 3e16bc93 3e1e98e2 3e6b34e7 3e7e614d 3e30f97d 3d6e24ee 3e26a26a 3cca855d 3e16808a 3e4ff359 3e1a6a5c 3d85bbd1 3e0dd489 3e7b8077 babd922c 3e618dff 3f5b5511 3df799ed 3e5b9c23 bd70f7f2 3e24cab0 3ccd2a92 3dcd01c5 3e7f52d2 3e3080cc 3f078d28 bd9a6f0c 3e480358 3e1e2ff2 3dd8c0d4 3e5b7849 3eff4aa9 bc665488 3e023aa2 3e128256 3e362469 bf01d7c2 3e06f66c 3d4e35ac 3e74bfba 3f6b1c52 3ea11dff 3ee2e32d 3e30e6fb 3d5f7178 3e06a3e5 3f618a59 3ddba576 3e22eec8 be564779 3e3bb610 3e688e3c 3e4a8fff 3cadddf8 3e10f6ed be66c776 3e55d141 be339dfb bea8437f 3e65572b bdad5eb5 3f0f81b4 be3373cf 3e4ca7b8 3c69cf21 be9efdb9 3ea1233e 3e4811da bdefc9fe 3e3935f3 3dca8e27 bd46a97c 3e664653 3e52d06a 3e36fe88 bee8f797 3db87cf1 bd6cc899 be9837b9 3e5d73c4 3f0d5082 be35e7da 3ea66506 3c4d61c6 bed63914 bd09d005 3d87d892 beab3fe2 3e2d5234 3ebf0403 3f292cd3 bdfa59bd bd9413a6 3f5b274d 3e4e8dd7 3e1ec319 be4d5461 be170c95 be80e2ae 3e94b6dd 3c98f8a4 3e8419f3 be0aa24f 3e74c071 3f766e9a 3e8f6da2 3d7a9e46 bc291081 be48be81 3e417934 3f0b4fce be385ae6 3ec8408a 3e243640 3e9666da 3eac672a 3f1005b5 be3890f9 3ecb06c2 3d5c51a2 bd46c6ef 3e6fc839 bc174bb8 3f2ddad9 3e09ba15 3f30a5aa 3e18873b 3e76e30b 3e200f5a 3e831f8d 3cf61a06 3d929333 3e4a7a7a 3ec0008b 3e39d415 3e041395 3e665694 3e3069cf 3ce6b70b bec133b2 3dd2c90f bdbd8f10 3f09da64 be84bdd4 3f17482b bd633648 3f0d96d3 be997136 3d9e0c7e be8f6399 3e52cbf9 3eae1515 3df85582 3ed3e4e6 bdcab949 3e1093c9 3e22c07a 3e314959 3da8ab43 3ebb3654 be1b9e8b 3e6b19c9 be481fe8 3e61cc4a be49baac 3e809453 bd517323 3d8d0bf5 3f626a3e 3ed801b2 bd870b0c be723883 be38d38a be9e6745 3f22145f be5d801e be3076c4 3bd363bf 3e02f94c be9b60e2 3e95b9d0 bdfb8591 bdf060d6 3de77c4b bb9f8bad be92adba be1ea9d3 bdb94655 bc903e3c 3d8bc57a 3e5fff78 be429640 be3932cd be79c197 3e068f0e bdf4dd1a be5bc5ea bce1f9fe be067496 bdff9626 be446350 bdb30bc9 be0aff15 bdcd557a be406198 3e780bb4 bd5e0a67 bd1fd34f bf4324c8 bc98485c be55adc7 beab60c2 3eda3e4f 3e87dcca be08e5d5 3ef4ad9b bd050bd7 3db5342a 3eb85f80 be451abd be31a380 beca52fb be097eb6 bf35aeee 3f616c2c bd293507 3c42e6b3 bc0d75c1 bf5d3a1b be4e2d25 be30a1d0 bd906e07 beda49ee be2d9329 bf2013ed be5d7dab bdf6b3aa bd3c4e6c be581e76 bdaef51c be2cbeb9 be2f6d02 3e565eba be28765d be067d7d be34236c be2f37f0 be3e2d6f bc2e97a2 bd276bbb beb89313 be086143 be0f2291 3e145c6c bdd0cfd8 be91567c be74118d be132bca 3dda464d be2abf59 bd8847f1 be57726f bd0182b3 be89698c be3718e4 be26b32a be8d74fa bd5651a6 be9ac3df be884530 bec97426 be98600f bf577905 3e36986e bdf21117 3de9cf5e bd84eaad bcbbfe3b be574df0 be8e9a28 be6900cf 3e798c79 3d7aaaa3 be27f436 bcc45880 beb2ce4a bd95a86d bee63229 bda3c1bc be58c0ca be35aa59 3c29e956 3f0595fc be071c75 bd92c18c be3ab31d bf266103 be1651a2 bf4f01ad 3e955278 3f16a535 be05c7eb bf60af58 3e4e4213 3da21a99 3e638da9 3e21c733 3e305ad1 3dfcb3bf 3e13d15e 3e92974d 3e3402cf 3ec29871 3e97c085 3e81a12c 3e4e0b76 3dae8548 3e800736 3df868d9 3e14550b bdacdc12 3e8ea196 3f0d29f2 3ec78616 3e0e388f 3e140470 bd0a9abf 3da4d965 3cdc7062 3e8f73eb 3e4be9a2 3eff8073 be0f2961 3e0ee54b bc0484fc 3e4baf94 3f1e02f7 be6faf1b be21dbd1 3ebde83d bd9a3928 be8df3d0 3e79d7c2 3e89a676 3daadabd be09036f 3e1df931 3cb86a95 3e4ffd7e bf0f4a4a 3d1a93ec 3ee621d5 bf3f74b4 3d5dde27 3e4d3792 3ca1749d 3f13e2fd 3e5fe2ec 3ee54e08 3eca84d1 3f11baf5 bef9daf9 3e5bc000 3e1d7dfa 3e3e4e55 3e901a06 3ebc9e84 3e7ba90a 3e8ff13c 3e9e91cf 3f14b940 3e6a3d34 3ddeb5e9 3dde535f 3e62d9a4 3e9f44b7 3f7a0900 3e56126e 3e359b2a 3ea6d2a2 3e1f60e1 3ea3b357 3e31661f 3e165b1c 3dc17a3b 3e8932bb 3f469058 3e7cc0bb 3dd623ee 3e183ad7 3dd854ee 3e145609 3d8606b1 3e963d12 3e4fac33 3ea8fafe 3e97fe35 3ef3dc84 3e5be944 3e902abc 3ef07d41 be896716 3e026829 bc37918c 3e43f699 3ea3a619 3de0ccdd 3e130e89 3dbb6d99 3e488668 be8fb8e8 3e6c0835 3d65780a be05ab9a 3ddc52d1 3f23e65f 3f112319 3e04628a 3b114294 3ec4a4ae be2eb960 3e28cb2b 3e948512 3eabde80 3f020146 3e615969 3e1a3fea be1b8ba0 3d88c2a2 be22ab9c 3f4ad0ac bd9a0e3d bdf9c150 bcc4320e be6cef6d bc9500d1 3f05e561 be867dc8 be1ebdd9 3e6c1b2c 3e210d3b be1b4b8a be56dbc3 bf13f273 bc8b8d6f 3db1e063 bddbd9f7 beb17fcd be23805f be20ec50 be8dd742 be4c6ef5 be0a243f bde17f59 3e48debf bdfeccab bde7bd88 be60d18b bdeea0f8 be82d263 3e90d66a 3d7db7b6 bdf07a07 be8be6bc bf319d10 3e380fba bec4bc1f be82de5c 3e572a0f 3f0a091d be133d93 3cdf41c5 bdb7df84 bcfbc7da 3c9adc15 be0d573e bc976bfb be32a751 be5a5f4e be76229e 3eacfbb2 be55e1d6 bda881ae 3eccd50d bf441f31 bd0b746a bd8cd61b be9981f4 3debb2d5 bdd63e0e 3d9ed7c9 be1a229b 3e05e0a5 bd5d5849 bed03cfb be4fcb66 be5208fa be2900a0 bf1c2021 be3d48d1 bdc345a3 be418fe9 be3622c6 be379c39 3e4bbf18 be1405cf bdf3fd04 be4b3a55 bdaec4e3 3dc9b2ab be1dcc67 be402dd9 bddfa48c be1a4878 be9162b8 bea79c64 3b8b53bc bdbca1ee be4fb54a bdd0ffd9 be4d7e0a be8b129b bd95179c be1c7f2e bebd9438 bebd85af beb18836 be988249 beb3cede 3e9d6f5a bc94a055 3ce449c3 bdb783b6 be0719ff be055923 be228a08 be223e5c bdb985a4 3df09e18 be60a6bf be52b069 beb33e79 bd8b29d3 bf300c98 3da5daed be1de23c be12ca3a 3c3ca8e8 3ff5d996 be3c08e1 be0149ef be453d04 bef47710 be1e4ef9 beb0d0c6 be0cbd68 bdcf4976 bbc36acb 3f3c2d25 be2edc67 be0481ef 3d191a1a be0f9eaa 3e0b3e2c 3e30576b be400083 be840918 bd34fc11 be5684b6 be5e44b7 be6be1c0 bdcb0955 be29b9df 3dbc9942 be8f7fc3 be9e46da bde25b4c bd7bd30a be037f25 be01ec0b be4e122c bcf32513 bdc6c23e bd84bd80 be1e560a be33b186 bdaac5b9 bd953431 be268720 bd22d36a bdc486d5 be2e2d30 3c2c12a8 3e084368 be52b5b5 be26ec0c 3eaae55f 3dcc4eef be4f0d0a bd04bc33 be011817 be0123c7 bd5cbc1b be1483bb be0ce6e3 becbc4d7 bdf76e65 be3c7153 3f287b2f be5d35ee bd51c36f 3c97b4e7 be83b613 be185cf1 bdd5ab0f be0dd057 3e2c0011 be0513db 3d77cfcf be347d46 be3c0eba bdff2209 beb2771d bdbd6680 be2d66b2 be18c339 be10f270 3e2cb9bc bdb9dc44 be065e2a bdfd52ec bd035726 bd637465 bdf0136f be132572 be4168dd be7ae6b8 bcee572b be4afff0 be40d614 be863005 be85d960 3dc68a6c be8a1b55 be905dbe bcc07b05 be81120a be2a2b02 be3174a0 be568b16 be32097f bd4e5f8e be086c97 be690609 be7843ba be9b68b6 3d551e5b 3e7c7dd3 be453bea 3e2ac741 3c740cfc 3ce088bf bd7aba44 be80ba99 be6ad73a bdd6cdf0 3ca468be be0b20a8 bdba9862 beb6ac5a be1d1d5c bf7e3cb3 3e8c9122 bd84e9dd be087691 bccd6a77 3eda8523 be3d1825 be1f2dac be367832 3dd45596 bd536db4 be0111bd 3e37d8ea be7672a6 3e23c863 3d57297b 3e1fb9a6 bde56a35 3e1c3efd 3df6e6cb 3e196821 3e8e1488 3e810f4a 3e45f4fd 3dd5aa3c bdba7b18 3e0d3627 3ea0434f 3e944592 3e0df894 3d098c1d 3e10d7d4 bd522de8 3d31ab00 3e1bc78b be3ba975 3e3a70ef 3df8f10c 3e6a78dc 3e52869a 3e4658e4 3e579e74 3bcaff83 3d960417 bcd4ee83 be5937b7 3f68ee6f 3f01bf0a 3d12701d be4fb713 bef98dfc bd27d855 3d58b37e 3eb23f0a bb9c4021 3e8915cc 3e9df020 3e2b84c8 3d6dec77 3d3eab13 3e38a2b7 3e0e8cdc be8732f1 3da51309 becc4d76 3e811f0c 3e251f03 3ed16abc 3e9ae0b9 3d85fa1e 3e79ca25 3e87cbc2 3d532182 bf15d716 bd51d1b4 be7b950e 3e838416 bd1f32bf 3e15e88c be9124db 3e8659d6 be1b098f 3e5b1737 be146249 3e67a744 3e098c9b 3d93f724 bba99401 3e08933e bea5727a bc7de9f4 3d9b0e8d bdf5f98e 3e2608d8 be3c3e45 3e2c48a6 bce2c641 3d99ee94 3da6950c bece957f 3df1d6ee 3e28be26 3e2064b4 3e55a16b 3da4fb5b 3e8e21ac bd3cd756 3da5ecf4 3db31e24 be90da8e bf0b7a86 bd2b6f73 be05c562 bf1ebe43 be975811 3e3c4d80 3eb66656 3e43c604 bd274511 3c9a246d 3d662cda 3e874057 3e0feb07 3e3e4c6c 3d5c252b 3e2b6532 becdc149 3e1ce160 bec08723 bd7414cd 3e562127 3ea7a22c 3ea3f5ca 3f032a17 3e661846 3e41582a be4c6b16 bfb02f1f bd18bb6b becadc64 be1051b3 bf352683 bdfe2db5 3f731961 bdd034c2 be359ba1 3dc180a3 bdab9338 bd9cd6b0 3c3e70a8 be227359 be16d964 bdbb2cfa be9458a7 be6e04a8 3e69579e 3d2f342c be6b23e0 bd8b7ec6 be0f3f98 bea200f4 be1f9f0a 3cfc0688 be89663a bd89fa4f be2a7cf4 be427d17 be5cb8ed 3dc135b2 3da9794d bd7c7128 be1d8528 3d892378 3e2852c3 3f15d999 3f59a56e bd2f0505 bf5340dc bc8ac785 be516e29 be4417bc 3eddcf68 3e300adc bdaf3836 3f057061 be0bd54a bdc3b2f8 be1907b9 be315783 3d7f0804 be729af6 be29f3e2 bf0a9375 3ee5715c 3e763722 3f6d7b81 3ec43a81 bf5a1c82 bc6c43fc be1ebbf1 be33150f bed5602b be30a9dd be4895c7 be200cac be7f5bcb be4247d5 be257809 be0644c8 be985ca0 be0a3659 bde10114 be13f0cd bdc42a7f be343540 be2dc400 bde3ef04 be5651b7 be1a9498 be039849 be43ef5b be0830c5 bdfe2a01 be4d3a8c be7a0aad bdd53932 bea65cce bea9c575 be2fa3b0 be49c392 be0fbbd3 be69cdae be416f55 3d75fa20 be7a714a bdb4b35e bdf8b7b0 befe3e24 bf0e0244 bebbdfa6 beb27ce9 bf2e60c1 3e2eb2fb bec76970 3de7ec6d bb3c4179 bde72356 bd83b3cc bec05308 bdf1c6da bdc4c291 bcba4ae4 bd4b3def be013133 bf2b5f57 bd4f12bf bf05e33a bd8fa11b bdf74dff bdb9886c 3e067c6e 4028792e bdceebc4 be301b8d be8804f8 bef3fb48 be9f6c27 beaf3948 3df081f7 3dd29f97 3e0ab76a bf8b0e78 3e297532 bf035fd3 beae3ca0 be98fcd1 be1e26af bf5a188e 3df5f9ad 3e94d603 bf66c50e 3d46ed76 bea39503 bde692c6 be4fe284 3df72d07 be36a955 be2f023f 3e14267c 3df45762 bedc015d be9f2848 3e393e5f 3e15f6fe 3c34cec0 3e31c226 be5dad95 3dd35f14 3e91bd6f 3dca870c be90b780 bf6fceae befa3914 3e32ef57 3f212554 bf409cfa be9aad3e 3e2cb4dd 3e3c0c24 beba6d85 be9751dd 3d55565e 3e84fdb3 3db91db4 3fa83fc4 3f252cb4 be2ffa3f be470f4d be848183 3e1ac2fd bfc58a2d 3f45777f be4e8666 bc8567db 3e836c51 3dd048ec 3db98e24 3d0f1cc0 3e9b21c3 3ae3af4b 3e1fe053 bf60b520 3e1d5ba0 3d8f7ff8 3d89c56d bfd3f9ca 3e7e2963 3ead3c69 3f05b55a bf277982 be2dbcf5 3e6f0f08 3e04e3e5 3ebcefeb bd626cba be049777 3e3e41ce 3ec7d59a 3e4fa479 3e313dad be0ed91f 3e246b5e bd97206a 3e13bbd6 3ee6f763 bea65381 bd7a2004 3e6a0f48 3dca8ddb 3def141c 3dae62d4 3e487fab 3e928aa4 3e385b4b bdea24a3 bf7790da 3f16da32 3e8d61d4 3efa07a3 bf98a704 3dac09e9 bdf1e08f be8e9329 3f1ca39f 3cf700db 3e6c765b 3f2e1108 3dd72ef7 be37f327 bf46c0bf 3e5a47e4 3e1ec2c0 becd8d3b 3e6dad6e 3e4842ad 3ee8c2f1 3e0fc146 3e3ac1f3 3f01066d c01ed24f 3e3bee52 3e5e79b3 3e04a1bf 3e351368 bc575209 bf367175 be739461 be823f01 3e2644f8 3cf4f3b5 bde0e886 bd14edd9 be519bff 3d4eaf95 be29d257 3df1f8ff 3dfa4121 be8d65ec be37524e be974355 be3c1285 be264276 bee120b3 be653d3a be7908ff bd46c94b 3d8f5c15 3e2a13dc bdec2bd6 bea3ec39 3e0a82bf bdb8baa8 bdef91b4 be642db1 be22bb05 be16ed1a 3d461ab2 be3f1681 bef435e9 bf39b92a 3d39a1ef bd8afaf1 be5e46aa bf316e17 3fa5dd0b bf3e34c7 3ee71fb2 3e83a272 be55cd5b be85d4c1 bf16bb85 3d18d05f 3e94cc22 bece5570 be0c9abb bdf1bb56 3e0cc3d4 bbba7374 bfc00022 3f8aff94 be2d20e9 be3f5fcb 3e3c2022 be888819 3d00cb36 beea4701 3f41ecf3 bf166e03 3dcc1def bf52bef2 bdc7ae75 be3af872 bd956808 bf748c15 bdd39c5c bdcdfcf9 bdec76de 3eaeb09c 3dda5d2e be02ff5b be09d954 be17c58a bee75e84 be7416ba be83aed5 be895dd7 beb269fe be3760ca 3df0eda3 be6aafbb be0f0cc4 be4985bf be3d842e 3ba007ba bead19e2 be401bd7 be32a495 bdf179fe be75be38 be58d3fd be5bf381 be2c7d8f becdcb35 bee7abb1 bf4791cb 3df899c3 3d1b177a bf100759 3fa510a3 be4ae328 3e2068b4 bd702e95 be6e9669 bdf1c59f be52d280 bd53f323 3df477d4 3ea37bcf be954faf be477525 bdda9521 bd5ef7ba bf1b130d bd086a69 be8058f0 be0f8a7b be8e0d6b 3fe21e6d be517268 bdfd7d5d be019165 be763b13 be16ab07 bf6725ae 3dbaa5e3 3e97225a be60bf06 bf3bbb5b 3e266eee 3db0bcfb 3e0f8fe4 3d3dd934 3dcea146 3e83689e 3dcabd88 3e9594cc 3ca710d9 3df6d537 3e612a49 3d0701de 3f0aaae7 3e39cfca 3e93bfbe 3df12051 be1a7bb2 3e479bc8 3ddcd64c 3ee5bd8f 3dcf53cd 3e1964f6 3eb6359b 3de6abfc 3e1a0353 3e8ad32d 3d957dde be2526b7 3eaff42c bd47d037 3bf1c0bc bed25801 3e77eba6 3e7129c7 be82a0b0 3e1dcb12 bf00d550 3d6c2467 bd330aa2 bd1d89cc 3ea07001 be212fd5 be6777cb 3ebe2d47 3e8bb580 3e8db1a3 bf31b54d 3e4a3835 3ea8d6b8 bf455b08 3e169971 3e4b84bb 3e9ba0a7 3f34e6a9 3e03b175 3e83e164 be21cefa 3eba0595 beb23c0a 3f04492b 3d5cae3e 3e95cd08 3dace108 3f159765 3e05630c 3e242d84 3e14676e 3bcfc3da 3e5fa5bc 3ed85156 3e0f77b5 3eeb730c 3e075484 3f11b95f 3e9396a5 3e3ccca6 3ed35c86 3e5991d3 3eb219d3 3e0cd4b2 bea9064f 3e7f9206 3e930516 3e844818 3dbe0028 3d077ea0 3ecfa067 3e651402 3e266a48 3db2180c 3e0a37a0 3e459ac6 3e2b45cb 3d3ebfc0 3ef351d4 3e822acb 3d76ce2e 3e852320 bf146acc 3e7bc85c bd96f113 3e301ac0 3e8dc34e 3d50577d 3ea0ad90 be0f23fa beb1c0b4 bee19736 3e8b2d76 3e695818 be5c7c29 3e3aa11b 3efce4b6 beb4109b 3e482e49 3da339a5 3e9b9dff 3e8a5a54 3e6b4c04 3dcd27ff 3e22826d 3ee06e03 3e267f93 3f038c38 3e432f17 3e3d1c05 3e19564b bf062b13 3e2a2989 3dd757b1 bf3e5b49 3e9af42b be5d166c 3f18c21c 3e70171f 3e16bb5c 3c64a16f 3f0aeccf bd69f60f 3e170403 3e8ab5f6 3e06adf6 be85cd0d 3dacc972 3d5f5b82 3dd1b3b3 3d5f3aff be78ea77 3d0fc971 3df504bb 3dacbb49 3e0a2f69 3e098464 3d525111 3df4b6bb 3e3abe8f bf2d4349 3e4d7e85 3f43bc59 3dd6ec88 3de7bdcf 3f2dae16 bf4cb61d 3d84ef03 3c97111a be94ed42 bee2d9ac 3e28d617 3debcd25 3e1fc18d be249938 3d8aedbe 3db5397e 3e959495 bbaec34d 3da15abd bba551e7 be01f673 be4a72a8 3e83d193 3ee1790f bf504e54 3ea662c9 3d7f28cd 3dbbed71 3e7746d7 3e495afd 3d51eb95 3d8540d3 3e01a2d6 3e0db2c3 bf4788a4 3e00fde7 bd7a9351 3c49e645 bef5b7cb be16bf25 3c94895a 3e0499eb 3caef6c2 3c59013e 3ef15b10 3d934ac7 3c8a5bba 3e0ff774 3df995a5 be59b137 3e48875b 3e607073 3e403571 3d0ec4d8 beb0b5c2 3e14cd7b 3da066f5 3e8c097b 3e2b55c3 3e03e0f6 3deced1e 3e02894d 3e340e47 3e3af85b be119cec bd260ed2 3c148f81 bdfb5eee 3f147bba bf6f00ea 3e911f3b 3e7847dd bdd41c31 bf6c2a52 3e23d42a bdf0eaee 3e3b546b bd928ad7 3df4025c 3e2657ab 3e55d842 3e264042 3e4e49ab bea72289 bec0ca09 3e0111b9 3dd05a96 bda3402e 3dd3d2df 3e3cb956 3e153ed9 3d936082 3edc3f73 3d59a3c8 bebc2a87 3e55e546 3e17af2a 3e1a2e9e 3f279116 3e6c2dd1 3e04793e bc06c614 3e35b093 3e75b5e6 3e3638b1 3d8a5581 3e0c7dce bd824d96 3f2ba3d7 3f046bae be546c8d 3ec94344 3e3ef7de 3e77849a 3e549549 3e8952e5 3e470751 bd124bb8 3f04a45c 3e637be9 3d8ca8e9 3e1055a5 3e42110b 3e9f2f8b 3da8f920 3e65c8e3 bba497ec beaad243 bdf20a82 bf6e3d15 be62e05a 3e9235ce 3f174961 be72526d 3e983de4 3e2ca1a5 beebbd33 3e51a629 3e0c7d6d be7801c7 3e466be4 3e9aa9ce 3e4cab1d 3db1f90c 3e3e1154 3eacefab 3d5882cc 3edf6ef5 bdeaf1f1 3e598534 bcad365c 3eafc8d4 3f58c10a 3e0958ea 3c174118 3e8c183b 3f3ff0f5 3df4bc32 3ed3fb02 3dea9bb2 3d5d2959 3e2c80e7 3f3c1d58 3e32cb37 3e3b5fbf 3de0a29d 3e68f98f 3d9604c5 3e851c01 3e46480f 3e0a039e 3e368de3 bc6c6c9a 3dfd998e 3e7c326a 3ebb8538 3e0cc10c 3e57eea1 3e2da1aa 3e15f4cd 3dfeaac8 3e75501d 3ea96ce2 3de511fe 3e2ab6ee 3e5271e0 3e34abbf 3e769e55 3e61feaf 3e18d82d 3e3f0278 3d7f9d82 3e11807d 3e48a729 3e3855a2 bd38569d 3ed306bb 3d0afede 3e93c0eb bdb1443c 3e5e9c5a 3e63f315 3d9f43d1 3e89c085 3e2753e6 3e7ee9e0 be09b7f2 3e342a83 3e3609c9 3e1bc69a 3e786ea1 3f1269f3 be46ba5d 3e03dadd 3e2583f5 3e9ee89a bf4c51f3 3e2b6a29 3d917fc3 3d96ae48 3f3781c3 3eb3d6ad 3f26861a bd90b65a bd1deac6 bd59028c 3f9139ac be5981ee be35b0e3 be026106 3e57cbc3 3df0f9a9 bd115e02 be0adce5 be67d9b6 be7fd57f 3da9b41a be1e0c21 be95ad27 3d642fe8 be574c43 be835be6 be177175 bebfe25f 3e47183b be3b2ea2 be65ba43 3d9c863f bdfc6398 be37bca7 bdf104e5 be5eaea3 be68f165 be624f4f bd3b2afa bea4fc8d beae8b7c be2de8e3 3dbcc264 bdb54a6a beef9ad2 3e22e77a be597654 bc4b01c3 be4c79a5 3e2b0b57 bdec22bf bdbb85e1 3d305277 befb4c84 3d572d27 bdf0f648 be04646f be3eb59d bdd60241 bf69584d 3f71cf59 bdebab1f bd6a07f3 bdb5e4de bef9c00b bd9f5aad bedb1a33 bcf2ff18 3e67ce83 be51aa08 bf5e3b2a be26a78b 3ced0618 bdea9ab2 3eb46d6f be36ad39 bdb47d9c be7b8174 be33a854 3e1be275 be0bf84f bde9f6d3 be9a9338 be6e70be bd7d1365 be248d89 bea32dbc be07e04d be21e0bd beef7e03 bde5ecdb bd486c38 3dea2273 be8c6cb9 bf01e4a1 be1d6acb bdf90d45 be1ffb46 be64609d be1b6850 be43f406 be1c02c8 be707ca5 be0e352d bed5fc56 be5ab1e2 be94c307 bec0c9db beeafd90 3ef66e3a be5ca5a8 be02608c bea347ef bd853dbf bd927578 be8751ad be3dd55a be22eeb9 bdeb0948 bde54e46 bd8b811c bcd4d6c6 be5dbc9e bf662c4b 3eaa85bd be440aa1 bdda9c03 befa5ded 3f1782df be39e785 be7f716e be790de0 3e492b2f be322f92 bf20875c be0ec71a be97e30d 3b9c10c8 3f691e76 3e0551d0 be5d505b 3d12892e be990503 be533819 3eb5cda0 3e2f42ac bdf9dea8 be00f8bc 3de4d54d bdb906ee bdac369e bd8afee5 bdef8b9f bdc9a3ab be0aed98 bf187bc0 bd9062e0 be3e4f6e be894dc1 beb1448e be37d966 bdc6bf48 be864b0a be70b521 be8172f0 bd247a72 bea055ab be893ed0 be45097d 3aa41db5 bd101962 be82213a bed5a3c6 3ccf6343 beb78e61 be2f5e84 3d1c040b 3f1a240b bea36003 bdcbd164 3db4118e 3e32764a 3ed86224 bd90b722 bde604bf bcc2c6c1 bdc83ab1 bf298d58 3edd0cb1 be06fa2e 3e3426d7 3d3bef4c bea50fd6 3c07da19 be1b831c bf04f889 bec43c84 3d4b58c9 bed7756c be0495eb bdc343bd bdc68be8 bea28419 bd8ed5d9 be79eb00 bd8bfc36 be7003d9 bddf644e be10499b bd99e5d1 bea84368 be320b38 bed063c5 bdce2642 bdfa23c5 be09238f be465044 bd65a045 be0b9139 bdcca6ab be1ebcc4 bddad292 be1f5970 be0107f0 bcc3d412 be1c90e6 be7e3514 bdf06d20 bda5a82a be176206 bdce1501 bcde7f59 be5929ff bed143d1 be8948cd be89e452 be957a17 3e659e81 bdcfb229 3db5c163 bc481d63 be141113 bdc12316 be50409a be36c8c4 bda8b777 3d2ca97b be860c9e be1c7920 bef2565c bde556bf bedc2acf 3d1b1537 bdac6841 bdc56bdb bdd697e1 3f17f203 be407800 bd7e4874 bea33053 be9a7309 be544ff3 bf207187 be3ab0d0 be131909 bdeb4e63 3f4af25c be923678 bdb35a51 bdf75558 3e8147a0 be893584 3d3851c8 be395c2f be03ca9a bdf43e38 3ee0722c be202b0f be166efb be83322e bd6d47a7 3e16d9b6 be484d6c beb73a4d bd82be9c bd5ae8cb 3e7bfb45 bdd4c0de be230034 be6f577d 3de0ad70 be4399c4 3d7332d5 be7ac10f be194ed3 be648a90 3e42404a be16fa1c be4638c7 3dc5366d 3e153954 3e528750 bdb00415 3daf13f9 bcdec0c0 3e8b6831 bda09866 be0bb6d4 be544fdd 3e91904e 3f876877 be949f6c be87c51c 3e8a49ec be38a906 bf0b16db 3e45f93a be09ee5a be5bc0cb 3dae839e bef3fd19 bda6f6b3 bd4b00ca be3a6792 3e7de039 be169a97 3c1e9533 be2ff04d bda7b982 be683d79 bda47022 bd6280be be1fa3f0 be0dbcc7 be940688 3d456b3d bdc1c380 bde0a418 bdbbdb21 bdfd1b54 3e1d92fc bddf0cf2 be141d68 be179d60 be63398e 3e747a77 bde4bc36 be0f9845 be1abe1f bdf94425 3e9c4d72 be5d7276 be6e3699 be1ae3db be8fce4a be59da2f be755cd9 be77c8d6 be2f6c10 be5e2eae 3ea725e4 be438a66 bd687c91 be8d5ab2 3e19e238 3f2e66c4 be30a3cf 3d5a7769 bd7e4df7 3df6c2e6 be115504 bdccde24 bb4dedfb 3f2e3ecc 3ec6e94a be3b5d40 bda85f3e 3ec1eb0c be766f1f bf030f75 bef42bfe be4c7eef be068a04 3c21b397 bd23cb62 be030f3a bda36651 be8410ef 3ea938eb bda874a5 3de58dff bdff36cd be870811 3e708527 3f79f282 3e49b1c0 beb06feb 3dad70eb 3d863d21 be1f02a0 3e89fc78 3e19ad2c be253b53 bde4e1a0 bdc5bd2a be0b173e bc2452e2 3d722041 bd70c5c7 beafcfea be136c3e be2ffe9f be8526c3 bd90f90f bdc4880c 3dabfe17 be04fd90 3dac7f07 3e08c327 be1a94d5 ba4a3cdd bd97a702 be05deb2 bed88eab be1d1330 3e3ae3ba 3e580ad8 be10aed4 beed5891 bd93a1f1 3e0918f0 be227723 3e6744c3 3eaef636 3defebd2 3ce234b4 3e22722b 3e9d18f6 3e88ab3f be169805 be0847b8 be5e1f61 be87f487 bf0b7041 3eca8ddd be2fbe94 bddba86e 3e067283 bf1d02b4 3deb500f baffb9e7 3d0cd2a1 bebcb40f 3e6e5d9f beefd5b3 be446e0f bea9ccf7 3e2fbdaa be087a1d be19d97b bf1dc802 bd0c242c bdc55307 be34ba45 b9e60d36 bdf7fb81 be8d5576 beb13fbd be709d2e be61191a bde73a28 be8bee20 be3329dc be79fe4a be08df7d bdadd9dd be631e98 be229caa bd771e4a bf29a3a3 be1587d2 bee210ff bd1a134c bce8dde0 be3e2131 bed2d8bc be2a8d56 bda27fd5 beef4502 bf59fc79 be96ba08 be6dbafb be71e93b 3d37f577 3bdbc399 3e436c7d bd223c27 bdff4279 3e34c0ba be8655cb 3e7ffdc4 3f029005 3eb0344d be17e363 be507a91 bed0beae be95194d bf36e3ce 3d2018f6 be039667 bdbbca11 3c2f5bbd 3e59718b be17e9ff bd6473f3 bf2fcc87 bec4c4ff bec34a4a bf41e6a4 bdba3a9b 3c8e3f9b 3e32d97d 3f7f7cd8 3e375abe be3c1659 3d7c22de 3d6e9b67 be5275fe 3e6e4f8f 3e187969 be2c3752 be008045 3e246a08 be183f5e bdf42134 befa6ebe bdf15eda be95f510 be4b24bd be6b1197 3ec7ea53 be373301 be1fcc04 3cc1c260 be20e205 be4c3370 bdd456db bdeddbad be321f1b 3d6c5a95 be7c2bd6 be562483 bde75188 be1e3d59 bd4dbcff be565f66 bf6ceff4 bda05ad2 3d961cca bdc80b06 3e232a76 3f08c780 be438fc7 bcca8936 3e021ce1 3e9684d4 3dd46eff be745d83 bdeb2d55 bd91d2b4 bdff4587 bf288d51 3ebee926 be47324f be175755 3ee21555 bee6342d 3d12e8be bde7a7ae bea5b791 bedd5afd 3da6925a bf39d409 bd071b7e be9906ce be945d8a bee919e1 bdb0e270 bea3bf66 bd961429 be950048 bd9daadc be4a7a8b bd972a73 be940e4d be62cd0a becab326 be3ccfc5 bdd426d0 bd53a2fb bd98555f beb51f20 bde6dce9 becade3f bda4b777 be5e1661 3d29c273 be4a95cf be8a5457 bdd318a1 be1bccdb be9c28fa bd799579 bdf7a79e be57d345 3cf50781 bf7a1030 bed827f5 bec8bf97 be7c890f bf229671 3e8bf87c bb6f6980 3e25fbbc 3d1ad30e bd8857aa be4cbf72 be686aa0 be2a2666 3eb1da4b 3e82e74d bb6d0236 bdadc465 bf1336df be231ea7 bf3401e1 be28b963 bdb09bd3 bd1aca84 be020b85 3eb45ecd bb8bc314 bcac1557 be4fa341 bf59b851 be88e4eb bf06a1c6 be7c3da3 3e898197 3e35cccc bec33880 3e4a53f8 3db14b71 3e517474 bec889b3 be5b36f5 bd73a45c 3e60568e 3eae3d89 bd372c25 bf6d2e0e 3cd8b140 3e441166 3db6061b 3dfb483f 3d75786a 3e80d508 3b91f86c 3dc81a79 3e50d251 be84c3a2 3e8f75a7 3dcf175b 3d8732e2 3e5b3873 3e217be9 3ea8f8c7 3d6ccdf7 3e715096 3f25c16b bfab536d bec1d31f beab5dc5 beba782b bf1d1468 bf22bf25 be6fc83e 3cf81d17 3e71f853 be4d71a7 3e39aeee 3e1bd73f 3d3494a0 be3d3b37 3e74cad3 3d670100 3e68111d bfac8ff9 3e07546b 3c80bbfd bf7bb8bb 3dec3d24 3c9dadab be0e48e7 3f2675e9 3cac1d73 3f0744e1 3e51cc7d be860bab beb8a5f1 be2c0e59 3e305732 3e6242af 3df5f5e5 3f14f489 3e32207c 3e6ec10f 3ec97c9b bde21fa7 be9261cc 3ed4f58b 3e2ecafd 3f0af8a2 bdddd16a 3e9482ac 3ebb6843 3df083f3 3f12e2ad 3d83d529 3f0ce16e 3e0c3ffc bde11c0d 3d380175 3ef49cb4 3ea56b77 3ed34fea 3e241677 3ea9a3ef 3dd7418b 3d9bcc8b 3e2dcb1e 3e3b9cf6 3e194ea4 3f06e74b be7dd47d 3ec0a3b4 3e5fe039 3e304708 bdf618ed bea5862d 3e263d6d 3d0be076 3e80e1d2 3eb8b1ad 3b402e1e 3e7490cf 3e5bf4fd bc36ff8b be91490a 3de57277 3e3f096b bf60b0f1 3ddc179e 3e377ced be8ec0fe 3e405c8d 3d607085 3eb682ad 3e07fc53 3e9e57b1 3e8480f8 3e49e689 3eb86e4d 3e4295be bdfca3b4 3e4c6d1e 3f160d97 3de0f992 3da3bf71 3e7785d1 bc8cd9de be7e42c0 3eb66c4c be06aadf bf47dbbf 3e4a3264 3f23ac2f bd81887b bec6c5a3 befd37d5 3f43317f bf269266 3e1ef65b be461d96 3d82bdaf 3e699165 3da66b39 befe526e 3e5879ec 3f44688d 3e6d9325 bed5801d 3e526744 3ebc8b76 3eaf4bd1 be5ab05a 3e0b3dfa 4039e312 be994f8a 3e070913 bc8915c8 bf114c97 bf23c0c2 3e58ee4a 3ee50ba9 3eaca4ec 3f852f7d bf937517 3e074dde 3faf2013 3e85716e bf216ef5 bf308bdb 3dcb1f83 3e1815bf bf95b690 bc5d3597 beea10df bf856c67 3e7c0eb1 bda0e704 bf84e997 3f71d4e2 bef0cab5 3fb0b616 be3db83f bf666258 bd3b5918 bf3c130f 3dfcc929 3ef735b3 3df0cb5c be957ccb 3e894f16 3e3bec86 3ed4a526 3d7e3423 bdfd2be8 be538ab9 3e1a3d78 3ed3b2a6 3ed779b6 be67f1ae 3e676a36 3f14f982 3e775e91 3e2d63b2 3c77e5fc 3e0a0cc5 3e64a1fa 3e1b3268 3e8a2996 3edd9d17 3f36e285 3ddaf255 3e083a2c 3e6138da 3e92c597 3e9bf220 3ee1790e 3e3f19a3 3fc86248 3e99dc8c 3f222806 bf4e7d8f 3ee8210c bec77384 3da1cd59 3efdd2c4 3ea5d217 3f401591 3eb9b464 3dc32a41 3ef4876a 3dbdc824 bf2fc80b bc920334 3d9da87f 3e0bc50c bf4d4cf6 3c0896d7 3e0e265e bf363a96 3e0e30a9 3dd9fd09 3e061265 3e94de18 3e884fab 3f379e34 3e80925a bf33b0d2 3dbdd232 bf0d94f3 3e1abc68 3df58474 3d3cb376 bf19a634 be256c83 3e356276 3d0bade2 3e9e24b5 3e728a00 3ddcdda6 bdb53267 3e030cd5 3e54d957 3f22db1e 3e1bad5f 3d9202ed 3f0aec36 3df4fbdc 3e8642f9 3e4d8d26 3ec836bb 3d8b0ae2 3e7362e9 3ef157d5 3e48b42d 3e0db3c0 3e1f875b bde068ab 3e20dd61 be5b339a 3e7ac359 3e4f399f 3e87f019 be9de73b bc844e31 be59c768 3defc33e 3f0a7f79 be271126 3e3c6730 3e363ab0 be4e12ad be5376df 3e4df6c4 bd01c5bc 3e735c88 3edad2e5 3d847d02 3e162bc9 3e09c522 bcc7a653 3e148043 3f1f6974 beafb2b5 3d610240 3d80c23d bd6aac57 3eaa4c25 3cbcf8cb 3e28ed08 3e9f23a4 3f460068 bd213227 3cbbe988 3e5f3b2d 3dfdbab5 3e29285d 3f26c906 3e7f1982 3e0e4830 3e173fac 3ee140d6 3e3ea378 3e4ec9ea 3e185d69 3e83ee02 3e14cbdd 3f151eea 3ea825d7 3e630517 3ec930e3 3e7ffd01 3ea721f3 3d99eed0 3e0a435f 3d944bf3 3e435196 3ef49803 3e244dbd 3e4f66f5 3de4ee15 3e277898 3e21b5f5 bdf38309 3e34df68 3ddcb894 3e009aa6 3e71528d 3ea6c502 3e09b11a 3e29caeb 3ed356b6 3e4ae117 3e7c5b41 bddea2af bcad9d84 bc0566fa 3e1adeeb 3db6a991 3e523751 3e56619f bd656dc1 3e2fe686 3e247d0a be812de1 3e008e13 3f0b6f16 3dde8f61 3de4c990 3e349f44 3e94daa0 bee57cd0 3e36b603 3daaa14b 3e84305b 3f27f20a 3eadc78a 3ec42625 bdd961e0 be367c7c bd9551cd 3f418b9f be51e543 be0254ee bdf8d4c1 3dc00177 3e17c81e 3e1ce585 bd85e1ba bdf71b60 be31eac9 3d8042d9 be82a4c0 bcd16068 bd5cea41 bdf179e8 be587fcc be502f55 beb48431 be7782d4 bdbaa544 3e4ff59f be9e02af be381851 bd97f9ca be142fe8 bd9addea bdf31850 be742826 be5d9099 be270373 be53bb7b bd7ba55a be13458c bdb5043c bd7b40f4 bc8110d7 be066a75 be93501a bcbdd752 3e3efc53 be074537 bdb6b9cb be4f9515 3d924d3c 3d19aa2e be389c98 bdc13b84 beb136ce be765c34 bec5d0fe 3f2e362f be483260 bdef5933 3da816ed be6d407b be020c77 bdc34b90 be1724dd bea4c805 be3241a8 be9dba3f be29b565 be1d6c39 be213d62 bea37b2c bde8c428 bdd0f8b4 be5de53a bdde4b70 3dad7d92 be56ca4d be738fc8 bd3262e3 be052491 bdfacca0 be476056 bde32a62 be262ee0 be77bd4d 3d08deb2 be14187d be4bdaed be167c6f be706c79 3de86c67 bd8951e9 be30b173 be1fbbab be8934c2 bd09f0ed bdc19748 be841f2f be297ecb 3c7742fa bdd195e0 be746352 be91984a be2b0d3b bf359f90 3e58f08f bdb3fe2b 3dd46ad6 be1676e4 bcb01f56 be35ebc7 bde9e870 3d0befff 3ea832d0 bdc056c0 be5a1118 bdc52720 beb3d909 bdfd1a49 beac0c8d 3dfff02e bd617d3d bd81df22 be294d22 3f71ee88 be239f0b be580a26 be43c348 bed48670 bc5d4ebc bf42e06c 3e19475d be08887a 3e2664bf 3f2e5e48 3e600208 3dd7b891 bea73152 beb525d8 be3cca7e bd8be39e bd85d13d beb646f5 bf0c7bb5 3dc0d21e be5b0a95 bf90ca44 3df3b0a5 3de40e37 be905011 be148249 3e97ac9d bda122d3 befb05b2 beacbe94 3ea99be6 be434bee 3e680623 be0906de 3e217062 be1d978f 3e122b85 bda6d558 c023d8fa 3f1767ac be06e2f7 3fd1831c bf311c07 be3a4b38 3df26f07 3f31b54b beff006d bf5006d2 3e9f14bb 3e4aa23d bf97ba09 3e967f2e 3fa3b534 3cdbd957 3de31136 be2b680c 3face22f 3e4791c3 bf585d9c 3fbf00f9 be8daf05 3ec2c83c 3c666d3e 3df63c8c bef2693f c01d9596 3bb0cd16 3b8f05eb 3f13ede6 bd815455 be53dbfd bd991064 3d796be0 3dda2652 3e18a745 3b8f0e98 3d7ef586 bd9c0081 be35972c 3cf4e079 be920e24 3d8f1a15 bea3d02f bee453fc 3d1a8211 bd7de140 bf32f830 3d7dbd87 be64b2ef 3e3421cf 3ea5defc be674cfe bdac1cef bf07b522 3eadab54 3e419ab2 3cbf4a4b bdc5f55f 3e07c2fd 3de414a6 bcd41b40 3e070cef bf5b22e1 3e8984d7 be02f04f 3f09f21e be0d5438 bdeb69dc beb53aa2 3ec85370 bef609b5 3d96e9c1 bd9a493d 3e25a445 3e04a0f2 3eaf5e9f 3fb47d01 bdbfc7d6 3e6ff452 3e1c1cc6 3f9f025b 3e45cb5d bee930ea 3e97e7ef 3d8e32cb 3d7ef554 be6e799b 3dda27b7 bd180cd4 be8c3687 be12ef0f 3e367d02 3ebffcfb 3f0efca8 3db486e6 bd099b68 3e281a8f 3e8a8e19 3d00cc00 3e269863 3caf0788 3db7561c 3e077773 3e860e47 3e29b0c3 3d89e91c 3e4877ad bcb62887 3e27d6b7 3cad0cb2 3f024212 3e38ee49 bbe216db 3e03f54f 3e8ca8b3 be39711b 3e031af8 3ef21423 3e3f090b 3e08c590 3e09118b 3e312930 3e77adab be4ae4bd 3e3d19ea 3e41552e 3d8d7f6e bde3730c 3c64764d be3eaab0 3d1aa9ef 3e8703c1 beea75e9 3ee8f492 3e45a897 be8a636c bda1db35 3debc034 3bbd8461 3e5dcb8d 3e5d1e50 3e0b1cb1 3e0d080a 3e76d6e2 3f3d582d 3e3d7dbf 3ea87ddb bedd0d79 3e2846b4 3d4842de bdb830b4 3ddfe3d9 3e1ca447 3d13a710 3e2e3346 3ea96349 3e1848c1 bd7e3f06 3e68cafb 3e31a092 3d9e773c 3f30a757 3e51648f 3e3371c4 3db1fdf0 3e8c4b16 3e335247 3eab3639 3e29f545 3e29c3cc 3e7bdc27 3e7ab8a4 3e1ae0d7 3dd176e9 3f195189 3e8bf85e 3dd87af2 3e9be5cf 3d31af97 befd513a 3da69a57 3f080d83 3d9832e2 3e0dc94d 3e44a841 3e17adee 3e55e7e4 bde8cfa4 3dcc3969 3e71686f 3d6a4006 bdd27a9d 3da26605 3e244aa6 3d6cd83b 3dc2c21f 3d77efd8 3e6d8916 3d169793 bd392ebd be779b83 3e10944f 3e2a5931 3e673624 3e29fd91 be22be8a 3e148e96 3e6fc522 3e124466 3e6007bd 3ecf000e bc1e4f26 3e52c1b1 3e837b16 bdc1ac34 bf274b47 3e5feb6a 3da52493 3d912d09 3ee16822 3e9e4de5 bc9731ec 3e3062e6 3e6898a5 3daa3473 bf95bfa9 3e0fde5d 3e1bd093 bc929fee 3e8416a2 3e7d3fd5 3d9045a9 3def0480 3e2ccc33 3ea258b0 3ed81d91 3ea3b0fa 3e1c9f39 3ec0ee11 3eadf0a0 3de4bd5a 3ddf0c93 3e9f9a59 bcae90b1 3e563fc9 3e4c9000 3e25b9b1 3e2f4b73 3e237e2e 3e3a27a6 3e3537ca bdb4f1e4 3e57ed8d 3e14c4c3 3e576db9 bdb57404 3ddc3bd7 bd5b4ff8 3e1af60d 3ecfbf83 bdba507d 3e4a6296 3e7d49dc 3d83a4d3 bee763a3 3d70f2e3 3d1ac56f 3e4c9396 3e93ecc3 3dafecfe 3dc5e266 3e2e1ab3 be90372b 3e265e86 3eb8c113 be9b6cf5 3e518c4a 3e35aadb 3d27f8db 3eb1b87c 3e44f0b0 3e4979e8 3e2e21a9 3e9f7883 3e3a630d 3e0fb8eb 3e0e3181 3df99ce8 3e812c68 3eb2eeb2 3dee4534 3e919752 3e1d19d4 3ec7c01c 3d977358 3e0c525b 3dd4eab8 3e3d8748 3e18e39a 3f0ea2df 3e8493d4 3e148083 3e472a35 3d974b7f 3dd815c9 3e31d752 3e643903 3df27a87 3e2fca8f 3edd3a4b 3da7b13f 3e135c2d 3daa5dd0 3e5c3588 3e546269 3e3b285c 3e502f02 3d22add0 3cf74907 3e367a47 3e28dab9 3e7e953c 3e8b5f9e 3ec4972c 3e7e881c 3e655f8b bd19d109 3c2aedd2 3e2f0da8 3e0f73e0 3dd83fc7 3e687a26 3e4fe03a bd3e7c48 3e9a620c 3e4b4009 bedbc30e 3e06aa43 3eefb220 3ec5bd03 3b73973a bd18e3f1 3dfbbff1 be7f6444 3de93038 3e4a7b04 3e61925b 3e81a0fd 3e1bda67 3e567317 3ddc8387 3e7d451f 3e39b3e3 bd23c797 3e2ec2a7 be07ae22 be8f291a 3ee00426 be4c3509 bf51e240 3e45c222 3de81cdc bede63f0 bdeaaaa0 bf138ffa 3da2c4a2 becadaf3 3e048a4f bee0da47 3ead3b3f 3e43e54d be695748 bf0d5ce5 3e93fa77 3f0752e1 be034da8 bd0a6fb3 3e91aa3a be6beffa bdbe53b8 bd831690 3db7c1b3 3fda2272 3f6762c0 3e02f89e 3f35eda3 bf48ab87 be35be08 3ea610a5 3e5d4dfe 3ef021ad 3f15c05a bf794ca7 3dc74a06 3f5b4725 3d83e803 bf017bd3 be0789d0 bdf76370 be077550 bd328809 3e76af30 bed50011 bf6ea1b4 be620e60 3fc94c4d bf889fad 3e6d8ee3 bdad5f72 3f665365 bd5abb3d 3cef75ad 3e70422a be587e8b 3d94a151 3ecc6933 3e59f872 bf4209c6 3e14a5ea 3e0cddce 3eb876d6 3e2b3f26 be4ea121 bea97a1e 3de83ac5 3e990847 3e2cdf88 be5ba680 3e1e63f5 3ec30b2b bdf78f51 3e2c03cd becb86ac 3dfcf7c8 3dea5cde be0c3f46 3ea7587b 3ed89451 3f1a00fc 3e5f89f1 be16437b 3e4edb22 3e2f0e81 3e27008a 3e36c39d 3e3a7707 3f1a3942 3efecda6 3f3a0baa becb354b 3f62c4c9 bd7a3090 3e914b79 