12
linear1.weight 384  bb484f41 3e60421c beac0915 be99d40a be210329 3de03451 bc048674 3ea5bb74 bd14657f 3ddd3d97 bdfcad97 bda458cb bec7b0a0 be8a6eaa be2c540d 3c77c65b 3e2544b6 3e7ad658 be8db493 be360b2a 3e17d770 3ead91ff bdac1168 3e9c6a1b bd86c3a3 3d30f0d5 3ebd43f6 bec1e792 be839687 bdd3ab69 be22f454 3eb4989d be877c0b be4070c0 be920832 bec3c34e be7407d0 3eb3ad06 3e3a8a38 3e4a9d95 3cafe2ba be56534f 3d8d743d bec329ee be970877 be5783f0 3e83e171 3e751c02 be3966c5 bc715881 3e85aed8 3ecfcbfc 3e25ea45 3d61e677 3e8c25ac be762589 3d9bcd04 bea20e8a be90defc be57f4b1 3e3d2798 3e281f25 be77a179 3dfc96e9 3e657ee6 bd530f0d 3c7f62ed 3dc1ba01 3e81ac4d 3ec8b3e9 bea11402 be193389 3e244bdc 3ead2f9d 3eb5e4ba 3eb86ed7 3da66503 beb5c34d 3d19d417 be82c418 bec2cccb 3eb9b72a 3e9eeecb bed081a5 3d9c7e40 bd8cd921 bd89969e be3f5d12 3e20c324 be779c3b 3e19408c 3e5368cd 3e95a23b 3e1c4fe9 becee0a8 be8797b8 3e50bc9e 3daefecc bea30e3c be70b81d 3ec4a36c 3e8cd7f1 be364758 bdd26e88 bec71d73 bbf072dd be9d6820 bea13b3d bcb84603 3d7b1200 be2b33de 3e780f2d be7e65c3 3ebda94d 3e8f3e58 beb04401 bdd0171f 3c96e821 3d73f93f 3dc64cb5 3e240d9d 3cc8540d be4bfa0f 3e45d09d bec88155 be77c760 bdd14c86 be4ba2cc be123f1d beab51e4 bdb1d97c 3db2b85d be882be2 bcaba185 3e95a11f bd2be6ab 3c39e519 bd1041f0 3da935a5 3e84e7b8 3ec5ff12 3e84bdcb 3ec6730b bcf1ded1 bebbc51d be462fac 3e8e532f bb2d7045 be4fc9d3 bea02d48 bec39d5f beb06ad0 bda9971d 3e654253 3e620353 bec996ad 3e826287 bea39005 bdb0c231 be29819e bda10b50 bda42922 bebb9120 beb47a7e bd82d4d2 3bad0000 be3de86e 3e1d7a4a bebc220e bce1b3ca 3eb7d1aa be2a8489 3ebcbfa0 3e1765a4 bebca29d 3e843f96 bd40f5fe be3a9e64 3ea72563 bea8e91d 3d336f07 bdaf0d36 3e95441d 3de96402 3e48df9b 3e13a304 bdc90f21 bdafd5b7 beac4088 3e628413 3ea5f5b5 3e8f04d1 be9370bd 3c952896 be9358f8 be6620bb be73990d 3e0edd80 be791e89 bc11edfc 3c8cb0fe 3e86bdbb be9e0139 be8f7f37 be72be4f 3e924d62 be1645e3 3eb04f04 3e172b2f 3d53bdfc bb472a21 bda547b2 3d51cd8e bdbeead3 bb3bfdf1 3d555bf3 bea37fbc be5b1c76 3ea8c8e0 bea9a1cd bcf02580 3ecec616 3e170388 3c3d60ea beb5243b 3e4f1744 be94e216 bded5638 be0c42e8 bd77a127 3b9253a4 3eac6763 3d50c0ee 3ebb3874 3e7fb95f be8425b8 3e3b7ed6 be93c1f4 be312db3 3df5e9ee 3e0a091b 3e9cd0a5 be069363 3a2b52ef 3e573856 beca2507 3e971ea3 beacd88e 3bb86009 bd8e2656 be5c2c75 3d5d03b2 3eacd85b bdf467fb be78310d be1a9c18 becf2c45 3e3cb41c be48c5bf be8b7d54 be70d649 3e705bb5 3e5d62e4 3ea06e09 3e17a292 be0b9c51 bde9a4ff 3df701bc 3eabd303 3de353b8 be45cbf1 be44839c bec59ff9 3db4a2d9 be6a99aa beba5c27 3eb74997 be87bdf1 bd3e3af9 3def88fd 3c551791 be8ca5d9 bea8f53b 3ea69bd1 3d8825f2 3ead6925 be0c2566 3df6468d bdbf31c8 bc94ba5c be7e9bd1 3e0d6236 3e042c07 bc09faaa bdbc09fd be80d91c 3e908c82 be9b9a13 3e2b4256 be0c91cd be49b1a7 3d96332c be592835 3dc0a3c8 3da4314c be9b328e 3d8b354c 3e320ee0 3e2579c5 bd527e12 beab5ac6 bd80e316 3e1130d0 be188917 3e1eaeb6 3e8b339b be5a4895 3b83ed28 3e2cdc99 3d030ff0 3d0bae1d 3d50cc4f bea452b4 3d036a02 3e90be02 3ebc5a87 3e75b503 3d6013f0 3e433bc9 be4b5efa bead370d beb3be50 3ed08605 3e84af87 be907bdd 3e238eb9 3e9dd8f6 3ed0f150 3eb6c4cd 3ea1f104 bdbfae94 be12b5b9 3eab9e43 3e6a43bd be7b924b 3ebbea57 3e49fb8e 3e63e451 be8302c1 3defdff2 be128d24 3ea35254 bd96726d 3e22c02a 3d948220 3e31dd8a be0e104a 3e4bd3d0 be91ff20 3dbcd5ef be8d6c61 bece358c bea7db73 3ea5047b 3e622d8d 3ec41bda 3ea773ef bebaaaca be8ea4d6 bd871916 be87bf12 3e91251a be9e05eb be4bf723 bec9ef7a be6d580b 3eabeab4 3eab23c9 3e95a06c 3ea16478 3eb9dc4d bdd617a4 3e37f0f4 3eba399e
linear1.bias 64  3e0a4c2c 3ed0f49a 3e58d33a 3e81f05a be12501b 3e489711 3d402520 bdc7ac63 be6ba824 be6a929c bea0d6dc 3e8c52d5 3e9499df bd3e50dd be71eae3 3ea18e1c 3e85ab01 3cf899ba be455fd9 3ec01a2d 3e2af4c4 be9eadcf 3ec80d6e 3e9eba08 be185fc1 3e6b01b1 be6d8780 bd830716 3eb17b57 3c8a2fbc be93d330 be0bb98e bde2f409 bda14e6b 3d200776 3ec14f8f 3cb30f0a be810f2a 3cab69cb 3e4872a5 3e4f5e26 bebf08c7 bd959cc9 be9b559b be325fd3 3e169e8b be946f03 3e1b6627 3eb16a0d 3cdb5a0b be8b4fb4 be15c799 3db69297 be9f5794 3e4fb090 bebdc408 bec8eebb becb197c bda99cce 3e8c8dd5 bec5d604 3eadbcc2 be273a62 3df4e0d3
linear2.weight 4096  3bbaca20 bde6d710 3dd44ee8 3d89d76e 3dfe7680 3d815596 bda8fa48 3dd5a748 3bdc2320 3d72cc80 bdcd44ac bd1343c8 bdfb5c54 bd476b90 3cdce8a0 bdc9005c 3d233510 3d896c2c 3c8ea718 bdab490c bdc67b5a bd1df5e4 3d60bf20 3dfc847a 3d93351a bc669fb0 3d338400 bdfb26f0 bddaa662 3d6ee73c bd910096 3d76522c bdb4b7f8 bd7d9964 bdd2dd48 3d85975a bc50ae60 3dc50494 3d9e6e68 3d8da7dc 3b83b620 bd1e4c94 bcdea668 3c881718 3d7dcda4 bdb359dc 3dd6daea bc5eade0 bdd6839a bd8a82c4 3de2836a 3dea1e74 bded20aa 3db48e6e 3d804bf8 3d9787f8 3dd8b624 bd89f8a6 3d21ad5c 3d518704 bd174ae8 3d2b57a8 bd134f2c 3d9e4660 bd0e0e88 bd3edf14 3d00e540 3d359a68 bd7a2610 3c350a30 3d945c74 bc4bc4f0 3d1bd1a8 bcf6f9b8 3d3374b0 bdb971e6 bd96890e bd81f174 3deb444c bd09c564 b9b2f000 bd780fcc 3dff8ff0 3dfa070e bdc11260 bdcf8810 bdc20bd4 ba1e0800 bd0282c4 bda7904e bd37a3e0 3cc17718 bd85c1f4 3ce2e688 bcead1c8 bd7818b0 3c8caec8 3dd27f84 bdad1388 3bbe3200 bd3ccf20 3dfb36e4 bdf2e226 bdf56ad2 3dfc4230 bda1f7f8 3cc45320 bc30c140 bcd7b678 bce4b548 3da2ac3c 3bc3c6c0 bdf93ece bd9721d8 bd2e8a7c 3d80d2ca bda5aa8e 3df1632e bce41328 bcb7df18 3dc89742 3d80aae6 3dd91e6a 3d9414ee bd1b5134 bda9d954 bc1860a0 3dd3e00e bd2bd65c bded681e 3d51e224 3df9356c bd11c200 bdd3f95a bde83510 3d004e90 bc1b12f0 bd8146d8 3ccefba8 3d426fc0 3dcb9a06 3dc6c0fc bc9946b0 bde1bb7e bde753d8 3def0648 3d625510 3d5f2f40 bddd7f20 3ded0f5e 3df28514 3de721da bdd7f530 bd413088 bdb0114a 3df26c56 bd5bff04 bd69c184 3d861f28 bd6cd8e8 bd7c2bdc bc332440 bc44da50 bdc76b22 3dd56b46 bd61dab4 3d359d30 3ddeaa24 3d811ae2 3c90fa50 3dd9d1c4 3c89a708 bd6ce154 3df22d06 3cf25c60 bdf9c638 bd11c318 bdae60fe 3de072e2 bca91c00 bde959b2 bc00be80 3da0c574 3d050490 3d21e58c 3c3e3450 3d3ee218 bcf97fe8 bd4bac78 bdef490e bdc0dab0 3d5de6f0 bd9794be 3c92e8e0 3d236d10 3c1101a0 bda5fa40 3df4d1f0 bd94dd26 3dd28f66 bdcba66e bcf65258 3d8b418a bd51317c 3dd70d0e bdb02b06 bdd6fb44 bd66dee0 3ca587b0 3debb6a8 bd746de4 3d371b0c bd005cac bcde1128 3dbc3cd8 bdc6657a 3c598660 3df0bea8 bc8cb5c8 3dc6c4a6 bd1dac84 3dce1200 bdf7a2f6 bc939528 bcb3dca8 3d25ee78 3d48df24 3dc48fa6 bc988fc8 bba26d60 3daf4fca bd0a8890 3de06b10 bdaa72aa bc5d9d20 bbdc0000 3d6475a0 3daf0566 bca24ed0 bdd4174e 3d7db128 3d1927cc 3d4dab88 bd9deb0a 3da4c2ae 3df278c0 3c31b530 bdef1dcc 3db3b59c bdbdcfc0 3ceb6398 3c94ce30 bd6fa27c 3d3246b0 bde4f98a 3ce939c8 bda24a9c bc5d7530 3c83b748 3dda1908 bd74491c 3da400ba bc821528 bd7329bc bddeecba bdeae27c 3dfa0328 bcff6298 3bcc9720 3d0acf3c 3dae02ee 3dda7d48 3dcf9ed2 bdbdaa84 bca40fe0 bd977c1e bd92441c 3cf2e668 3df04b3c bdcd1526 3d9aeeae bd84ba3c bcc772e8 3dcb3492 bce79930 3c3a7b70 bdb2f3cc 3dd9eaec bc845f50 bdbb3c68 3d15eb3c bdb6053c bdcb234c 3bf98660 3dcaf7cc bd10e348 3d70fb40 3ddbfc7a 3da9cb78 bd8649a2 bc608060 bd211e60 bdcddb00 3858a000 3dc09f96 3dd7af1a 3c3f1470 3ce892f0 bd5da7e8 3dc13d5a bd550c2c bdb1d4c4 3c9db078 3d997152 bde6ceb4 3de76a6a 3d382eac bdb35b5c bcdc93c8 3dde19b8 bdc4697e bd15a55c 3d27ed08 bde0471c 3d8c56b8 3d85429c 3d9ec5ca bda3364a 3dfef9ec bd97bf38 3dff933e bdf5ae46 bde4169c 3d9d3bf8 3c560ae0 3bec4ba0 bd8dc31c bd56c57c bd15b3d0 bdf96240 3bd4dd20 3cb51a80 b8ddf000 3d255720 3df2e7e6 3d0821f4 bd3b6dd8 bd52b640 bda3ca4c bdb176ca bca4ea40 bcb51c40 3d63c504 bd5ad900 3dcc158a bdb3a150 39ba4400 3de61f9e 3dfe9006 bd944a88 3cb66770 3c71ea50 bd700d54 bd30e4b4 3d0aad60 bdb20374 3ca8f4a0 3d5d8e18 bd49c390 3dd4a4e6 bc06c7a0 3d684d08 3dfd84b8 bd1c8090 3d8b1ccc bd12726c bc959428 bcad89d8 ba4b9300 bd416adc 3cf00320 3b9a56c0 3da2469a bccf4358 3c4d5fb0 bd3e7584 bdd6635e 3d4f308c 3c830768 bd4d0c34 bd2d1c18 3d05e620 bcb92810 3da74a32 3be802a0 3d4166b4 3d5f1394 bcfb4150 3d5d8640 3dbce932 3bbc7dc0 3cc863b8 3b94d4a0 3db13efe bd5829fc bd8814f6 3d5f1b18 bddecce8 3b035680 bd6b76d8 3da8f7f6 bdee5894 3d9b389c 3dfd467c 3ccf3240 bc087390 3dfbfe5a bd5acdec bc241d10 bd603514 bc8d5ab0 3cde8e18 3c88c450 bcc16870 bdfff58e 3bd1bb60 bb72a9c0 3c9a0c18 3dc428fa 3df8d59c bd97e15c bbff6760 bd4d2518 bdebf0f8 bdba47de 3df0458a 3d95437e 3d8982bc 3d8e4530 bdcb62fa 3c571450 3dee4350 bd8edeb8 3de3bc74 3d0692c4 3db41b6e bd5b55a0 3d6c0a84 bde2f0dc bc0209f0 3d2ac738 3d198bc4 3dd6390e 3dfb8f6a 3de8e5d6 3dabe05c 3db3fbe0 bc842060 bdc6ab02 bd3e117c bc65eaf0 bd8a56c6 3d82dc18 3d33b9d8 3ca53970 3cf75bb0 3de0e240 3d3a7c88 bde07f1a bdb9d352 3d61a9f0 3c8b8cc8 3d79b2b8 bdffac1c bdec412a 3d9cfc68 3da3bfd2 bde79b24 3d425900 bdc7e568 3dc1deec 3d20a924 3dfd2124 bdfc69f8 bdf671f2 3dad1506 3de34860 3d9cd898 3daa324a bdd79f18 3db94bda bdf1b3a0 3ce4c368 bda7b05c bd4b5d34 3cb55188 bd494ee4 bca20530 bdf2a49e bdf16024 3d465474 bd58b7f4 bd9bbf6c bd4a06b0 bdd14c2c bdcca57e 3d992eee 3d821c28 3c886680 bd8bd7ac 3d2a57c8 3bb80380 bdb6f4cc 3cdc5ab8 3de91968 bdfbcda0 bdfe907c 3c833330 3dc0c612 bd9bc5fc 3ce16ba0 3db3f6d8 3d1ddba4 3cdd9ac8 3dff6af8 3da6c6ea bd8ffb38 3c3105a0 3d82c888 3de1c4d2 bdfeb3ec 3d8aa018 bd14a660 bdfaae3e 3ce34d28 bd8b5eb2 3c911d00 bda6350c bdc0a5be bc2dc660 bd2bfe74 3d95b9b2 3c309320 3dc7d2b0 3cbfe690 bd24a3b0 3dad65bc 3bdfd380 3cc03240 bd24abb8 39eb3200 bcc4e340 bc2e1d90 bdc7a62c ba498500 bdd47dc8 bcdc4b40 3d945d24 bdb2027a bdac8ea8 bcfa0968 bd0c5b4c 3cad59b0 3caa0000 3d81d114 bdb05a7a bc1087a0 3d8f2db6 3ddd6ec6 bc156470 bd942074 3d132e4c 3d91c944 bd9fef9c bd948e1c 3d624d98 bc0f7ec0 bdf1caaa bd939b14 3d4fa200 bd2da870 3db0b2da 3dca60d2 3c94f610 bc21f1f0 bd2285d0 bbcf1e20 3cba63b0 bdc38bbe bcf4bb48 bdd4f0e8 3d9d1f0a bda307b4 3de9de02 bd03fbd8 bd92a7f4 3d75fdf4 3c98a830 3db144cc 3d55be98 bdf69d6a 3da1eae4 bcc0d558 bd624a08 3da292e4 3dbab564 bde1019a bc392fe0 3dd23a98 3d464a74 3dd7ac12 bd2f7634 bd8d3870 3ddc230a 3d5569d0 3df5c16a bd55dc54 bda45e7e bc700d50 bdf10b62 3d48b0f8 3dbcd298 3cf5d178 bc4a5b40 3d7dda54 bda27f10 3dfa6e24 bdfe8d4e bdf53be6 bcf1f910 3dd11cb8 3c4d0ec0 3d44a1a4 bdbba656 3d3ab818 bc64d9c0 3d4d38c0 3db4cc50 3d5e8e68 bc2e3620 bbfc4f60 bda08ee2 bd393104 3da65bca bd4d4f6c 3d9efc76 bd4b063c bcee7d08 3b2e5800 bdeaec20 baa39800 bc4e6e00 bc37fc20 bcccb3b0 3dc9d318 3dbcecba bdad8180 3d6dd674 bdc8cd4c bdd9f032 3d1c8258 3af0c980 bd6ed9ec bdf6e9b8 bd4636b4 3d2b01fc bdecf438 bdf8b1f6 3c81eae0 bdb86c68 bde046cc bd45443c bca4dd68 bde8a0e8 bdaaf034 3c064870 bdf16698 bc8fed80 bda54cc6 bdb17800 3d493b5c bdc50a62 bdc2016c 3d91fdf8 3cbf7418 3de9247a bd08daf4 bd774dc0 bc3d8900 3a25c900 3dc33ca8 bdfeff18 bc11d1b0 3d627bfc bd8cf990 bd821584 3d776ee0 bdf54ba0 3cf2a488 bdc63116 3d7e7ee4 bddae3ee 3d9d63d8 bdf25684 bdd72f62 3af17300 3dc9b99c bddb3cbe bd6461f0 3de0d720 bcabb8e0 3d541d1c bdf64584 bd2103a4 bd82014a 3dd7d2dc 3d54801c bdbacc06 3ca518b0 babc4f00 bd525d88 bd923214 bd29e6c0 3dc9c936 bdb783a2 bdb65c22 bd1df638 3b0e82c0 3d0b5f5c 3b75d380 bcf680c8 bd9b39c4 bcb7bd30 bd4e1b78 3dced46c bdf9315e bda34aba bdd04772 bcbb2498 3dc77e76 3de064e0 bddedcb6 bbb17780 3d96436a 3d61b034 3dd1b0ca bb633b40 bdac012a 3da95a10 bd2f9280 3d848da2 bcfc59d8 3d59a5f0 3de640c8 3dee0b02 bde8fa06 bda956c6 bd53b1ec bda34060 3df5a1cc bc34e080 bda9d0b0 bd63d5a8 bd8d67c4 3d50e3fc bddf4bda bdeeb1f8 bdfc5ad8 3d5c6da8 3d7d2928 bd9eff0a 3cfdee18 3dbcf9ac 3c94c9e0 bcd8a8d8 3c174fa0 bc5b9a30 3d80e552 bdadd3b0 3d81d178 3d9049a2 bd9b1a9a 3dd10a50 3dfb7076 bd49d858 bd0f6888 3d7f2874 bdc88e3e 3d4a7978 3ceee770 3da15d4a bdde5d04 bdd4ae50 3d65f440 3d386d8c bdee46b2 bd8ec2c6 bdea3c08 bdb7677e bd6703a4 3dd3d990 bccbd400 3d9308ae 3df31e4a 3d6955bc bde52c82 3d80d334 3d434b64 3dc66ab2 bdfc86f4 3d9d71b0 3dd18bee bdee2c62 3c564650 3dda8a52 bdba30de 3d27ff40 3d623dc0 3d0630ac 3dfe88dc 3dd19b8a 3ddba2ec bc7f46d0 3dd6b5de bdee91d4 bd8a2526 bcdb03a8 bd1817d4 3dec7742 3d717e1c 3da4d0ee 3dae2234 bdbf3ba0 bc6d3390 3c958778 3d052ad8 3d83a4c0 bd4bba70 bd1a62b8 3dd634ae bd0969ac bdb1d404 3dad9404 3dad5a10 bd208bd8 bcccb7d8 bdbce5b4 bdd5c8b4 3d408990 bd5ab8fc 3dcbccea bdccfb8a bc8d8ae0 3b30e140 3d83920a 3dcf304c 3dad5d46 3d616160 bd6b013c bdb6d262 bde50558 3bcb2e40 3df84a12 bcc28048 bbac6f80 bdba089e 3d1d3060 3da24cbc bdfc64fc bdb4415a 3dbd9f06 3cf27268 bbff5ea0 3cb70c68 bc9bb0e0 bdb2ef5e bdef36cc 3da85f8c bc739510 bd3e2678 bd0427ac bd8ba0d8 bd17a558 bddbc10c 3dbf9372 3d511244 bd811b36 bd2ec09c 3d65b3d0 bd3d98ac 3d0702dc 3d0cf990 bda12678 3d0041bc 3bfa9c40 3ddf9616 bd394078 bd039e7c 3ddc91dc bdd10cda 3c13f700 3df6a816 bd65907c 3df56c32 3de328c2 3dee2abe bc436d30 3de7960c bd5f169c bd2f42a0 3d41a7b4 3cd85130 3d8d2066 3df34820 bda040d2 3d87ddb4 3d2b4c0c 3d870eb4 3d72c6b8 bd3f8618 bdca54c6 3dcce604 bd91faf6 3da3aaf2 bdf3e072 bcb12788 3aada700 3cb12d18 3c258b40 3d21559c bc6408a0 3cfac838 3dfd5566 bda5a534 bbdfa0e0 bd437134 3de09f3a 3ddb256e bb5f63c0 bd3179d4 bd9e2c7a 3db72d9a bc0d0860 3df11a6e 3d91fcb0 3de013f6 3dca79f8 bda65c10 3d15dd10 bd544e2c 3d8072e6 bc3822a0 3c314b90 bdb10d46 bde4cb34 3d40ce2c 3cedf670 3c31e520 3daddfb2 bd55cc50 3d35c00c bd8cfeb6 3cd42c38 bce9c718 3db3489c 3ddfde16 3dde5792 3bb84160 3d96f620 bdffc788 bd962b0a 3cb70338 3a36bf00 bdc8fa8a bd629dfc bd6f21b8 bdfda296 3c4351c0 3dae8380 3d4fcd54 bd7344a0 bdeb136e bdce88f0 3b17f480 3db01b16 bd4f5890 bd8b4d16 bd88909a bc314af0 bdf31c92 bde1e7e2 3dfc0106 bd742e58 bcb8b140 bd08fcac bde0e5c8 bcb48630 3d1cbb54 bd4fe6c8 bbae9220 ba1cbf00 bdfed968 3dba0a16 3dceca32 3dae8ace bd2823d4 3d85c6b4 bdefda26 bcfd52f0 bcd043f8 bd34d008 3d570a40 bd694bfc bc6d5f00 bd13d77c bdf067be bca91aa0 bdd8f434 3d954650 3d88d290 3defd19a bd2bee58 3bd04a60 3cc89790 3dff8b40 3deaa72e bd847d78 bdd9d4c2 bde6bad4 bd768f00 3dd73dca 3d2bf47c 3df7009e 3dbdc0a6 3aed8780 bd9ea99a 3df9fbf2 3dcd5b18 3d5daab4 bd8bd7ec 3dc9abe8 3c3a6690 3da946a0 3d55b118 3d87f02a bde0a244 bd8df27a 3d998aa0 bcd55600 bddeb6fe 3de8ce64 bb312800 3dce82d6 bdc8180a 3d304748 bd40dab8 bd57751c bcd59350 bd3d83c4 3d8c471e bcc28f20 3dc21a8e 3ce9a8d8 bc9e3940 bd93dd8e bdea698c bd155ca0 bded1068 bcbdb798 3b05e480 bc03fb20 bd7b80c8 3db1ae28 3d902c8e bcfc4a48 bd4a4b50 3da0f1d6 3ddeb9ea bdea674a bcdd3ea0 bc3e0f10 bd39600c 3dda8cae bc9741a8 3dd90c9a 3a21fe00 bc5e2630 bd955342 bd2a3e48 3d24fb48 3d627a10 bb91bc80 3df3ed82 bdb12f9e 3d444ec4 3de692ae bcb20e38 3dcb3da0 3b070a40 bdbfb44c bd8c7220 3d3e9308 bd5d9144 3cf64888 3dfbf828 3d2dea98 bc3fac00 3cfff430 bd937e28 bdd71ad4 bdc06f62 bdd6cf6c 3cd22510 3cc77540 bd599568 bdfa6814 3d8aad2a bd9141bc bcaaf458 bdd6a6c0 bd906cac 3d5595fc bdee85a8 bd91fb3a 3dbfee52 bd834a0e bd551264 bd0fc194 3d5adbec bda7eda0 3c4d57f0 3d511a28 bc14abc0 3cb92888 bdc349fa 3d677994 3d3f5978 bc807148 bdd3adc6 3d4cc998 3da70cf6 bcb31b10 3d71532c 3d3dc708 bd4cc88c bc0e2c40 3dfed50e 3a1ab300 bdcbce18 bc155b70 3d7eb75c bd272100 bd861020 3dd2e322 3d876d50 bcadf868 3bd142a0 bc589a20 3cedbcd0 3b9191e0 bd9aea20 3cbdb888 3b564280 3c046910 bd431df4 3d032f9c bdcf036e 3d190c74 3d8ab986 bc616390 bdc6dc60 b9ee3c00 393a1000 bddd3c86 bdb5114c 3decc8c8 3dbf710c 3d8de040 3db158a2 3d4519dc 3d9012ec 3da98dea bcef36d8 bc822c48 3db68a36 b83cd000 bda69364 bdc6808a 3d8f2cac 3dd40cbe 3dc6d010 3caa69c0 3db0b63a bdeb0ac8 bdb87042 bdf654bc 3dce4174 ba944080 bd6bc208 3d2d3f44 bd3fa890 bda42f22 3d457a40 3cbb7e40 bdb7538a bda89e12 3d700fb0 3dc2a80e 3c26b8c0 bd8095c0 3d773b50 3cb29758 bde01f6a bda5e646 3ce02140 3d9e6800 bd247cb0 3d7791b4 bd9e8b48 3df4f99a 3db6694a 3cbfcd78 3d63c8f4 3d32419c bd97109c ba8ede00 3d0887b8 bce721a0 3df57d72 bd457224 bde4a036 bd73c040 bded96f8 3dd2f4d2 bd65d770 bdb41d60 bc5d62e0 bdac7eb6 bd85ba44 3d8282ea bdc03424 3d71748c 3dbaaf60 b9930000 3d6358c4 bd8f668e 3dc7a212 3df8b064 3cf35708 3de94960 bdfe401e bc60df40 3ccb7630 bdde8308 3d7927cc bd432170 bd392e74 bdcb1d34 3d515090 bdba45c4 bcd94c70 3d63724c 3dc0db4c 3ce78d60 bd3eff74 bd5eb3c8 3d8fb03a 3cbdfd98 3dd78078 3d40cfe0 3dce3aa2 bdce497a 3dcdce3a bd6b3d94 bd090df4 3a442100 bcc00858 3cca8d98 3de41eec bd98f4ca 3d1e3390 bdcdbf90 3ca0c8a8 3dd2e54e 3dac9dd4 3ddb3a94 3d8a943a bc2970f0 3d05ae74 bd55f10c 3dd94c74 3d802e30 bdbb5f1c 3ddd5a20 baf32000 bbb61380 bd0c2078 bd071614 3bcd01a0 bd79f3fc bdee220a bd83ddfc bccbc5f0 3dc15126 3dbc53e8 bd99620c bb9d4680 bd13c588 bd88f3b2 bcb41158 bd31a6cc 3d8f1762 bd7deb98 3c9d8b98 bd9076e8 bd1fcc3c 3dc98780 bd7b5bfc bbf64b80 3df47e14 3d2f3da8 bd824dc0 bd99b404 bd338b90 bd205518 3d5eeb08 bce3a920 3dd7e882 bd8c7666 bd201ab4 3d3a68bc 3dcc74a2 3df4e348 3ca3e638 3baca6a0 bd6564e8 3d90a512 bd9463e2 bd0693b8 bdd5f6c6 bdf61a96 3d8f1778 3c0b22a0 3dcc13a4 3dcbb504 3d86563a 3d4ce644 bd04df74 3d87f6f0 3d76344c 3d313e40 bb6c7a40 3c98f460 3a116300 bdb9c926 3cedb5c0 bdbc327c 3d786c50 bd9886fa bd273ebc bd72d150 3dca104c bdb447ac 3d82b794 3d80644a 3db502d4 3d0048a0 3d8b8ede 3dca5e36 3cc9b420 3d2e16cc bdc82cd4 bd09556c 3c39b230 3c7821e0 bd34e3e4 bdfdc850 bd0526a0 3d4403bc 3ddc6f1e bde72cec 3d74724c bdf2e966 bdf4d032 bda05190 bc8740d8 3d0eff9c bdc2b0dc 3dc53b8e 3de78078 3bfc0300 3dd06140 bd67ca50 bd4a8b64 bc842460 3c5fc680 bdb29504 bdccfd22 3d4a41d0 3d139f90 3dfa6fd4 bd50bfc0 3d34ced0 bd4e9c98 3d7cbfa0 bbe2e600 3dbdc65c 3d8e39c0 3dd514bc 3d838ea8 3b99e2e0 3ddc9d1e bd965ea8 3df174a6 3dfa28ee 3df48c6e bd6f2a78 bd87a4ca 3c0192d0 3d1f6f88 3d806aa2 3d503b5c 3dd9fb36 bd0046cc bd27f940 3d2b9f5c 3d0ead78 bd9554f6 3c461790 bdc25e32 bd16347c bd48f23c 3de067c4 bde671c8 bd972618 bdfa877e 3d012110 bdc50a56 3d25a720 bdb1d208 bda3fd1c bd82c8be 3c99abb0 3deb3bc6 3defcc60 bc1ab9d0 bdfac04e bd2926ec bd4320fc bcd9cce8 3d43a11c 3d80d402 3d630204 3d12431c bd4f459c baadce00 3c825268 bd82c328 bc3734e0 bc7fa650 bdf1df40 3dad8c56 bc4f0ed0 bddd4d3c 3dca8a5a bd89bf38 3d354540 3dfde0e0 3bbd9d40 3d134de4 3d4b6eac 3dc17b86 bd1d17e0 bd900e5a bc204520 3dc83480 3c301740 3db1df28 ba73a000 3d1d1788 3b8e6d60 3b5e6140 bdf39d56 bddfcdd0 3c2a4020 3d7d67f4 3dabf7fa 3bb1b8e0 3d57d1b0 3d56232c bddcfe1a bde101c8 bdc67d14 3b0cd7c0 bda1df7e bd23d8c0 bc993470 3d47c348 3ced6c70 3ded7c2a 3de6e8de bda35122 b9ce7600 3ca91908 3ddf7cd4 bd1eadf8 bd493794 bda22a30 3dbca2ee bd110db4 bd3fc1c4 3dad268e 3deb8fd8 bbac9c60 bdb474ba 3dd095c2 bd2f1b40 bd6bf13c bdb3f960 bd763d20 bdc87d82 bd93c450 bde9348c bcce63d8 3d4ddccc bdc2560c b9370c00 bd3cce58 3d77a74c 3dddba22 bc87be98 bd80d840 bdc4b384 bd9667d4 3d13d384 3ceaf330 3d89dd12 bc9827d8 3d838a98 bde41386 3d09a2a8 3df885ee bdfd5ce0 bd84e58a 3da3e222 bca019e0 bd887588 3d9c2d32 3c0948e0 3ba06da0 bd1b830c 3dc0e16a 3d8e00a2 3cb770e8 3c9c4630 3d846038 3d9f7d94 bd5205ec bc6061c0 3d60c790 bd781ab0 3def5f6e bdaf5c1c 3d6c42c8 bdb7e354 3d2462d4 3db2ce14 3c76e2b0 bc4d4450 3da2cb3c bdb7d18a bdacb6e4 bdda301a bd9d94a0 3b549e00 bd682a0c 3ce421c0 3b8a3820 3dd50ed0 bd5e01e4 bd0c10ec 3da9511e bd017624 3df517d2 bd4b5b30 bab37000 bcf29d48 3d6edf38 3d442e88 bd8853c6 3da8b066 bc022270 bd01792c bb253f00 3db22980 3dfb1ef6 3d792268 3cb32ea0 3da7130a bd561a18 bd85c950 bd13dbbc bda5b078 3d5c24e0 3c428a00 bd2f2c3c bc4feaf0 bb226e00 3ddb8092 3de485c8 bdc514c2 3d3ba578 3d45b524 3d43c5b0 bc8b9a80 3d000b8c 3d00d680 3df92a1c bdf55b86 bd424aa4 bdac3cc0 bd785b20 3cc90ce0 3d9c2156 bdc1973e 3da68164 3dd5d65c bd7c5e50 3cb2ba40 bd836cb6 3cdb53c0 bd6d5ff8 bd4773bc bdab5ee2 bdd57a7a 3dcc4aaa bc815080 bb634380 bd7ece8c 3db26eca bd928710 bd4f15a8 bdc7d65c bdd743f2 3de3466e bdc5ae9e bc8d5f30 bd143420 3d3b8a10 3d08f1b4 bdc43f4e 3de5e834 bdff0288 3c4a8f30 bc2b1910 bced4d68 3dae749c 3dd82524 3c8563c8 bd34d680 3dbe52b6 3da0d648 3cb7eb30 bd0c09b0 3bacafe0 3de42bd8 3c5e1830 bcc9cb70 bdd8be66 bd892f9a 3db8e462 bb903c20 bc0861f0 3d475a48 bda86de8 bc0a5910 bd100094 3d85f1ce 3dd056c4 3da0be8e 3dbedcbc bde4c9a6 bd35c4c0 3c728410 bdd96f50 3d0ae440 bda7cda6 3d5b65fc 3dcf31b6 bddafeb6 3dd68364 3d6ee660 bda8f0a0 3df50998 bdddb7f8 bdac5820 bd7eb134 bbcf6a40 3cb7e140 bd1641c8 bdf2a61e bc6c6760 3dc23b36 3dc51a9c 3d8026cc 3c94ac68 3cfe7020 bdc55a54 3d4f543c bdfec7c6 bd5370c8 bd068d58 3dbbfd32 bb6ecd40 bd693884 3cb2e6d8 bdd46bd4 bd078e48 3d0dccac bc07a2c0 bc571490 3d9c75fa bdc276fc bd8142ce 3df7ccfa 3ccbc3c0 bca5cc00 3d849abe 3d9a0170 bcab1c90 bd5544e8 bca76170 3d39e958 bc82ba10 3d94fdfe bdd0c3a4 bd7b3414 3dc328b2 3c865668 3cce3460 3d2864f8 bcf1f6d8 bd4cc0b4 3d12e27c bd07b224 bd538190 3c8749d8 3cf7afc0 bc38ead0 bdad21b0 bc9ad4c0 bd91150e 3d86bcb2 bda9a022 3dcc1e3a 3d4bec70 bddb3798 3dbdfa54 bdfd2aec bbee2580 bd9fd5de bddc3b00 3c4aea70 bd783f68 3db90bc4 bdc93e7e 3dd47c60 3d9a71ac 3de0385a bd15ee18 bd9cea9e bdaa13d4 3dd4e1ce bd7ea808 bc7c2a40 bc9dd5f8 3cb02aa8 bdd2117c 3dce6c40 bdbd6c9c 3dfbca8c bd485668 bd649174 bc8cc058 3d178790 bcbdbb48 bdff801a 3db410f4 3dfd90a4 3d8128cc 3dfa80b2 3d0b8bb8 bc207b10 bdcbe71e bddfbeca bdb04156 bd01e7fc 3d951212 bd533e34 bb9f15e0 bae73a80 bda75780 bb5dc240 3df72e86 3dcc9bf2 3dc2f97a bc49fca0 3b114900 3d8bf3a8 bd2a4e08 bd4f7fb4 3ddb07de 3be9d8a0 bdacda58 3dd7b4fa 3ca9f5f0 3d88f988 bdde56ae 3cbe0680 3d9c9520 bc93ba38 bd9182f6 3dccd0c0 3d6e2458 3d11d20c 3cf22c40 3b34cf80 3d92ceb8 bcdfdab8 bd96b16c 3d438198 3d089970 3d42f17c bc637940 bc87e3a8 bc22c5e0 3d07016c bdc4719e bdee9b72 3d3f969c bd8c2934 bc2c4890 3d0df0e8 3c8fa028 3da50892 3c863ac0 3cfd8460 bc375180 3c972708 3d3bbcec 3daea59c bdf29026 bd5547c4 bde5b7f8 bd4c21a8 3d9c0d68 bdf28f7c bde56172 3d943ada bd972d70 3dbb1a0a 3d1f889c 3d00853c 3dcb5e9e bded21ae 3dbb77b2 3d260a58 bdab8c4e 3cf926c8 bd0eb1b4 bd4d8308 bc5dce30 bd7163dc 3ddfdb16 3ddc56fa bc5a79d0 bde303cc bbfa9320 3c074ff0 3dab1da4 3b83c900 3d1503fc 3d07da04 bd91413a bd9ecb1c bde4ce1e ba80a900 3d1e94dc bc119f60 3df87d94 bcc35740 bda70c02 3caaaaf8 bd102f54 bc8c6128 3df80d1a bb6b0c80 3ddfa06e 3c88c028 bd3e79a4 3dbbb054 bd91d332 3b878620 3ce62b28 3d65cd98 bdec336a 3bc8eea0 bd049120 3da5fb56 3d2c4260 3d4d3544 3d99ec2a bce54110 bc0336e0 3dcd607e bdce554e bdb0f3c6 3c15d250 bd4ad13c 3bea9500 3de223e2 bc6d6960 bdda4642 bd68be64 3deb1a16 bce0f640 bd60802c 3d6676fc 3c7d88e0 bde1b5c0 3dd53182 3d9028f2 3dde82ea 3d600d04 bd2c9f70 bd272418 3d782064 bcc681a0 3cc8c240 bdf80f9c bd7d17d0 3d3e2e60 bbc9eda0 bd7624f4 bddf4cec 3da2b40e bccde260 bdfb8748 3df6fc1c 3d792720 bd991fa4 bdbad63a 3df76046 3a08d100 bd99f6d2 3d93507a bcd54c58 3c0c4b50 bd855be8 bdd8d4a6 bdaa03f2 bc60e060 bdb954a2 3dfc50dc 3ab15380 bd440288 3d4a5a4c bde2f62c bd82f126 3d404ec8 bdd9837e 3d7f2eac 3c2c2520 bdd57464 bdfe100a 3d21d164 3d720194 bcccb440 bde25e90 bd938b70 3c59ab20 3b950440 3d030f68 3cb51058 bbd6b280 3d871916 3df852d0 3dd53348 3de89efc bd2ccd3c bd2ec0d0 bc6282f0 3d17537c 3d4f3f28 bc368d00 bda55b6c bdc126ea 3df674ba bd09a778 bc8a69b0 bd9ce468 bd7dd43c 3ce0e938 3d57a5c0 bd4a67d8 bd3c73f8 3dcacaf2 bd83d822 bdbeff6a bc9fc290 3df39866 3cdecfa0 3c8d7d48 bc7f0060 3d9ff8b6 bd7dc5f4 3dad9220 3cf1e9f8 3c63b400 3c8cf868 bd9de1b4 3dbe2208 3d867406 bdc838da bdee5b5e bd03cdc0 3daa12fc bd7c12e4 3ded4530 bd80b5ea bde73ed4 3d6138f0 bd9ab64a bca16bf0 bd1fb1e0 bc22bb80 bddf124e bdeacdb4 3d5c18d0 bc6811f0 bd9a6d50 bb50b040 bde9a8d6 3d07e810 3d73267c 3df845e6 bdd08e6a bc7855b0 3d8aee0e 3dea9d2c bdb62308 3d5994a8 3d5362ec 3d9a55be bdb07d94 3db6af92 bd5f0234 bd9d949a 3ccb5290 3dd8de2e bda9875a 3d88ae32 bc6a8c70 3d237314 3dc7b2b2 3d0b04b4 bdd48522 bd1a26a0 3ccb3d98 bdd7f58a 3caa3d60 bd8976cc bccb8c40 3d3729d4 bdce08aa bda45b0e 3d698680 bdfd31c4 3db02d1c bdc56572 bb03e800 3cd235e8 3d4a0804 bd9ee414 3c89cd78 3d5c75f0 3ddb92da bdc0a714 bd7e8d54 3d152768 bb837e20 bdacc178 bdd7766c bde34f56 bdb322b2 bd59fe58 bdb1c42a bde09344 3c1fdd60 3d962200 bd7166bc 3c4ccba0 bac9fa00 3d6f536c bdb189aa 3bc276c0 3deef2fa 3db6c35e bdfdb9d4 bc9a2708 3a98ba00 bd290f78 bda8303c bdb221ac 3daa1a88 bd25c218 bc03cc20 3d163c90 bd9d215a 3c368ac0 3d9845a2 bd95ae20 3d14f5bc bb8be740 3d8cc20c 3daa1b60 3d07d624 3b778700 bddc5f66 3d4bdae0 3d9c1312 bd39f8ac bdfe317c 3dcf7412 bcf05c90 3cccdfc0 bd0fed70 3da34238 3df9abe8 3da07880 bd22f0d8 3db366f8 3d79d234 3c47ceb0 bdce33fc bd5bd96c bdfd4872 3dab38ae 3dfd0dbc 3d951fa2 3d23980c 3cf20378 3df66fc4 bd81c960 bd2be434 bde5db5c bc4acce0 3c0c7bd0 3d0c27a8 bdb2185c bc6cfe40 bdd2f1ba bdd03d96 3c8578d0 bdf9e51e 3d08559c bdebd3ac bdb221a4 bcd479d8 bdf44bc8 3dcec0fe 3dd1c156 bd85b75a 3cd681f0 3d82f694 3d22b328 bc892bb8 bdf1764a 3dba25c6 bde0896a bcbda500 3bfe14c0 bd289f84 bd3b4434 bddd40d4 3be1afc0 bc688a50 3ddf2e72 bd288fac 3dc5ddc2 3bc1e7a0 bd660850 bcf386b8 bc6868d0 3aa9b580 bca8b4e8 3d17f2a4 3dd2d1f4 3ca0f4b8 3d3973f4 3d9e15d0 3cdcb9a0 3d6c045c 3d8648f4 3def9e90 bde9a3ae 3d2f33b4 bbb99880 bcb7e688 bd4565c4 3d99e848 3dea2f82 bdd0eb44 3d8a4fca 3db08654 3cb2f7f0 3ac10000 3dc4ffa6 3b72e180 bcff6918 bc173bd0 3d24447c 3d002c74 bbdcfe00 3d219f0c 3d09e468 bdcf6006 3cff2830 3d9ca1d2 3c6ade50 bc3aef50 3dc41aa2 bddfa992 bd69b20c bd676b54 3ddd3286 bdf79bd8 3c4b1db0 bdf7fc02 bb86b120 3d3ed770 bcef7790 3df8821c 39d0a000 bd82843a 3d0406fc 3d8522ea b9823400 3ddb0056 bda206ca 3d5a7598 3d915dae 3d7e4e50 b8405000 3d12285c bdc8d5bc bdc8e5c0 bbfe97e0 bc805750 3dbe162a 3db9e372 3dad9488 bd6a834c bdc8f830 bdf020b2 3d394c60 bde6ad54 bdff8dde bd816098 bdd8244c bd49c5e0 bda129f6 bd83563e 3df362ac bcc0f830 3dd45ca4 3b35c280 bc83ae10 bd15e78c bdb6feea bdcdaec4 3db1428e bd1dc718 bdf99844 3deaf054 3b17f540 bdab4d72 bdc93ace bdd6fc28 bde07994 3de7a8ec 3db082a6 3c278190 bdda2ea6 bd05ea1c bdf07c2c 3d30720c bd07f230 bcdb2160 bd1fc03c 3d700d4c 3d8a91f2 3ce05128 bc803af8 bc4a6440 bb0f2500 bdbea24e 3df9cc0e bd5cd110 3d94f14a bd8f8358 3a5bfa00 3d2f4588 bdeb0de0 3d6adab4 bdc3f430 3c8ee538 bccb0ef8 3d92bec2 3df8ce82 3ce6c648 bb69ea40 bd7daaf0 3d3ee460 bd766fe8 3d537d84 bd5dea38 3dada5fe 3dc45c78 3d9cf9b0 3aa41e80 3d6d6fd0 bde9468a 3dcf9bee bd05061c 3d3aa728 bcad6718 bd2bec44 bd707020 3da52038 bd8b46d0 bcb493e8 3d8123a4 3c4e6950 bdd765f4 bdfe8f58 bd78ebac 3dec1cee bdb605ca 3d8d1734 3db73fb2 bd543900 bd621a48 bdb82cfa 3c9fb9a8 bc8f26d8 3bc700e0 3d5e15e0 3d56f540 bd2188d4 3c0ca8b0 3cf33f60 3b2e6080 3ccce9b0 bd4f67ec 3dd1d622 bc521060 bc830418 bde5c364 bdb990f6 3b7ed380 bc9e5d78 bd80b62e 3d8600dc bc375940 3d341078 3dd79ec4 bd6b63f4 bd7bfe00 bccdc518 bc2d6d40 bd800aa8 bcf5d8a0 bb6c2040 3d65a9cc 3decd77a 3dbd91fc 3c58c000 bc010ef0 3d032674 bba734a0 bc8662f0 3d300fc8 bdd0481a bdd9b638 3a04bb00 bd1b2fac bd7d3f04 bdee5244 3dab7bf0 bba33360 bd898ade bd508f68 3d069b3c bdb9a8fe 3c0388f0 baca0b80 3d2e6b58 3d4b1bb4 bda743de 3d5d13b0 3dc14f6a 3c03d960 3d826b9a bd41d638 3ccb6578 3d159b08 bd6c7bd4 3d9e0f12 bdf20c1c bd405360 bd96a094 bd97f89a bd9b1fa2 bdf139f8 3cafbc50 bcca9078 bdd78e04 b857a000 bcaa9450 3d5336b0 bdc88570 bd1009e0 3cd2c640 3d5907b0 3c1aee50 3d0ac048 3dffe804 bd315cec 3dae79ba 3ddc83f2 bde27636 3cf7b320 3d9102d4 bc9fbb18 3d8d4936 3b8b5220 3dc2e374 3b3062c0 bda3e59e 3dc26a90 3d184560 3dd9cc06 3cfe3380 3d87f016 3d9f9e72 3cac6d90 bcee0b88 3cd37dc8 bdb27efa 3b8beec0 bd249070 3c017bc0 bdcab0b2 3d9c6bfc bdec3056 3d5b4274 3da8976a bdea9f7a 3de74c70 bdbe4e6a bcc91448 3d84a89e bd225b4c 3de424b4 bd61dec4 bc8918f8 bda757ea bd6d8824 3df9d10a 3dc0873c 3c16cba0 3c286440 bdd93d8a 3dc14440 bc9986d8 bd558d54 bdcbbb06 3dd27a78 3d72c8b4 3d9a323a 3c540fa0 bdadb6ca 3d51bb9c 3c6c31b0 3d2bd074 bcfefc10 bd719ee0 3dd22896 3d2ba184 bd4fccc8 3c36e260 bcde97a8 bc2f2360 3d8f8dec bdcbc14e 3de7b040 3dac4d64 38e14000 bd516ce8 3cd0c8f0 bda972d4 3da648f6 bd87636a 3cc3a918 bdfbdc58 3d752f10 3dad4c7e 3dc02608 3c272b10 3d9726e8 3d2e9274 3dabad7e 3d90767a bddffb4a 3c57e6f0 bd2e8cb4 bd747a60 3db330b4 bc928f30 3c9f1248 3da12f64 3dac51be 3d889ebc bcb2c778 bde43272 bdf5c190 3d20efcc bac26e80 bda1be6e 3d5f9b70 3de85e5e 3d941060 bc907448 3c8a5e38 bda34b16 3d71a90c bdc6630a 3db0bd8e bd69db08 bd4b10e0 bdd66db6 bcf79fd8 bc4619f0 bd6bff24 3db63bb8 3d92eb5c bde1efb4 bc4cdcf0 3d2c2420 3df6fcf4 bcf4d9f8 3d9d2a84 bbe57840 bd445fc0 3d9ca97a bde41e7c 3dd67a16 3dffb33e bd0bc9d8 3d4a4050 3dff48c8 3d1a5c38 3d4839e0 3d3c00d0 bd5178e4 3cf9f4e8 bd8870f6 3dda9a1c bd5b6638 3cea1770 bd1450c4 3d800666 3b070800 3d8cc32e bd0aa41c bd96394a 3d444c18 bd90126e bdd22f10 3d45d104 bd99f76a bd4072a4 bcffb020 3c116c60 bd315360 bd384510 bd00af70 3db36718 3d194e8c bd767f08 bdb0f476 3b3dcf80 3d2406e8 bb2b6d00 3d95dc24 3dd75300 3d161004 3d28db50 3d94859a bd2f6698 3cb5a380 3dcef8d6 bd752dac 3c1f64e0 bd482bcc bdc4d830 3d879886 3dcc8ed2 bd8a4cde 3d3fe414 3d1d0068 3d47eafc 3d8ceb36 3deeffd6 3dc24dda bde000ae bd48b7cc 3d87f65a bd9224a0 3cc911c0 bd5b7f18 3ccb6088 3d79d358 3d20ed7c 3db9f7b2 bc767240 3d8af99a 3d25861c bd215b98 bdb4cdde 3dea3588 bd18a754 3dc0d35e 3da15dbc bba4f060 bdd37548 3c24df90 bd7782e0 3d053ae8 bd4b8394 3dc5500c bde6f8f2 bd09d52c 3ca17bb8 3c435f80 3dd25034 bd21c614 bdcc5a6a 3da97e4a 3d0f1174 3da8a362 bd9783d8 bd965c46 bd4ed224 3c119b80 3d2d7ef4 bd931c92 bc40d240 bcb0fb48 3de99572 bd38a5dc 3df81500 bd9d0334 bd52f9b4 bdc08c72 3dbc9864 bdb00bb4 3d53ef0c bd3c2410 3dff1b3c 3c907128 bdde5090 3cb03bf0 3c78fe90 bdf79af6 3ccd81d8 3df43fa0 3d135768 ba2e4300 bcd44708 3d080f18 bd641a9c 3dfc1996 3ddd4d22 3d6f307c bd3eb584 bdf05f58 bd935f4c 3df8e84e bdeafa16 bdf46e9c bc139b60 3d22e498 bdfecb78 bdedad0a 3a322700 bd2bbe04 3db2599e 3d130034 bdde36ba bde6bc34 3dafcef6 bcb593a8 bd5ffa64 3d21452c bcc94080 3d74dcd8 3d01d690 bd5daeb8 bdcd2e6a 3d8a9566 bd99cebc bc628460 3c8c0280 bd94fbc8 3d8b7312 bdb41136 3cfb8040 3c5b0910 3d3bdbc0 bdfb3e28 3bec9b80 3d799a64 bda3e544 3cfd63d8 3a006500 3dd92d76 bcd8d428 3a5fde00 bd5eb01c bcfc5e28 3d1292e8 bdf6e5dc 3dc23418 3db81702 3d58d46c 3dbfa414 bd1f60f4 3ce93de8 3bd06200 bdb105ca bd44d610 bd35c3e8 bcfd3000 bde34ff2 bdb40ace bc427bd0 bc9bc628 bde86210 3cdacba0 3d8b63fe 3dd53348 3dd77358 bdb2e256 bd24163c bd72e428 3cbbcff8 3d093320 3ce3d378 3d95994c 3d870f54 bd89683e 3dafbd48 3dacb088 3c8782d8 bddeb9e6 bd9d02e6 3d0eaea4 3d310520 3deeb50c 3d824abc 3d399230 bb8bb3c0 3dae8f06 bd3a5c60 3d507840 bd73dbec ba98ec00 3d974b6e 3d6aee74 bce5ca58 bacf7500 bd8e1d36 3d6d285c 3dac41f6 3d303de8 bdf7b8b8 bdb7422a 3dab6176 bc929ef0 3d9d378c 3dbcb30c bd15faa0 bd963368 bdf0d7de 3d43d97c 3d834c60 bcb186d8 bdf88800 bda4e46c bbdcb1e0 3d69adb0 bd2b8ff0 bda54342 bdb23888 3de50cfe 3d396828 bdcfd9c6 bd9e193e bdd9512e 3c942780 bd4fe7cc b9ddda00 bca1feb8 bde01668 bde4c4a8 bdc68f9a bd566e54 3c9f4480 bd70c820 bb920040 bc7550e0 3dea1f4a bd6967c8 3df08548 bdc4871c bdd596f8 3d267fc8 bd94fda2 3d834f00 bd8da19e 3dc9974a 3df7e1fc 3c031cb0 3cdad960 3deeac8a 3d97c2d0 bddf7c24 bb831e00 bde715e0 3dc38e14 bcbb8fd8 ba646900 bd9d48a2 bd8b337a 3c84e530 3dd337e0 bd80addc 3c4185e0 3de7bba0 3de56e3e bcc832b0 3deff05e 3d3a7454 3de927c2 3b730dc0 bdd8f56c bd0b5e50 3d19907c 3d8884a6 bdff077c 3dc72126 bde5a6c2 3d95fee4 3dfc9626 3cfc5938 bcc142c8 3d8cf47a bd17f67c bdbda0a8 bdb5ae18 3d70bbb0 3dc3836c 3ba5dbc0 bdf8370c bdfb8c32 bce73a10 3d8a3198 bdaa98e0 3d0a0140 bd8bec04 3dd0490c bd0628f0 bcd56698 bde08858 bde54c0c 3c0a69e0 3ca59260 3d8a4ef6 bddfda96 3cb36d08 bc93ed30 3d962b24 bd68cde8 3d1889e0 3d4e5208 3d809934 bd2f9c48 3d24c464 bcc8af98 3d09defc bd9d6a4a bdcb6b84 bdd1678e bda0edb6 bd58b14c 3c986ca8 bcdffca8 bd91bc10 3a89a280 bd21b01c 3d9dce62 bdd2d7ce bd3cfbd0 bda48398 3c7cb460 3bdf75e0 bbeba060 3dfe0092 bd4351d8 bc932dc0 3d044768 3dd5a920 3dc20abe 3c69f5e0 bd41b408 3d283394 3da1124c bb2ed400 3d8c8d78 3dd1840c bd892820 bce261d0 bde67b12 3ceb1008 3db672de bcc6da08 3ca36608 3d2399f4 bb2ebac0 3dc7065c 3c953800 bdfba254 bdd366b8 bdfda2cc 3ba8d280 3d8a62a8 bc8718c8 3de62c44 bcb83878 3cd15b70 3de6d87a 3d818f3c bb82aca0 3df695c8 bd98f36e 3d3eb520 3da1ac68 bd9e8358 bdf078d2 3d23c4f8 bd423f40 bd813032 3ccbadd8 bdb9b5aa 3de63f54 bc37d730 bd23f820 3dd602de 3d0e8fe4 3cc31848 bd74cd94 3df3fcb4 bd1bf06c 3dd4ec44 bc168ba0 3d806b52 3db3ffda bdbe97b6 bdaa9ff4 bdfd258c 3db8a4aa 3ddc2806 bd3b1ed4 bd7ac458 3cab6858 3d89d33a 3cfcc270 bcd56968 bda2d5cc 3ddaf2d6 bda5ca02 bdf75f60 bd4c6d74 3ccc31a0 3d3e4e44 3d45f940 bd944cec bd44801c bd63ad10 bd77f0dc bdd79f3a 3cd19cc8 bd14e604 bdf666cc bd957b9a bd99bd62 bd5cdb94 bd9e2ef8 bcb194d0 3d377b54 bdcf2f32 bc2f70f0 bd13592c bd82e1d2 bce360a0 bd590068 3b83ad60 bdb8cb2a 3cc230b0 3deb0ab8 3dd41fdc bd658f54 3d1dd018 bdf1f8e6 3dd7899a bdff1ede bde4c4b0 bde5cb06 bdedbc44 3c8aae20 bd0763b8 3cf51780 bbfd6fc0 bb2ff940 bd38f9e0 bd97e22a bdd65662 3d812c66 bd83fe52 bcd04288 3d78acfc bcfd9b10 bd0117cc bdaaa948 bddb08a4 3d75be38 bce70870 3da0f95c 3c06cad0 b9267c00 bde71df8 3b34dd00 bce76bb0 bd921518 bcecfe08 3bd62240 bdc0e438 3caa4640 3db220ee 3cca49d0 3df45d92 3d6eebb8 bdc9e4e6 bd4987d0 bcf66b18 3d192938 bb69a600 3dce009a 3c6de890 bda220a4 bd3bb510 bdd4fb68 bd0d2c6c 3d7bba74 3a9e3680 bdf41f6a bddd8428 3d399fa4 bde0b11e bdcc30d0 bd98a18a 3df3ff90 bd1195c4 bd531928 bdacdac0 3da3c3d8 bca55810 3cc57680 3cf49f90 3d1065cc 3da3dcd8 3bd48e40 3c53d710 bc04ff50 bdc6ede2 bcea5738 3df3a62a bdb56ed4 bda1905e bdfe0848 3bf85f40 bdef714a bd831f28 3debe390 3d540d6c 3d8863b8 3caf5738 bdd98b2a bd6e3e64 bdcf3f3a bd9e4cc4 3d2e5bd0 bd0e015c 3dfa2dec bdba9cee bdda7914 3dfcc668 bddd25aa 3dd9d6a2 3d09dec8 bde954e0 3ddef880 bd0b6398 bd531de4 bdc7b494 bdd8895c 3ce3fdd0 bdfb756a 3d5264e4 bcfd0a30 3d33af30 bcfab798 3d310f20 bb5fc600 3d167c48 bd504dbc bdb016ac 3c826960 bda3663c bd9eb26a bdf62952 bd2332e8 bdab0e64 3dc75c5c 3db87c6c 3cf2f590 3dd00056 3d768904 bdf12864 bc4ce9b0 bca637d0 bd9b6f0e 3d11d2bc bd1fcd50 bd74d3dc babefe80 bdaa34ee 3dd3e0f6 3da1fde8 3df253f6 bcb55ef0 3d273778 bba4bfe0 bdd3d5b4 3d67a338 bdb2d060 bd38d288 bd654938 bdf9bee6 3b92eac0 3ca7c170 bc1841d0 3dbc46ae 3bc464a0 bcba8518 bd8ba226 bd980a2c bc919530 bd963f5c bda8e054 bc876fd0 bcb4cdb0 bd9c44aa 3d959402 3dd91b92 bdae8c4c 3d6042c0 bd6d92c4 bc54a6f0 3deefa26 3c8307f0 bdf416da 3deb5682 bbad4ca0 bd80301a bd873238 3ddb8746 3b0a4240 3d8d65d2 3da8401a bd46b92c 3c2dd460 bda59850 3dd5c614 bd875f0e 3daa0a56 3d01b994 3d9deb0a bdb45eb0 bb7ec300 3d84a61e bba37e40 baeb1580 3d798000 bdbf55ba bccd4cf8 3d693638 3d7b1c18 3dedc4b0 bcca9050 3cf2a018 bd7beaf0 bcabdcd8 bd808430 3dbdb6be 3a479b00 3d5049c8 3d8ccfd2 3cbed218 3c59f220 bc15e570 bdd8d9e6 3ca4fbf8 bce2dc78 bdd72cde 3dee82d4 bc5a5580 bd7f884c bdf9386c bdebc9b4 3d42f8a8 bd69baf4 bd5d2b94 bd942088 3dcea51e bcf62870 3da5ef44 3dcb3bc8 bdc67a2c 3dbefcce bcc38a70 3df53058 3d82c2a8 bdf7fb98 3cbe3cc8 3d33fb2c bd39bd50 3dc220a2 bdd40002 bd2275ec 3df3eca6 3dfa058e 3d7fc3fc bd98d178 bddc4342 bdd02546 bcfffcb0 3d9105e4 3d22196c bc78b600 3de63bd6 3dc90752 bd6f4cb8 bd5db98c bac03980 3cd47f90 ba6a9400 3d45aa24 3db0a06c bcb8a3c0 3d7b7064 3c8b4508 3d448844 3d52c7c4 bd08d944 bd6447c0 3d5ad8c4 bda3e784 3d86668e bda44144 3daf9ffc 3d4d6f40 bcfadd50 3d9253f6 bd289d6c 3cda2848 3d16beb8 3c5128c0 3ccda2c0 bb22a0c0 bd13ea2c 3d8ed32c 3d49f2e0 3d3ef938 3dacd45a bd85f1be bcedea10 bb697f00 3dce968a bdcbdb06 bd92d768 bcf3eab8 bddaace8 bdca4200 3daf5d8a 3bbf12c0 bdcdf22e bca914f8 bb86a9e0 bd360634 bdd6217e 3d8b5314 bc7cf3a0 3df9f0f4 bdc40fe0 bd8c8a72 bbd4cca0 bdb245b4 3dba90d6 3dc5f8a8 3de7eb52 bda19a5c 3db624e6 3db1bfd4 bd4bb8e8 3c60ba60 3d73fa88 3db730e2 bdef1a6c 3dfeddfe bd00ba64 3d509ca0 bd9effb0 bdc500ca bdad5f44 3d96dff6 bd7c8d70 3d94d0c4 3d1ac8ec 3d4ba964 bce3c328 bd21f520 bd6f8e04 bd8f188c 3dec0a3e bbde9a00 bd5b9054 bdee2f04 3bb23060 bdfe1d80 bac0ed80 3da1a3ee bd9372b2 3d8ca818 bd2352b0 bdc4e46a bdfd8d68 3d7e59e0 bdc3dd1c 3d79ff6c 3c929d78 3d8b2272 bdc06ed6 3ddfded8 bdfefbe8 bdc25022 3d998522 3b8b34e0 bd8fc0c2 bcd6cc88 bde3d2c6 bddecc92 bcdbb1f8 3dc34a4a 3d18e800 3cc118b8 bd07b1cc 3de90110 3a9cea00 3d2ce0d4 3b023480 3c9fca80 3d2abc34 3dc47310 3d935b0c 3c830cd8 3d4cb294 bd19f974 3daefc50 3d0fba68 3dc132bc bc9fe1a0 bdd1048e 3cca4968 3d503d40 3dceda74 3d46725c 3d3d2bf8 3dcbb9e4 bd2ff458 3de20790 3d833fee 3daaf7ec 3db693a0 bdd12616 3d8556fa 3dee6c24 bdb3d86c bc2f8710 bd9c3c34 bcf74418 3c989ac0 3d88efc8 bd14a444 bdf26980 3d8a3b06 3d8f9fb4 bcb9a360 3ddb27de 3dc5595e bce1b210 3b9e2c20 3cb460c0 bcc8a970 bcfc46c0 bd671ddc bd919570 3d7fb31c bd180890 bd75a044 3de18252 3ca3b898 3db8b5ac 3de94a86 bc904048 3c98be70 3ded58fe bdb02312 bd1982f8 3c91b6b8 bc0af150 3d085060 3d869ca8 bd52a574 3c1f77a0 3de79b5c bd90dbc0 bdad99bc bdc453ac 3d9906b8 bdeacfb6 bd78fc70 3dace6a4 bd997792 3dd02ed4 bd6f5774 3ca1ff38 3c860b18 bb48efc0 3d9f72ba 3dd96d28 bd9fd636 3d8f92c6 3d08ccb8 bb18a780 bdb2ff4a 3d17e0f8 3db9d07c bddbbc1e bdec6e0a bdfbab64 3cec9b50 bd131d88 bd1f0a94 3dee6066 bd0297f0 bda29278 3c383860 bd8c822e bd16035c 3d873a06 3cec5538 bdafac28 3df3b8c8 3dad3336 bdae82e6 3d5f04b0 3d526400 bdb7b16c bdb3ea46 bdd3f964 3d641200 3cb26800 3d586180 bd60e230 3dc07e16 3c82c0e8 bdcc44f6 bd00deec 3d82a572 3ce128f0 bc9ca770 bdb2db2c bd9f3fe0 3ddcceee bd92a55e 3db56996 bd2b5fdc 3aa3c480 bdf94a4c bd266ed0 3dd7cd80 bde5d632 3d80cf38 bdd77214 3c955a68 bde81952 bdcaa88c bdceab0e bd318940 3c8b6cd8 bdbbb12a 3d01c264 3d9a2fa8 3dd0b0de 3de2ac98 3da88c30 bd16c3ec bc3cbde0 3de28098 3d7eb2ec bd07c754 3dc1479e bddfb98a 3ddb1a2a 3d8f3bc8 bdbbc41e bdd0cc04 3dc832d8 3dfc8c18 3c32b700 bd480e78 3d91c50a 3d66fc50 bc7f9840 3dccf53e 3da5eec4 3cff48b8 3d84ec26 bdefcb56 bd6fd344 3c607fa0 3d0b3c18 bc8bfde0 3d415324 3d1bf860 bdec98a2 3d217e80 bc268360 bdb02a4c 3b8a3b60 bcfbd780 bd87f23c bde946d4 3dd628fa bd9b77c8 3c8988e0 3dcd14e2 bc810190 bda7c936 bdf7ab4e 3caa2428 bd80737c 3c155a30 3d238b2c bd111134 3dad949a bc8540e8 bd4c5520 bda94442 3d1b5778 bd9e45f6 3cd740e8 bc813d28 3dafeff2 bd7b012c bd7c38fc bc845618 bd9c5c30 3d433268 bd3b8b90 3d520f9c 3d94934e 3d957cc2 bcbbfcb8 3d8bb55e bd878f26 bdff10c0 bc42e870 bdb99df8 bdc65494 3d022600 3ddac216 bd497d34 bbe7b3a0 bdb97878 3cb2f8d0 3d11f83c bc9d3078 3dc2c5b8 bdce092c bc896380 bd8e1918 3de0c88c 3dd8d5f0 3dfbd0be 3deb8804 3d4ac7f0 bdc405de bdada61c 3cf57a08 bde48ec0 3da211c2 3d5e9698 3cf45220 bddf7144 3dba3a08 bc58c050 bd56dac4 3d85a8fe 3c2d1150 bd63c21c 3cefab98 bdaab734 3dedee14 3de06220 3d6c2008 3d876e5c bdfe7a86 bd8e4ea4 bdf65724 bd856dc0 bdd43e32 3dbc6f2e 3d8a1d7a 3d96c302 bd634b70 3dc31eb2 bc93f7c0 bd04a744 3d89d6b6 3da98800 bdb7feba 3df3b834 bc4eb420 3d085dbc bdfee898 3c63fea0 bd7d65a8 bda04ac2 bd55c5fc ba18a300 bd11dbf4 bda3fdfa 3db74ac4 3d1851d0 bdee3eb8 3cd6cd50 3cfb8b70 3b968280 3cf8a748 bc2b77b0 3d5feb60 bdb43802 bd5a4eb4 3dbfc56c bd9e9a36 3d7b340c 3decdea6 bdea16d2 bd604f40 3dda76bc bbf7ac40 3cca26c8 3c91bc38 3d52fea8 bd52f5d0 3c84f020 3dae61e0 bc2cc650 bdeade68 3d30f9bc bd02b4d8 bcd80820 3d858356 3cb375a8 bd9ade24 bd6c45d8 bc9ba868 bcfcfea8 bcd8c7d0 bdaefa72 3db97400 3d84c466 3cca1510 3ce7db00 3c6fc170 3dbf6b80 3ce7b638 3c9bfcf0 bd8cb9dc 3d2acc80 bdef7ffc 3d217a98 bddde5e8 bd53e700 3d8726fc bd987a08 3dcbd890 bd8d71fa 3df27b1a 3d1dcdf8 bd5de098 3d9c2106 bde2b634 bda22c74 bda062f4 3c86cca0 3c4933a0 bddc2ffc 3df707aa b8fa8800 bd88b402 3b43ad00 bd5bc718 3d0d41b8 3d395948 bd113c08 3beeca00 3d985272 bda682aa bce456f8 bc9710b0 bda95f76 3c26cdd0 3b9689e0 bdcec74e 3cd20f68 3df457ea 3d882a30 bd8add38 3dea5578 bdaff90e bd822980 3d61d6f4 3dcba89a 3df44c18 3ddc658c bd8cf71e 3cea5188 bda0befa 3b34e800 3dd418e6 3d7c1ac4 bdec623a bd5c59cc bdd7ff6a 3d713044 bc81fde0 bdbb2452 bd239b44 3d280528 3c3d9a60 3df034e8 bad98580 3d210d98 bd1b1940 3c746240 3b92bba0 3ddbe632 3d56888c bd91e472 bde37880 bdf39180 bd39efe0 3c845e18 3df0d60c bc4939b0 3d482ff0 3d821b0e bdc4189a bdd3c466 3d420148 3d6ea5e0 bd6e67bc 3ca07818 bdfaa704 3ace8400 3cfb0178 3a9b1580 bca28a18 3d551c0c bd0cbb50 3dbe9096 bddc8016 bd924d9e bdd5b79c bde786ec 3dbdc956 bcfd6988 bdc9184a 3cd46330 bdc1db84 3bd3bc60 3d736548 bcd88818 3d839a7c 3cd22ba8 bdcd6cba 3cc98aa8 3da50738 bced6228 3c418e10 3c82a2c8 3c301ca0 3d051804 bdf51c0c 3dc23b2a 3d5f4e64 3c7ce8a0 3cba53c0 bdce74ae bd122fcc bbb229a0 3cf36a10 bd8c6e5c 3c594d40 bd1ee5e4 3dba5650 bddbbd90 3c561550 3dad704a bdc6d4a4 bb6acb40 3d6c9768 3d4e9adc 3c70d860 3d4ef800 bdb274f0 3dd537f8 3b36b540 3da57af6 3ce28778 bc63d5b0 3d5b4f0c 3df3055c 3dfc85d0 bdd77cae 3bf86b80 bdb7e782 3d952872 3db7c7ee bdb3c338 bbecbb20 3db12582 3da94b66 bdc07a86 3dabe2da bcb549d8 bdd9b88c 3ccbfad8 3d6e857c 3d998750 bdae0f6e bdb96a96 bdac0110 3d91140e bddfbd3a ba8a2880 bd1674ec 3d5f8aa4 3cc918e0 bd814614 3cb2dbd0 3deb96aa 3ca89858 bd7db7f4 3b892240 bdead0ba bda43fa4 bcbe34b8 bd9f86de 3dd8c8de 3cc6c4d8 3dc6486c bce92c88 bc8e69b8 3d01264c bd183ce4 bd2e86e4 bdfb2136 3dc0db56 3de7affc bdfd78a8 bd296648 bdc1a2a4 bd4fd578 3dc2e542 3d88f094 bc1ee890 3d5aad14 3d18e770 3d8bce5c bdcdb8c0 3d1e434c bdf274b2 bda85cc4 bd3ecc84 bc478910 bdf196a2 3b4be040 3ca37d00 bd4b3208 3d2611a0 3ddfb2e2 bcaeea08 bd885712 bde2c5a6 bdbaee92 bd8d9724 bdbd4114 bd494b00 3d8d06ca 3d203754 3de6bd2c 3dfe2b36 bd385fec bd48824c 3c8c2118 bdcbd926 3d8b3e46 bcb84c20 bdd65b30 bdc1467a bdb066c8 3d0cb96c 3dc43df6 3dcad112 bd0cfb54 bd94b2fa bd633e54 bdaee0ea bd040134 bde73454 3d88d4d4 bdf0f22c bd9f3ef8 3dabcd3a bdbf7d88 3cf4cd60 3dbfc004 3dfc57bc 3d81888a bd096744 3d924998 bb872de0 bd1ddec4 39d57000 3ce5b148 3daba730 3d56eb54 3d7479a0 3c993018 bbce2880 3d56fcb8 3cf64b80 bdf4f6c2 3ca58e30 bd636004 bd87c19a 3d460184 3cd16578 3cad6858 bd72e264 3d6c94f8 3df03d10 3c7a8be0 3d52720c bde09892 3d9830d6 3d31dcd8 3d66ab9c 3d5582a4 bd06ab28 bbf5dce0 3df79eda 3dbb530c bdb77f72 3dcb1dd0 3dfec77e 3c86aae8 bdc7ba04 3cc67e28 bcceced0 3db80f86 bdf5f5f2 3d0305c8 bac02a80 3c213970 3db019b0 3b13fc80 bdce19c6 bd95559a bd4d01bc 3c5a6b80 3d4594ac bcbf22f8 bd4a1340 3d60ab38 bdf8e92c 3db2e354 bc6e1300 3db221de 3dc16fea 3c5ac810 3d21f5a8 bd90cb96 3db76b80 3d95d5e6 bca0d408 3d4790e0 bbe56e20 3dc802a0 3d52c320 3dbaa2d2 bde8b2d8 3df96d7a 3d3ec2fc 3d78ecd8 3ce42d58 3da82332 3df10100 bc2e7850 bdd20d9e 3deb134e bcd7f3f0 bd76ece8 3d9d9706 3d8ede3c 3c891868 bc008ec0 bcc3e460 3deaba96 3d9bfa16 3d98750a 3da33ee0 bd85fae0 3cd5ce68 bddd7684 3d94bb10 bdfdbfca bdffd8f4 bdfd0d28 3d9dddec 3c5522a0 39950800 3ca2df40 bd41c45c bd1b79c4 bdac7088 bcfa1400 bd9d86b2 3b578940 3dc9240c
linear2.bias 64  bdd3a21a 3d7bc974 bdbe698c bd542244 3cc83cc8 3cb03260 3dd1f080 b8442000 bd430130 bd53bf38 3b702c40 bdbff4c8 bdc8b80c bd5b10e4 3b527040 bdace328 bd922220 3db6c864 3dec930e bd206060 bddba1cc bd440560 3d4ea4f4 3d262ac0 bd1eb848 bde176d4 bd19f3c8 bce4f608 3d936bbe bd7de2ac 3d99a468 3c8e0c38 bcab9ee0 bde42460 3dfcbd8c bcb698b0 3da11328 bd846bb4 bdf94cf8 bdcc0ee0 bd83323c bd230e44 bc909a40 3dd581f6 bdec1922 3d7f8c38 3dd767de 3a52e700 bd9fa702 3b8301e0 3cf2eec0 3d628a38 bd1ba1d8 bd2fb428 bd718bf0 bdf79b58 3d33d1a4 bdc18a30 bd75f730 baa89a80 3dc559f8 3de39e6a bdba3446 3dde0686
norm1.weight 64  3f800000 3f800000 3f800000 3f800000 3f800000 3f800000 3f800000 3f800000 3f800000 3f800000 3f800000 3f800000 3f800000 3f800000 3f800000 3f800000 3f800000 3f800000 3f800000 3f800000 3f800000 3f800000 3f800000 3f800000 3f800000 3f800000 3f800000 3f800000 3f800000 3f800000 3f800000 3f800000 3f800000 3f800000 3f800000 3f800000 3f800000 3f800000 3f800000 3f800000 3f800000 3f800000 3f800000 3f800000 3f800000 3f800000 3f800000 3f800000 3f800000 3f800000 3f800000 3f800000 3f800000 3f800000 3f800000 3f800000 3f800000 3f800000 3f800000 3f800000 3f800000 3f800000 3f800000 3f800000
norm1.bias 64  00000000 00000000 00000000 00000000 00000000 00000000 00000000 00000000 00000000 00000000 00000000 00000000 00000000 00000000 00000000 00000000 00000000 00000000 00000000 00000000 00000000 00000000 00000000 00000000 00000000 00000000 00000000 00000000 00000000 00000000 00000000 00000000 00000000 00000000 00000000 00000000 00000000 00000000 00000000 00000000 00000000 00000000 00000000 00000000 00000000 00000000 00000000 00000000 00000000 00000000 00000000 00000000 00000000 00000000 00000000 00000000 00000000 00000000 00000000 00000000 00000000 00000000 00000000 00000000
norm2.weight 64  3f800000 3f800000 3f800000 3f800000 3f800000 3f800000 3f800000 3f800000 3f800000 3f800000 3f800000 3f800000 3f800000 3f800000 3f800000 3f800000 3f800000 3f800000 3f800000 3f800000 3f800000 3f800000 3f800000 3f800000 3f800000 3f800000 3f800000 3f800000 3f800000 3f800000 3f800000 3f800000 3f800000 3f800000 3f800000 3f800000 3f800000 3f800000 3f800000 3f800000 3f800000 3f800000 3f800000 3f800000 3f800000 3f800000 3f800000 3f800000 3f800000 3f800000 3f800000 3f800000 3f800000 3f800000 3f800000 3f800000 3f800000 3f800000 3f800000 3f800000 3f800000 3f800000 3f800000 3f800000
norm2.bias 64  00000000 00000000 00000000 00000000 00000000 00000000 00000000 00000000 00000000 00000000 00000000 00000000 00000000 00000000 00000000 00000000 00000000 00000000 00000000 00000000 00000000 00000000 00000000 00000000 00000000 00000000 00000000 00000000 00000000 00000000 00000000 00000000 00000000 00000000 00000000 00000000 00000000 00000000 00000000 00000000 00000000 00000000 00000000 00000000 00000000 00000000 00000000 00000000 00000000 00000000 00000000 00000000 00000000 00000000 00000000 00000000 00000000 00000000 00000000 00000000 00000000 00000000 00000000 00000000
shortcut.0.weight 384  3ebb3d2c 3ea8db3f 3d119580 3ea7e046 3e4b1d4c be95fc8f be5c57b8 3bfb9612 be942163 be09a7b3 3ea885ed 3e42a23f 3eb608af 3b4d1c15 be552981 3e8a576f 3cf68df2 3d8ccd16 be312017 3e2bb8a3 be9a5f8d 3ea6cba9 3eb6dcc5 3e16d71f 3ea2c593 3e7dbda3 be1fa8bc beb54af1 3d5c0b05 3e833d9b bd2b1127 3d0cb323 3e9aed30 3e2c9bb0 3e9c4379 3d758a0b 3d3b7174 bdc7fdc2 bd8d16e7 be5e2d5f 3e8bbf7d 3ebea3ac 3e1b24ab 3c3e0d66 be09ffcb bece600d bd9ad0c5 be946307 be9a505a bda58f5f bda47a18 3da8a94f be978109 3e96375f bebe4e31 be45fbe0 be1eb646 3cce30df 3e2ccff1 bddc564a 3d827cf1 bdc5eeb5 be246bfb bd69e664 3da85726 becb08eb be917d38 3ea34cb1 3e3d08c2 bc32d736 3c533b8d 3d66d1f6 3dc25395 be8eb546 bde3e88d bebfd61d bea454bd bd9d50b3 bd5cca49 3ea37c94 3d900359 bd87919f bc394edc 3e6979c2 bdfd45eb bd9c4d63 bda7b9d9 bea88cf3 bd69b581 bec13ace be60b525 be850bce 3e9bb4ed bec08c7e 3ec96684 3e1cbed1 be8d41a5 3ead2c69 bdb83db1 beb10a1b bd68384d 3e4e9a4a becb3b1a bcfa9efa 3e2a1891 be22ec58 3d184c88 be23d785 be8c3bb1 3ea3b1cc be946a99 bb9cd596 3e0b3c02 be699fd4 3e49d9a2 bead95ca 3ec7a0b4 3e3a2e3d bd6cbcdf beaddfa8 3c4e45e6 3e1448ee be630b7c bd5296b8 bed04eba bed0f607 bd359b5e 3eaee631 bc9d6789 3e031000 be271985 be0880d5 bd37cdd5 be5355ef 3e7fcef5 3e8258be bea27ea4 3e00390a be2cb26f be70651f bd4c0103 be01a986 be6e0810 3d7670a7 3e6e9c1a bd8103c6 bce9f150 3cfbaab0 be33aad3 3e5d5187 3ec0dc76 bd18d4c8 3ce357fb 3ea86ae1 3eab33c9 be9b7e09 be41992a becd0971 3e80065e 3ea324ad be182719 3e061921 3dca87b7 beb3d5ad 3e26f09e 3e4d209f 3c131a0c 3d2b7b8d 3dc24953 3e9694fb 3eb8afcb 3d70568a 3e3231ec bddabe46 3e793db4 be24706c beac4ba5 3e4422fb 3e1b0c39 3db807ce 3e31dd94 3d46fc00 3e0e4705 3e2a58c4 be618377 bcb33121 3d7c0044 bd7de043 beafbe49 3d1e9f49 3e7f7c1f be5f920d 3ecd3881 3dbead41 3e31cc41 be216d37 beaafbcf be1b948a 3c4c5a5e be3e7e21 3eba2624 be85c826 be8cc848 be14488c 3ebb8688 be3f275c 3ec15fb9 3e48e662 bd7e13a7 3e583781 3e46be20 be54c83d bdac215a 3eca7707 3e6facac be4c2eaf bde0d0e8 3e6a4fc5 3e543a49 3d048cfd be867e99 be9a2b19 bdb0792a 3e19b3ac bd32459e beaec2b5 bdcce8be 3ed0a3c7 beacc2fb bea238cc 3e8365eb 3ecffac0 bec91290 bebd0c6f be02b794 3ed06743 be6d43cf 3d0ef895 3eaaa196 be13fdfb be003349 be8c4da4 3c8068aa 3ec31902 3e2af1cb 3e92eb97 bcdd919c bd84cdbf bd955f10 3e6e6e6e bd5b451f beb28bf2 be12cbd5 3e239ac1 3ecbcabd bd980755 beb5fd28 be99e850 bea475f5 3e288412 3e9a13b3 3df742f3 3e1023e5 3e882cab 3e8ee9d3 3e79a102 3e69c57a 3de23cf6 3e57c7b2 be8f6ca6 be874a8e 3de0dc64 3d821d50 beb7c1c0 be9845e4 bea665ee 3ea602de 3e88a8b4 be5c09ef 3d7c4d04 bdc04eb0 3eb5b594 bebd51cc be987da4 beae0680 3e734b3e be50f9e4 3e78fe14 3e0d502f be4c5680 bde13c33 be292d13 3e386e67 be27a668 3e0ddf39 3ceeebc3 bea6ed5e be8364fa be90ee61 3e5b0dd8 3db52a63 bc282e7b be78ec07 becf1a07 be13f0dd be9ff96a becfe861 bec75ba3 be888862 becb332c 3e0250d7 3e1c6be4 3e288042 bed014da 3e81405e 3da301f1 3e55c35a bdcd7dfc 3e48c07e bec63d9d 3e0e63bd 3ea5bf6e 3e2fbb72 bec50724 bdeab5f6 bd4fa89d 3e5b0974 be1e3089 3d708141 be12c168 bd84d202 bc0525e0 be700c8f be9114e3 3eac8e6d 3eaf9eff bc4a7ffb 3eb4ec88 3ea111fa be83a8e9 be261d4d be8f9121 3e07288d 3c2928bc bd65518c 3e9b3159 be2366e5 be64cafd be9496ed be54ac1c 3ec97666 be4b400a bde60db9 3e3c6b61 bea08962 be7dbc9e 3e99d7bf be2056b7 be58ed61 bd585831 bd6e45f6 3d98cc84 3e1943c0 bea12a9f 3ebdf3c5 bec6babb 3e0d95fe bdebe8a8 be308a02 3ec38647 bec96d02 3ce4682e 3e85f056 3ebadd8e beb0b61a 3d4978a9 3ececda4 beccbe86 3dcc379d be82f7c3 3d87ba80 bebd143e 3e4dae22 bdb97a64
shortcut.0.bias 64  3e79d7a6 bbc92a13 bd6e5a46 bdcafd3d bebf63e3 be3191d9 3c5e22be bea1b5c3 3eb7705d be87f106 be22de15 bd5f9e91 bea95264 bb5362f2 be494ead beaef5e4 3c241096 3eb90bb6 3dcde321 3eac666c bb82d23e be11ea1c 3ea876c0 be5e9dfc bec15e4d 3db6fd52 3e5057fc be79e4b0 3e13232c be1450d7 bd4ae44f bdb9203f bdb2d587 beaa130e 3dcce99c bddbedce 3e9fd397 3d8b8da8 beaaf18c be9f03e6 be59ded8 3e48315d be86f472 be3f3eae 3d97cacf be90ea51 be4ddb48 3ebd8a00 be5d04b7 be0b47fc 3e957e53 3dbb5ae6 3ea40fea beb825b4 3e50f563 bd7fc621 be85e8ef be330c38 beca2ec4 3e9098d6 bda06e30 beccf4db 3eb2c293 3e8762a9
shortcut.1.weight 64  3f800000 3f800000 3f800000 3f800000 3f800000 3f800000 3f800000 3f800000 3f800000 3f800000 3f800000 3f800000 3f800000 3f800000 3f800000 3f800000 3f800000 3f800000 3f800000 3f800000 3f800000 3f800000 3f800000 3f800000 3f800000 3f800000 3f800000 3f800000 3f800000 3f800000 3f800000 3f800000 3f800000 3f800000 3f800000 3f800000 3f800000 3f800000 3f800000 3f800000 3f800000 3f800000 3f800000 3f800000 3f800000 3f800000 3f800000 3f800000 3f800000 3f800000 3f800000 3f800000 3f800000 3f800000 3f800000 3f800000 3f800000 3f800000 3f800000 3f800000 3f800000 3f800000 3f800000 3f800000
shortcut.1.bias 64  00000000 00000000 00000000 00000000 00000000 00000000 00000000 00000000 00000000 00000000 00000000 00000000 00000000 00000000 00000000 00000000 00000000 00000000 00000000 00000000 00000000 00000000 00000000 00000000 00000000 00000000 00000000 00000000 00000000 00000000 00000000 00000000 00000000 00000000 00000000 00000000 00000000 00000000 00000000 00000000 00000000 00000000 00000000 00000000 00000000 00000000 00000000 00000000 00000000 00000000 00000000 00000000 00000000 00000000 00000000 00000000 00000000 00000000 00000000 00000000 00000000 00000000 00000000 00000000
